{
  "version": "1.0",
  "truncation": null,
  "padding": null,
  "added_tokens": [
    {
      "id": 0,
      "content": "<|endoftext|>",
      "single_word": false,
      "lstrip": false,
      "rstrip": false,
      "normalized": false,
      "special": true
    },
    {
      "id": 1,
      "content": "<|pad|>",
      "single_word": false,
      "lstrip": false,
      "rstrip": false,
      "normalized": false,
      "special": true
    },
    {
      "id": 2,
      "content": "<|unk|>",
      "single_word": false,
      "lstrip": false,
      "rstrip": false,
      "normalized": false,
      "special": true
    }
  ],
  "normalizer": {
    "type": "Sequence",
    "normalizers": [
      {
        "type": "NFKC"
      }
    ]
  },
  "pre_tokenizer": {
    "type": "ByteLevel",
    "add_prefix_space": false,
    "trim_offsets": true,
    "use_regex": true
  },
  "post_processor": null,
  "decoder": {
    "type": "ByteLevel",
    "add_prefix_space": true,
    "trim_offsets": true,
    "use_regex": true
  },
  "model": {
    "type": "BPE",
    "dropout": null,
    "unk_token": null,
    "continuing_subword_prefix": null,
    "end_of_word_suffix": null,
    "fuse_unk": false,
    "byte_fallback": false,
    "ignore_merges": false,
    "vocab": {
      "<|endoftext|>": 0,
      "<|pad|>": 1,
      "<|unk|>": 2,
      "!": 3,
      "\"": 4,
      "(": 5,
      ")": 6,
      "+": 7,
      "-": 8,
      ".": 9,
      "0": 10,
      "1": 11,
      "2": 12,
      "3": 13,
      "5": 14,
      "6": 15,
      "7": 16,
      "=": 17,
      "[": 18,
      "]": 19,
      "¡": 20,
      "¢": 21,
      "£": 22,
      "¤": 23,
      "¥": 24,
      "¦": 25,
      "§": 26,
      "¨": 27,
      "©": 28,
      "ª": 29,
      "«": 30,
      "¬": 31,
      "®": 32,
      "¯": 33,
      "°": 34,
      "±": 35,
      "²": 36,
      "³": 37,
      "´": 38,
      "µ": 39,
      "¶": 40,
      "·": 41,
      "¸": 42,
      "¹": 43,
      "º": 44,
      "»": 45,
      "¼": 46,
      "½": 47,
      "¾": 48,
      "á": 49,
      "Ċ": 50,
      "Ġ": 51,
      "Ģ": 52,
      "ģ": 53,
      "Ĥ": 54,
      "ĥ": 55,
      "Ħ": 56,
      "ħ": 57,
      "Ĩ": 58,
      "Ī": 59,
      "ī": 60,
      "Ĭ": 61,
      "ĭ": 62,
      "Į": 63,
      "į": 64,
      "İ": 65,
      "ı": 66,
      "Ĳ": 67,
      "ĳ": 68,
      "Ĵ": 69,
      "ĵ": 70,
      "Ķ": 71,
      "ķ": 72,
      "ĸ": 73,
      "Ĺ": 74,
      "ĺ": 75,
      "Ļ": 76,
      "ļ": 77,
      "Ľ": 78,
      "ľ": 79,
      "Ŀ": 80,
      "ŀ": 81,
      "Ł": 82,
      "ł": 83,
      "Ń": 84,
      "áĪ": 85,
      "áĭ": 86,
      "áī": 87,
      "áĬ": 88,
      "áĮ": 89,
      "áĬł": 90,
      "Ġáĭ": 91,
      "ĠáĪ": 92,
      "ĠáĬł": 93,
      "Ġáī": 94,
      "áĪį": 95,
      "áĬķ": 96,
      "áīµ": 97,
      "áĪŃ": 98,
      "áĮĪ": 99,
      "áĭį": 100,
      "áĪĪ": 101,
      "áį": 102,
      "áĪĿ": 103,
      "ĠáĬ": 104,
      "áĭŃ": 105,
      "áĪµ": 106,
      "áĭ«": 107,
      "áĪĭ": 108,
      "áĭµ": 109,
      "¨áĪ": 110,
      "áīł": 111,
      "ĠáĭŃ": 112,
      "ĠáĮ": 113,
      "áī¥": 114,
      "áĭ°": 115,
      "áĪĺ": 116,
      "Ġáĭ«": 117,
      "Ġáīł": 118,
      "áĬĵ": 119,
      "áī°": 120,
      "áīĢ": 121,
      "áī£": 122,
      "áĪ¨": 123,
      "áĪ«": 124,
      "Ġáĭ¨": 125,
      "áī³": 126,
      "áĬĲ": 127,
      "áĪħ": 128,
      "áĭ³": 129,
      "áĪĽ": 130,
      "áĮį": 131,
      "áĭĪ": 132,
      "áīħ": 133,
      "áįĪ": 134,
      "áĮ¥": 135,
      "ĠáĬłáĭŃ": 136,
      "áįį": 137,
      "áĮł": 138,
      "áĮ£": 139,
      "ĠáĪĪ": 140,
      "ĠáĪĺ": 141,
      "áĪ°": 142,
      "áĪ³": 143,
      "ĠáĬ¨": 144,
      "áĬĿ": 145,
      "áĭ¨": 146,
      "áĮħ": 147,
      "áī½": 148,
      "ĠáĬĲ": 149,
      "áĪ½": 150,
      "áĪĢ": 151,
      "áĪī": 152,
      "ĠáĪ²": 153,
      "Ġáī¢": 154,
      "Ġáī°": 155,
      "áĮĭ": 156,
      "áī±": 157,
      "Ġáĭ¨áĪ": 158,
      "ĠáĬłáĮĪ": 159,
      "ĠáĭĪ": 160,
      "áĭĺ": 161,
      "áĪ®": 162,
      "áĭĭ": 163,
      "áĬĽ": 164,
      "áĬ¨": 165,
      "áįĭ": 166,
      "ĠáĪį": 167,
      "áĪĪáĭį": 168,
      "áĭ¨áĪ": 169,
      "ĠáĬłáĬķ": 170,
      "Ġáī£": 171,
      "Ġáī¥": 172,
      "áĬŃ": 173,
      "áĮĪáĪŃ": 174,
      "áĪ©": 175,
      "ĠáĬĲáĭį": 176,
      "ĠáĪĿ": 177,
      "áīĥ": 178,
      "áĭĿ": 179,
      "ĠáĮĪ": 180,
      "áĪª": 181,
      "ĠáĪ°": 182,
      "áĪ»": 183,
      "áĭ±": 184,
      "ĠáīĢ": 185,
      "ĠáĪĽ": 186,
      "áĬłáĬķ": 187,
      "Ġáĭį": 188,
      "áĪŀ": 189,
      "áĪİ": 190,
      "ĠáĬłáĪĪ": 191,
      "áĪ¬": 192,
      "áĮī": 193,
      "áĪĨ": 194,
      "áīģ": 195,
      "áĮ¨": 196,
      "ĠáĬ«": 197,
      "áīłáīµ": 198,
      "ĠáĬłáĭ«": 199,
      "Ġáīµ": 200,
      "áĮŃ": 201,
      "áī¤": 202,
      "áĪĭáĪį": 203,
      "ĠáĪµ": 204,
      "áĪ±": 205,
      "áĭįáĬķ": 206,
      "áĭ¶": 207,
      "áĭĽ": 208,
      "áī¶": 209,
      "ĠáĬ¨áĪ": 210,
      "áĪģ": 211,
      "áĬ«": 212,
      "ĠáĪ³": 213,
      "ĠáĪįáĮħ": 214,
      "áīłáĪĭ": 215,
      "áĮĢ": 216,
      "ĠáĮ¥": 217,
      "áĬ¨áĪ": 218,
      "´áīµ": 219,
      "áĬ©": 220,
      "ĠáĪĭ": 221,
      "áĪ«áĪį": 222,
      "áĮ¡": 223,
      "áĪĪáīµ": 224,
      "Ġáĭµ": 225,
      "ĠáĮł": 226,
      "áĪ¸": 227,
      "áĪħáĭ«": 228,
      "áĮİ": 229,
      "Ġáĭ°": 230,
      "áĪĮ": 231,
      "Ġáĭĺ": 232,
      "Ġáĭ«áĪĪ": 233,
      "ĠáįĪ": 234,
      "Ġáīħ": 235,
      "áĭ«áĪį": 236,
      "áī¡": 237,
      "áĪ¨áĪ": 238,
      "áĪĻ": 239,
      "Ġáī³": 240,
      "ĠáĭįáĪĢ": 241,
      "áī³áĪį": 242,
      "ĠáĪŀ": 243,
      "Ġáī¤": 244,
      "áĪĪáī½": 245,
      "áĭ°áĪŃ": 246,
      "áĪ°áĭį": 247,
      "áĬłáī£": 248,
      "áĪĪáĪĿ": 249,
      "ĠáĮİ": 250,
      "áīĥáĪį": 251,
      "áĬłáĭŃ": 252,
      "ĠáĪ°áĭį": 253,
      "áĪ¶": 254,
      "áįī": 255,
      "ĠáĮį": 256,
      "áĪīáīµ": 257,
      "Ġáĭ¨áĪļ": 258,
      "áī¸": 259,
      "áĭ¬": 260,
      "áįĬ": 261,
      "áĬĲáĮĪáĪŃ": 262,
      "áĪ³áĪį": 263,
      "ĠáĬłáīµ": 264,
      "áī±áĬķ": 265,
      "ĽáĭŃ": 266,
      "áĬķáĭµ": 267,
      "áī¦": 268,
      "Ġáĭ¨áī°": 269,
      "áĪ³áīµ": 270,
      "áĬĶ": 271,
      "ĠáĭŃáĪĺ": 272,
      "áīĤ": 273,
      "áĮĪáĭµ": 274,
      "áĭĭáĪį": 275,
      "áĬ®": 276,
      "áĮ£áĪį": 277,
      "áĬĸ": 278,
      "Ġáī¤áīµ": 279,
      "áĪĺáīµ": 280,
      "ĠáĪĿáĬķ": 281,
      "Ġáĭ³": 282,
      "áĪĭáīµ": 283,
      "áĮĤ": 284,
      "áĪŃáĪµ": 285,
      "ĠáĬŃ": 286,
      "áī¥áĪŃ": 287,
      "áĪħáĪį": 288,
      "áĭľ": 289,
      "áī£áīµ": 290,
      "áī£áĪį": 291,
      "áĪĺáĭµ": 292,
      "áĮįáĪŃ": 293,
      "Ġáįį": 294,
      "ĠáĬłáĪµ": 295,
      "Ġáĭ«áĪµ": 296,
      "áĮĥ": 297,
      "áĪĺáĪį": 298,
      "Ġáĭ«áĪį": 299,
      "Ġáī¢áĭ«": 300,
      "áĮĮ": 301,
      "Ġáĭ¨áĪĪáĭį": 302,
      "áī»": 303,
      "ĠáĬłáĮĪáĭ°": 304,
      "áĪ«áīµ": 305,
      "áī¢": 306,
      "áĪµáīµ": 307,
      "ĠáĮī": 308,
      "áĪħáĬķ": 309,
      "áįĪáĪŃ": 310,
      "ĠáĪģ": 311,
      "áĭµáĪĢ": 312,
      "áĭ¨áĪļ": 313,
      "áī¤áīµ": 314,
      "áĬĳ": 315,
      "ĠáĪĨ": 316,
      "áī°áĬĽ": 317,
      "ĠáĬłáĬķáĭ°": 318,
      "ĠáĪ³áĭŃ": 319,
      "áĮ¸": 320,
      "ĠáĬłáĪį": 321,
      "áĬłáĪħáĭ«": 322,
      "ĠáĪ²áĭ«": 323,
      "áĭĻ": 324,
      "áĬłáĪĪ": 325,
      "áĭµáĪŃ": 326,
      "áīłáĪŃ": 327,
      "áĭĪáĮ£": 328,
      "áĪŁ": 329,
      "áĮĵ": 330,
      "ĠáĭĿ": 331,
      "ĠáĬłáĪŃ": 332,
      "áĬĵáĪį": 333,
      "áĪĨáĬķ": 334,
      "áĭŀ": 335,
      "ĠáĬĲáĮĪáĪŃ": 336,
      "áįĭáĪį": 337,
      "áĮīáĪµ": 338,
      "áĭ«áĪĪ": 339,
      "ĠáĮĭ": 340,
      "áĪ¨áĪµ": 341,
      "ĠáĬ¨áĪĺ": 342,
      "áĭ²": 343,
      "áī·": 344,
      "áĭ«áĭį": 345,
      "áĪ¨áĭį": 346,
      "áĬĲáīµ": 347,
      "áĪı": 348,
      "áĪļ": 349,
      "áī´": 350,
      "áĬłáĭį": 351,
      "ĠáĬ«áĪį": 352,
      "áĭ¨áĪį": 353,
      "áĭ©": 354,
      "ĠáĭŃáĭĪ": 355,
      "áĭ´": 356,
      "Ġáīģ": 357,
      "áĪĿáīµ": 358,
      "áĮħáī¥": 359,
      "Ġáĭ¨áĪ°": 360,
      "Ġáī£áĭŃ": 361,
      "áĮ«": 362,
      "áĬłáĪŃ": 363,
      "áĭįáĪĢ": 364,
      "ĠáĭŃáĮĪ": 365,
      "áīĢáĪŃ": 366,
      "áĪĦ": 367,
      "áįİ": 368,
      "Ġáĭ¨áĪĮ": 369,
      "áĪ´áīµ": 370,
      "ĠáĮŃ": 371,
      "áĬĵáīµ": 372,
      "áĭ³áĪį": 373,
      "áĮĭáĭŃ": 374,
      "ĠáĪįáī¥": 375,
      "áĮĪáĬķ": 376,
      "ĠáĭŃáīĢ": 377,
      "Ġáĭ«áĪĪáĭį": 378,
      "ĠáĬłáĭį": 379,
      "ĠáĭŃáīł": 380,
      "áĭ³áĬĽ": 381,
      "Ĭáĭľ": 382,
      "áīĦ": 383,
      "áĮ¦": 384,
      "Ġáĭ¨áĪĽáĭŃ": 385,
      "áĬ³": 386,
      "áīµáĬķ": 387,
      "áĭ°áĪį": 388,
      "ĠáīłáĬł": 389,
      "áĪĽáĪį": 390,
      "áĪľ": 391,
      "áĪĪáĪħ": 392,
      "áĪ¹": 393,
      "ĠáĭŃáĮł": 394,
      "ĠáĮħ": 395,
      "ĠáĪĪáĪĺ": 396,
      "Ġáī£áĪį": 397,
      "áĬĺ": 398,
      "ĠáĪĢ": 399,
      "áĮĪáĬĿ": 400,
      "ĠáīłáĪ¬": 401,
      "áĪŀáīµ": 402,
      "áĭ¶áĪ®": 403,
      "ĠáĮ£": 404,
      "áĭ°áĪ¨": 405,
      "Ġáĭ¨áĪĪáĪĿ": 406,
      "áīħáĪŃ": 407,
      "ĠáĭĪáĭ°": 408,
      "Ġáī¥áĪİ": 409,
      "áĮĪáī£": 410,
      "áīĢáĬķ": 411,
      "ĠáĪĭáĭŃ": 412,
      "Ġáĭ¨áĪĮáĪĪáĭį": 413,
      "áīĭ": 414,
      "áĮ®": 415,
      "ĠáĬłáįį": 416,
      "áī°áĭį": 417,
      "ĠáĪĺáĪį": 418,
      "ĠáĬłáĮĪáĭµ": 419,
      "ĠáĬłáĬķáĮĤ": 420,
      "áī¸áĭį": 421,
      "áīĨ": 422,
      "ĠáĬłáī³": 423,
      "áĮĪáĪ©": 424,
      "áĪĿáĪŃ": 425,
      "áĪĺáĬķ": 426,
      "áĭ³áĭŃ": 427,
      "áĪĽáīµ": 428,
      "áĮįáĭ³": 429,
      "áĪ°áĪĽ": 430,
      "áĮĢáĪ«": 431,
      "áĬłáįį": 432,
      "ĠáĬłáĪĿ": 433,
      "áīłáĪ¨": 434,
      "áī£áĪĪ": 435,
      "áĭĪáĭ°": 436,
      "áĭ¨áĪĽ": 437,
      "Ġáī£áĪĪ": 438,
      "ĠáĪļ": 439,
      "Ġáĭ«áĭį": 440,
      "áī°áīµ": 441,
      "áīħáĪĿ": 442,
      "áĮĨ": 443,
      "Ġáĭ¶": 444,
      "Ġáĭĭ": 445,
      "ĠáĪĬ": 446,
      "áĪŃáīħ": 447,
      "áĪĭáĪĿ": 448,
      "ĠáĭŃáĪĨ": 449,
      "áĭĭáĬķ": 450,
      "áĭ¨áĪĽáĭŃ": 451,
      "ĠáĬłáĪĪáī½": 452,
      "áĪ¾": 453,
      "áĮĦ": 454,
      "áĭµáĬķ": 455,
      "ĠáīłáĪĺ": 456,
      "ĠáĪĮ": 457,
      "ĠáĬłáĪ«": 458,
      "ĠáĬłáĪ³": 459,
      "áĪĪáĪĺ": 460,
      "ĠáĭŃáĪ°": 461,
      "ĠáīłáĭĪ": 462,
      "áĬĵáĮĪáĪŃ": 463,
      "áĮłáįĭ": 464,
      "ĠáĭĪáĭŃ": 465,
      "áĬłáĬķáĭ°": 466,
      "áįĬáīµ": 467,
      "ĠáĭŃáĪĺáĪµ": 468,
      "Ġáĭ¨áĪĪáĭįáĪĿ": 469,
      "áĬłáī¥": 470,
      "áĬłáĮį": 471,
      "ĠáĪĻ": 472,
      "ĠáĪ´áīµ": 473,
      "ĠáĬĵ": 474,
      "áī°áĪŃ": 475,
      "ĠáĪĺáĪµ": 476,
      "ĠáĭįáĪ»": 477,
      "áĪ¨áĪ°": 478,
      "áĪıáīµ": 479,
      "ĠáĬłáĬĵ": 480,
      "ĠáĬłáĭ³": 481,
      "ĠáĬłáĪħáĭ«": 482,
      "áĮĪáīł": 483,
      "áĭįáĪĿ": 484,
      "ĠáĮĮ": 485,
      "áĬĲáĮį": 486,
      "Ġáĭ¨áĪĽ": 487,
      "ĠáĪŀáīµ": 488,
      "áīº": 489,
      "ĠáĪ¸": 490,
      "ĠáĮ¨": 491,
      "ĠáĮĬáĭľ": 492,
      "ĠáĮĪáīł": 493,
      "áĬ¨áĪ«": 494,
      "Ġáĭ¶áĪ®": 495,
      "ĠáĭŃáĪĨáĬĵáĪį": 496,
      "áĬłáĭµ": 497,
      "áĬłáĪ³áīµ": 498,
      "ĠáĪ«": 499,
      "ĠáĬłáĪħáĪį": 500,
      "áĪĪáĪĽ": 501,
      "áĪĭáĭŃ": 502,
      "ĠáĭŃáĪ»": 503,
      "áĪĺáĪĪ": 504,
      "áĪĺáĮ£": 505,
      "Ġáĭ«áĮ£": 506,
      "áīĢáĭį": 507,
      "áĭĪáĪį": 508,
      "áĮ¥áĪŃ": 509,
      "ĠáĬłáĭŃáī³": 510,
      "áī¤áī±": 511,
      "áĭĽáĪį": 512,
      "áĪ·": 513,
      "áĬª": 514,
      "ĠáĬłáī£": 515,
      "ĠáĬłáĮį": 516,
      "áĬķáĮĪ": 517,
      "áĬķáĮīáĪµ": 518,
      "áĮĪáī¥": 519,
      "áĪĪáĭ°": 520,
      "ĠáĭŃáĭŀ": 521,
      "ĠáīłáĪį": 522,
      "ĠáĪĪáĪĽ": 523,
      "Ġáī¢áĪīáīµ": 524,
      "áĮ¡áīµ": 525,
      "áĪ´": 526,
      "ĠáĪ½": 527,
      "ĠáĬłáĪ³áīµ": 528,
      "áĪĭáĭį": 529,
      "ĠáĭŃáĪŀ": 530,
      "áīĢáĪµ": 531,
      "áĪ¨áīµ": 532,
      "áī³áĭį": 533,
      "áĬĽáĪį": 534,
      "áĭ¨áĪĺ": 535,
      "ĠáĭµáĪĢ": 536,
      "áĬłáĪ³": 537,
      "áĬķáĮĢ": 538,
      "áĮĪáĪ¨": 539,
      "áĪĪáīĢ": 540,
      "ĠáĭŃáĪµ": 541,
      "Ġáī¥áĪĭ": 542,
      "áĪ²": 543,
      "áī¼": 544,
      "áĮĬ": 545,
      "ĠáĬłáī¥": 546,
      "ĠáĬłáĪĽ": 547,
      "ĠáĬłáĮħ": 548,
      "ĠáĭŃáĬĲ": 549,
      "áī¥áīµ": 550,
      "áīħáĪİ": 551,
      "áĮ£áĪª": 552,
      "ĠáĪĺáĮĪ": 553,
      "ĠáĬłáĬķáĭµ": 554,
      "áĬłáĬķáĭµ": 555,
      "áĬłáī£áī¥": 556,
      "áĭ²áĭ«": 557,
      "áĬłáĭįáĪŃ": 558,
      "áĪĬ": 559,
      "áĬłáĪĭ": 560,
      "ĠáīĤ": 561,
      "áī³áĪĿ": 562,
      "áĮįáī¥": 563,
      "áīħáĪį": 564,
      "ĠáĬłáĮĪáĪŃ": 565,
      "áĭĺáĬķ": 566,
      "áĭĺáĪĺáĭµ": 567,
      "áĮ¨áīµ": 568,
      "áĪģáĪĪáīµ": 569,
      "áĬ³áĬķ": 570,
      "ĠáĮĮáī³": 571,
      "áĬłáĭ«": 572,
      "áĬłáĮħ": 573,
      "ĠáĭŃáĪĭáĪį": 574,
      "áĬĵáī¥": 575,
      "áī°áĬĵ": 576,
      "áī°áĪĽ": 577,
      "áĪ«áĪĿ": 578,
      "áĮłáĭį": 579,
      "ĠáĪĪáĭĪ": 580,
      "áĬ¨áĪŃ": 581,
      "Ġáī¥áĪį": 582,
      "ĠáīĢáĬķ": 583,
      "ĠáĭµáĬķ": 584,
      "áĭļ": 585,
      "áĬĭ": 586,
      "ĠáĪĦ": 587,
      "áĪįáĮħ": 588,
      "áĮĪáīµ": 589,
      "áīĢáĪĺ": 590,
      "áĭ³áĪĿ": 591,
      "áĭ³áĮħ": 592,
      "ĠáĬ¨áĭĪ": 593,
      "áĪĢáĪį": 594,
      "ĠáĬłáĮĪáĭ±": 595,
      "Ġáī¥áĪĪáĪħ": 596,
      "áĪģáĪī": 597,
      "áĬ¨áĪ¨": 598,
      "Ġáīħáī¤": 599,
      "ĠáĪģáĪī": 600,
      "áĬłáĪħáĪį": 601,
      "ĠáĭĽ": 602,
      "áĮĪáĭ°": 603,
      "áįĮ": 604,
      "ĠáĭŃáįĪ": 605,
      "áī°áĬķ": 606,
      "Ġáĭ¨áįĪ": 607,
      "áĮłáĬĿ": 608,
      "Ġáī°áīĢ": 609,
      "áĪ©áīµ": 610,
      "ĠáĪĽáĬķ": 611,
      "ĠáĬ®": 612,
      "áĭµáĪĿ": 613,
      "ĠáĭŃáī³": 614,
      "áĭ°áĮį": 615,
      "áĭĪáĪŃ": 616,
      "áįĪáĪª": 617,
      "ĠáĪĺáĮ£": 618,
      "áĭ¨áĪŀ": 619,
      "áĭĿáĪĿ": 620,
      "áĪĨáĭµ": 621,
      "áĬķáĮĢáĪ®": 622,
      "áĬłáīµ": 623,
      "ĠáĬłáīł": 624,
      "ĠáĬłáĮįáĪŃ": 625,
      "ĠáīĨ": 626,
      "áĪįáīħ": 627,
      "áĪĪáĪģ": 628,
      "áĪĿáĬķ": 629,
      "áĭ°áĭį": 630,
      "áĬĲáĭį": 631,
      "áĮłáĮ£": 632,
      "Ġáĭ¨áĪĺ": 633,
      "áĭ¨áĪ´áīµ": 634,
      "Ġáī¥áĭ¬": 635,
      "áĬŃáĪŃ": 636,
      "ĠáĬŃáįī": 637,
      "ĠáĭŃáĪ»áĪĭáĪį": 638,
      "ĠáĬłáĭµ": 639,
      "áĪĿáĪ³": 640,
      "áī¥áĪį": 641,
      "áĪĺáĬĵ": 642,
      "áī°áĪ«": 643,
      "áĮ¥áĪĿ": 644,
      "áįįáĭ¨áĪį": 645,
      "áĮłáĪŃ": 646,
      "ĠáĬ¨áī°": 647,
      "ĠáĮĪáĭ°áĪį": 648,
      "áĭ«áĪįáįį": 649,
      "áĬłáī£áĭŃ": 650,
      "ĠáĮħáī¥": 651,
      "ĠáĪļáĪµáīµ": 652,
      "Ġáĭ±": 653,
      "áĭįáĪ»": 654,
      "áĪĪáĬĿ": 655,
      "áĭµáĮĪ": 656,
      "ĠáĭŃáĬ¨": 657,
      "ĠáĮ¸": 658,
      "áĪ¨áī¤áīµ": 659,
      "áįĪáĬķ": 660,
      "áĮłáĪį": 661,
      "ĠáĬ¨áĬł": 662,
      "ĠáĬłáĮĪáĭ³": 663,
      "áĭĭáīĤ": 664,
      "áĪªáĭ«": 665,
      "ĠáĪ°áĪŃ": 666,
      "ĠáĪ°áĪĽ": 667,
      "ĠáĬ¨áĪĽ": 668,
      "áĭľáĪŃ": 669,
      "áĪº": 670,
      "áĬ¸": 671,
      "áĮ¢": 672,
      "áĮ©": 673,
      "ĠáĬłáĪŀ": 674,
      "ĠáĬłáĪĺáīµ": 675,
      "áĮĪáĬĵ": 676,
      "áĪĪáīħ": 677,
      "áĪµáĪį": 678,
      "áĪµáĮ¥": 679,
      "áĭ«áĪµ": 680,
      "áĪĭáĮŃ": 681,
      "áī¥áī³áĪĿ": 682,
      "áĭ°áĮĪ": 683,
      "Ġáĭ«áĮĪ": 684,
      "Ġáĭ«áĪĭ": 685,
      "áĬĲáĮĭ": 686,
      "áĪħáĪŃ": 687,
      "áįĪáĪµ": 688,
      "ĠáĬłáĭŃáĬĲ": 689,
      "ĠáĬłáĭŃáīĢáĪŃ": 690,
      "ĠáĪ²áīł": 691,
      "ĠáĪ²áīĢ": 692,
      "ĠáĭĪáĭ²áĭ«": 693,
      "áĭĺáī¥": 694,
      "Ġáī¥áĪŃ": 695,
      "ĠáĪĽáĪŃ": 696,
      "áĪ±áĬķ": 697,
      "áĪ¸áĪĽ": 698,
      "ĠáĬłáĪµáĬª": 699,
      "áī·áĬķ": 700,
      "áĪĦáĭµ": 701,
      "ĠáĭŃáĪĺáĪµáĪĭáĪį": 702,
      "áĭ¥": 703,
      "áĮģ": 704,
      "áĬłáĪį": 705,
      "ĠáĬłáĪī": 706,
      "ĠáĬłáĪĪáĭį": 707,
      "áĪµáĪ«": 708,
      "áĭµáĮį": 709,
      "áĭ°áī¥": 710,
      "áī°áĪį": 711,
      "áĪ¨áĭµ": 712,
      "áĪ¨áĮį": 713,
      "Ġáĭ¨áĮł": 714,
      "áįĪáĭį": 715,
      "ĠáĬłáĭŃáĮ¥": 716,
      "áĪ°áī¥": 717,
      "ĠáĮĪáī¥": 718,
      "áĪ¬áīµ": 719,
      "áĬ©áĪį": 720,
      "áī¡áĬķ": 721,
      "áĬłáĭŃáĬķ": 722,
      "áĬłáĭŃáĮ¥": 723,
      "Ġáĭ³áī¦": 724,
      "ĠáĭµáĬķáĮĭáĭŃ": 725,
      "Ġ(": 726,
      "ĠáĪ¨": 727,
      "áĪįáĪĿ": 728,
      "áīµáĪĿ": 729,
      "áĭµáĪĺáīµ": 730,
      "ĠáĮ¦": 731,
      "Ġáĭ«áĭµ": 732,
      "áī°áĪĺ": 733,
      "áĪ¨áĪĿáīµ": 734,
      "ĠáĬłáĭŃáĬķ": 735,
      "áįįáĪŃ": 736,
      "ĠáĪĪáĬł": 737,
      "áĭ¨áĭĪ": 738,
      "ĠáĬĲáīłáĪŃ": 739,
      "Ġáī°áĪĺ": 740,
      "ĠáĬłáĮĪáĬķ": 741,
      "ĠáĬłáĮĪáĭ³áĭŃ": 742,
      "ĠáĭĪáįį": 743,
      "áĭĺáĪŃ": 744,
      "Ġáī¥áīµ": 745,
      "áĪİáīµ": 746,
      "áĬ«áĪĿ": 747,
      "áīłáĪĭáĭį": 748,
      "ĠáĭµáĪĺáīµ": 749,
      "ĠáĮłáĪĭ": 750,
      "ĠáĪģáĪĪáīµ": 751,
      "áĭ¨áĪįáĮħ": 752,
      "ĠáĮĪáīłáĪ¬": 753,
      "áĪĺáĪĪáĪµ": 754,
      "ĠáįĬáīµ": 755,
      "ĠáĬłáĪĺ": 756,
      "áĮĪáĪĿ": 757,
      "áĪµáī³": 758,
      "áĭ«áĬķ": 759,
      "áĭ«áī£áīµ": 760,
      "áĪĭáĬŃ": 761,
      "áĭµáĪį": 762,
      "áīłáĪ³": 763,
      "áīłáĪ®": 764,
      "ĠáĮĨ": 765,
      "ĠáīłáīĢ": 766,
      "ĠáīłáīħáĪİ": 767,
      "áīĢáĪ¨": 768,
      "áĪ¨áĮĪ": 769,
      "áĪ«áĪ½": 770,
      "Ġáĭ¨áĭĪáĭ°": 771,
      "áĬĲáįį": 772,
      "ĠáĪĪáī£": 773,
      "áĪ°áĪŃ": 774,
      "áĪ°áĪ«": 775,
      "áĭ¨áĪĿ": 776,
      "Ġáī¥áī»": 777,
      "áĭ±áĬķ": 778,
      "áĬłáĬķáĬ³áĬķ": 779,
      "áĮīáĪį": 780,
      "áīģáīµ": 781,
      "ĠáĭĺáĪĺáĭµ": 782,
      "ĠáĪĨáĭµ": 783,
      "Ġáĭ«áĭįáīĥáĪį": 784,
      "ĠáĭŃáĪŀáī³áĪį": 785,
      "ľáĭ³": 786,
      "áĭ´áīµ": 787,
      "áī§": 788,
      "áĮ¤": 789,
      "ĠáĬłáĮ¥": 790,
      "ĠáīĦ": 791,
      "áĪĪáĪ°áĭį": 792,
      "áĭ«áĪĿ": 793,
      "ĠáĮ¤": 794,
      "ĠáīłáĬ¨": 795,
      "áī°áĪħ": 796,
      "áīĢáĪĭ": 797,
      "áĪ¨áĭ°": 798,
      "áĪ¨áīħ": 799,
      "áĮįáī£": 800,
      "áĮįáĪĮ": 801,
      "ĠáĬłáĭŃáĮĪ": 802,
      "ĠáĬłáĭŃáĭ°": 803,
      "áĮłáĮįáī¥": 804,
      "áĮ£áĬķ": 805,
      "ĠáĪĺáī¥": 806,
      "ĠáĬ¨áĮĪ": 807,
      "áĭ¨áĭį": 808,
      "áĭ¨áįĪ": 809,
      "áī½áĬķ": 810,
      "ĠáĭĪáĭ³áĮħ": 811,
      "ĠáĪĿáĪŃ": 812,
      "áĪªáĭį": 813,
      "ĠáīĢáĭ³": 814,
      "áĪŀáĬĿ": 815,
      "ĠáĬłáĪĪáĬĿ": 816,
      "ĠáĬłáĭ«áĭ°áĪŃ": 817,
      "ĠáĪµáĮĭ": 818,
      "áĬ«áĪį": 819,
      "áĬ¨áĪ°": 820,
      "Ġáĭ³áĬĽ": 821,
      "ĠáĮīáĭµ": 822,
      "Ġáĭ¨áĪ°áĭį": 823,
      "áĮĨáĪ®": 824,
      "ĠáĪ°áĪĽáĭŃ": 825,
      "İáĪĮ": 826,
      "áī²": 827,
      "áī¹": 828,
      "áĮª": 829,
      "áĬłáĮĪáĭµ": 830,
      "ĠáĬłáĬĲ": 831,
      "ĠáĬłáĭĪ": 832,
      "ĠáĬłáĬĶ": 833,
      "ĠáĬłáī£áīµ": 834,
      "áĪįáĬĿ": 835,
      "áĪŃáįį": 836,
      "áĪĪáĭĪ": 837,
      "áĪĪáīłáīµ": 838,
      "áĭ«áĪħáĭ«": 839,
      "áĭµáīħ": 840,
      "áīłáĪį": 841,
      "ĠáĮĵ": 842,
      "áī¥áĪµ": 843,
      "áĭ°áĭµ": 844,
      "Ġáĭ«áĭ¨": 845,
      "Ġáĭ«áĭ°áĪŃ": 846,
      "áĪ¨áī³": 847,
      "áĪ«áĪµ": 848,
      "Ġáĭ¨áĭĭ": 849,
      "ĠáĬłáĭŃáĭĪ": 850,
      "ĠáĬłáĭŃáĬ¨": 851,
      "áĮ£áĪĿ": 852,
      "áĪ³áĭŃ": 853,
      "ĠáĬ¨áĬĲ": 854,
      "áĭ¨áĮ¨": 855,
      "áĮĭáĪį": 856,
      "ĠáĭĪáĪŃáīħ": 857,
      "áĭĺáĮĪ": 858,
      "áĭĺáĭį": 859,
      "áĭĺáĪĺ": 860,
      "ĠáĮĪáĬķ": 861,
      "áĪ»áĪį": 862,
      "áĮĢáĭį": 863,
      "ĠáĮ¥áĪŃáĪµ": 864,
      "ĠáĭµáĮĪ": 865,
      "áĪ¸áīµ": 866,
      "áĪ¨áĪ³": 867,
      "ĠáĪŀáī°": 868,
      "áĬĸáĪŃ": 869,
      "ĠáĮīáĪį": 870,
      "áĪ´áīµáĬĵ": 871,
      "ĠáĮŃáĪ«": 872,
      "áĪ¾áĪħ": 873,
      "ĠáĪĮáī£": 874,
      "áĬĭáĪĭ": 875,
      "ĠáĪĦáĭ¶": 876,
      "áĮĬáĭľ": 877,
      "áĬłáĮ¥": 878,
      "ĠáĬłáĭµáĪŃ": 879,
      "áĬķáīµ": 880,
      "áīµáĪŃ": 881,
      "áĪŃáī£": 882,
      "áĪŃáī¶": 883,
      "áĮĪáĭ±": 884,
      "áĮĪáĮīáĪµ": 885,
      "áĪĪáĭµ": 886,
      "áĪĪáīł": 887,
      "áĭ«áĪĭ": 888,
      "áīłáĬĽ": 889,
      "áī¥áĪĭ": 890,
      "Ġáĭ«áįĪ": 891,
      "ĠáīłáĪĭ": 892,
      "ĠáīłáĮį": 893,
      "ĠáīłáĪ½": 894,
      "áī£áĭŃ": 895,
      "Ġáĭ¨áĭĪ": 896,
      "áĪħáĬĵ": 897,
      "ĠáĬłáĭŃáĪĺ": 898,
      "ĠáĪĪáīħ": 899,
      "áĪĢáīµ": 900,
      "ĠáĪ²áĪī": 901,
      "ĠáĭĪáĪį": 902,
      "áįĭáīµ": 903,
      "áĬŃáīµ": 904,
      "ĠáĪĿáĪµ": 905,
      "áĭĿáĬĵáī¥": 906,
      "áĬłáĬķáĮĢáĪ«": 907,
      "áĮ¨áĭĪ": 908,
      "ĠáĬ¨áĪŀ": 909,
      "ĠáįĪáĪ¨áĪµ": 910,
      "ĠáīħáĪį": 911,
      "áī¡áīµ": 912,
      "áĬłáī£áīµ": 913,
      "áĭ¬áĬķ": 914,
      "ĠáĮĭáĪŃ": 915,
      "áĪ¹áĪĿ": 916,
      "áĬłáī¥áĭµ": 917,
      "ĠáĬĵáīµ": 918,
      "áĬ¨áĪ¨áĭį": 919,
      "áĭ·": 920,
      "áĮ¨áĪ": 921,
      "áĬłáĮĪ": 922,
      "áĬłáĪµ": 923,
      "áĬłáĬĵ": 924,
      "áĬłáī³": 925,
      "áĬłáĮĪáĪŃ": 926,
      "áĬłáĬĶ": 927,
      "ĠáĬłáĭ¨": 928,
      "Ġáī¶": 929,
      "áĬķáī¥": 930,
      "áį³": 931,
      "áīłáĮł": 932,
      "ĠáĭŃáĪĪ": 933,
      "ĠáĭŃáĭ°": 934,
      "ĠáĭŃáĪ¸": 935,
      "ĠáĮĢ": 936,
      "áĭ°áĪĪ": 937,
      "Ġáĭ«áĪĺ": 938,
      "áīĢáīµ": 939,
      "áīĢáĬĿ": 940,
      "áĪ¨áĬĽ": 941,
      "áĪ«áĪ±": 942,
      "Ġáĭ¨áīł": 943,
      "Ġáĭ¨áĭ°": 944,
      "áįĪáĪ¨áĪµ": 945,
      "ĠáĬłáĭŃáīĢ": 946,
      "ĠáĬłáĭŃáįĪ": 947,
      "áĮłáī¥": 948,
      "áĮłáĪ¨": 949,
      "ĠáĪĺáĬ¨áĪ«": 950,
      "ĠáĬ¨áįĪ": 951,
      "ĠáĬ¨áī¤áīµ": 952,
      "ĠáĪ²áĭĪ": 953,
      "Ġáī°áĬĲ": 954,
      "Ġáī°áĪĺáĪį": 955,
      "Ġáī°áĪŁ": 956,
      "áĭĭáīµ": 957,
      "áĭĿáĬķáĮĢáĪ®": 958,
      "ĠáĮĪáī£": 959,
      "ĠáĮĪáĮīáĪµ": 960,
      "áĪĨáĭ±": 961,
      "áīģáĬķ": 962,
      "ĠáĪµáĬķ": 963,
      "ĠáĪ³áĪĪ": 964,
      "áĬ©áīµ": 965,
      "Ġáĭ°áĮį": 966,
      "áĭ«áĪįáī°": 967,
      "ĠáĪŀáĬĿ": 968,
      "ĠáĮİáĪĺáĬķ": 969,
      "áĬĳáĪ®": 970,
      "áīĦáĪµ": 971,
      "áĭ¨áĪĽáĭ«": 972,
      "ĠáĭĽáįį": 973,
      "ĠáĬłáĭŃáīĢáĪŃáĪĿ": 974,
      "ĠáĮĨáĪ®": 975,
      "ĠáīĦáĪµ": 976,
      "áĭĬ": 977,
      "áĭİ": 978,
      "áĬłáĭ³": 979,
      "ĠáĪİáĪĮ": 980,
      "ĠáĬłáĬĵáīµ": 981,
      "ĠáĬłáĭ°áĪ¨": 982,
      "áĪĪáĮĪ": 983,
      "áĪĪáī¥": 984,
      "áĪĪáī£": 985,
      "áĭ«áĭĺ": 986,
      "áĪĭáĪµ": 987,
      "áīłáĭį": 988,
      "ĠáĭŃáĭį": 989,
      "ĠáĭŃáĮ£": 990,
      "ĠáĭŃáĬĸ": 991,
      "áī¥áīĢ": 992,
      "Ġáĭ«áīł": 993,
      "Ġáĭ«áĭ°": 994,
      "Ġáĭ«áī£": 995,
      "Ġáĭ«áĭĪ": 996,
      "Ġáĭ«áĪ³": 997,
      "ĠáīłáĮĪ": 998,
      "áī°áĭĪ": 999,
      "áīĢáĪĽ": 1000,
      "áĪ¨áī£": 1001,
      "áīħáĪ³áĪį": 1002,
      "áįĪáīµ": 1003,
      "ĠáĬłáĭŃáĬĵ": 1004,
      "áĮłáĪ«áĪį": 1005,
      "ĠáĪĺáĬķ": 1006,
      "áĪ°áĬĿ": 1007,
      "ĠáĬ¨áī¥áīµ": 1008,
      "áĪĢáĭŃ": 1009,
      "Ġáī¢áĮł": 1010,
      "Ġáī°áĮĪ": 1011,
      "Ġáī°áīł": 1012,
      "ĠáĭĪáĪŃ": 1013,
      "áĭĺáĬĲ": 1014,
      "áĬ¨áĪį": 1015,
      "áĬ¨áĬŃ": 1016,
      "ĠáĪįáĮĦ": 1017,
      "ĠáĬłáĬķáĭ³": 1018,
      "Ġáī¥áĪĪáĭį": 1019,
      "áĪ©áĬķ": 1020,
      "ĠáĪĿáĪ³": 1021,
      "ĠáīĢáĪĽ": 1022,
      "ĠáĪĽáĮĪ": 1023,
      "ĠáĪĽáī³": 1024,
      "áĬłáĬķáĮ¨áīµ": 1025,
      "áīģáĪĿ": 1026,
      "ĠáĪµáĪŃ": 1027,
      "ĠáĮ¥áĪ¬": 1028,
      "ĠáĮ¥áĮĥ": 1029,
      "Ġáĭ°áī¥": 1030,
      "áĪĻáĬķ": 1031,
      "áĪĻáīµ": 1032,
      "ĠáĮİáĪ¨áī¤áīµ": 1033,
      "áĭ¨áĪļáĭ«": 1034,
      "ĠáĭŃáĮĪáī£áĪį": 1035,
      "ĠáĪĺáĪįáĪ¶": 1036,
      "áī£áĪĪáĮĮ": 1037,
      "áĬłáĮįáĭľáĪŃ": 1038,
      "ĠáīłáĪįáī¶": 1039,
      "áĭ¨áĪŀáĬĿ": 1040,
      "Ġáī¶áĪİ": 1041,
      "áĪĥ": 1042,
      "áĬĴ": 1043,
      "áĮ§": 1044,
      "áĬłáĪĿ": 1045,
      "áĬłáīł": 1046,
      "áĬłáĮĮ": 1047,
      "áĬłáĬĵáīµ": 1048,
      "ĠáĪħ": 1049,
      "ĠáĪľáĭ³": 1050,
      "ĠáĬłáĭ°": 1051,
      "áĬķáĮ¨": 1052,
      "áĪĪáĮĭ": 1053,
      "ĠáĬĳ": 1054,
      "áĪµáĪĿ": 1055,
      "áĭµáĪŀ": 1056,
      "áīłáī±": 1057,
      "ĠáĭŃáĬĵ": 1058,
      "ĠáĭŃáīłáĪĭ": 1059,
      "áĪĺáĪ«": 1060,
      "ĠáīłáĪŃ": 1061,
      "áī°áĪĿ": 1062,
      "áīĢáĮ¥": 1063,
      "Ġáĭ¨áĪĿ": 1064,
      "Ġáĭ¨áĬĲ": 1065,
      "Ġáĭ¨áĪĭáīµ": 1066,
      "áī³áĮł": 1067,
      "áĪĽáĪŃ": 1068,
      "áĪĽáī½": 1069,
      "áĪĽáĮįáĪĮ": 1070,
      "áĮįáīµ": 1071,
      "áĭĪáīĢ": 1072,
      "ĠáĬłáĭŃáĪ°": 1073,
      "ĠáĬłáĭŃáĮĪáĬĿ": 1074,
      "áįįáīħáĪŃ": 1075,
      "ĠáĪĪáĪļ": 1076,
      "ĠáĪĪáĭįáĪ»": 1077,
      "ĠáĬ¨áĪĿ": 1078,
      "áĭ¨áīµ": 1079,
      "áĭ¨áīĢ": 1080,
      "ĠáĬĲáĪ½": 1081,
      "Ġáī¢áĪıáīµ": 1082,
      "ĠáĭĪáī°áīµ": 1083,
      "áįĭáĪŃ": 1084,
      "áįĭáĪµ": 1085,
      "áĪĪáĭįáĬķ": 1086,
      "áĭ¨áĪĮ": 1087,
      "ĠáīĢáĪ¨": 1088,
      "ĠáĭįáĪµáĮ¥": 1089,
      "áĮīáĪŃ": 1090,
      "áīģáĪŃ": 1091,
      "ĠáĬłáĭ«áĭį": 1092,
      "ĠáĬłáĭ«áĪµ": 1093,
      "ĠáĪµáĪį": 1094,
      "ĠáĬ¨áĪĨ": 1095,
      "ĠáĪ³áĭ«": 1096,
      "áĮ¡áĬķ": 1097,
      "áĬ®áĪĪ": 1098,
      "ĠáįįáīħáĪŃ": 1099,
      "ĠáĪĨáĬĲ": 1100,
      "áĪŁáĪį": 1101,
      "ĠáĭĿáĬĵáī¥": 1102,
      "áĪĨáĬķáĪĿ": 1103,
      "ĠáĮĭáĪ»": 1104,
      "áī£áĪĪáī¤áī±": 1105,
      "áĪģáĪīáĪĿ": 1106,
      "Ġáĭ«áĭµáĪ«áĪį": 1107,
      "ĠáĭµáĮĪáĮĭáĭŃ": 1108,
      "ĠáĭĪáĪįáĭ³": 1109,
      "áĬłáĮįáĪŃ": 1110,
      "Ġáĭŀ": 1111,
      "ĠáĪ©": 1112,
      "ĠáĪŃ": 1113,
      "áĭįáĪį": 1114,
      "áĪĪáĪ½": 1115,
      "ĠáĬ©": 1116,
      "áĭŃáĪī": 1117,
      "áĭ«áīµ": 1118,
      "áĪĭáĪĭ": 1119,
      "áīłáĪī": 1120,
      "áīłáĪ©": 1121,
      "ĠáĭŃáĪį": 1122,
      "ĠáĭŃáĮ¥": 1123,
      "áī¥áĬĿ": 1124,
      "áī¥áĪ½": 1125,
      "áĭ°áĪĿ": 1126,
      "Ġáĭ«áĪĿ": 1127,
      "Ġáĭ«áĪ¨": 1128,
      "Ġáīłáĭ°": 1129,
      "ĠáīłáĮİ": 1130,
      "ĠáīłáĪ°áĭį": 1131,
      "áĬĵáī±": 1132,
      "áīĢáĬĵ": 1133,
      "áīĢáĬĲ": 1134,
      "áĪ¨áĮħ": 1135,
      "áĬĲáĪ³": 1136,
      "áĬĲáĬ©": 1137,
      "áĭ³áĪŃ": 1138,
      "áĮįáĪĿ": 1139,
      "áĭĪáīħ": 1140,
      "áīħáī¤": 1141,
      "áĮ¥áĮ¥": 1142,
      "ĠáĬłáĭŃáĮł": 1143,
      "áįįáĮ¥": 1144,
      "ĠáĪĪáĪĿ": 1145,
      "ĠáĪĺáĮł": 1146,
      "ĠáĪĺáĪ¬áīµ": 1147,
      "áĪ½áĬķ": 1148,
      "áĪĢáī¥áī³áĪĿ": 1149,
      "ĠáĪ²áĬĵáĮĪáĪŃ": 1150,
      "Ġáĭ¨áĪŀ": 1151,
      "ĠáĭĪáĮ¥": 1152,
      "ĠáĭĪáĬķáĭµ": 1153,
      "áĬ¨áįĭ": 1154,
      "ĠáĮĪáĪį": 1155,
      "áĪªáĭ«áĭį": 1156,
      "áĬłáĬķáīº": 1157,
      "áĪĨáĭ³áĪĿ": 1158,
      "ĠáĪµáĪ«": 1159,
      "ĠáĬ¨áĪ°": 1160,
      "áĮĢáĪĺ": 1161,
      "ĠáĮ¥áĪİ": 1162,
      "áĬ¨áĪ©": 1163,
      "áĬ¨áĪĺ": 1164,
      "ĠáĮłáĮħ": 1165,
      "áĮİáĪŃ": 1166,
      "ĠáįįáĪª": 1167,
      "Ġáĭ«áĪµáī³áĭį": 1168,
      "áĭ«áĪĪáĪ½": 1169,
      "áī´áĬķ": 1170,
      "áĭ©áīµ": 1171,
      "ĠáīģáĪŃ": 1172,
      "Ġáĭ¨áĪ°áĪĽ": 1173,
      "ĠáĭŃáĮĪáĬĽáĪį": 1174,
      "áīĦáĪĭ": 1175,
      "ĠáĮ£áīµ": 1176,
      "ĠáĪĮáĪĭ": 1177,
      "áĪĪáĪĺáĭ°": 1178,
      "áĬĲáĮįáĭµ": 1179,
      "ĠáĪĪáĪĽáĬĿ": 1180,
      "ĠáĮ¸áĪİáīµ": 1181,
      "¾áĪĿ": 1182,
      "áĬĹ": 1183,
      "ĠáĬłáĪĭ": 1184,
      "ĠáĬłáĪ¸áīµ": 1185,
      "Ġáī¦": 1186,
      "Ġáīĥ": 1187,
      "áīµáĬĵ": 1188,
      "áĮĪáĮ¨": 1189,
      "áĮĪáī¡": 1190,
      "áĪĪáĪį": 1191,
      "áįı": 1192,
      "ĠáĬĭ": 1193,
      "áĪµáī±": 1194,
      "áĭ«áĭŃ": 1195,
      "áĭ«áĮĪáĪŃ": 1196,
      "áĪĭáĪī": 1197,
      "áīłáīĢ": 1198,
      "áīłáĪ¬": 1199,
      "áīłáī³áĪį": 1200,
      "ĠáĭŃáī°": 1201,
      "ĠáĭŃáĮ¨": 1202,
      "ĠáĭŃáī°áĪŃ": 1203,
      "áī¥áĪ«áĪį": 1204,
      "áĪĺáī³": 1205,
      "Ġáĭ«áĪīáīµ": 1206,
      "ĠáīłáĪ¨": 1207,
      "ĠáīłáĪĽ": 1208,
      "ĠáīłáĮ¥": 1209,
      "ĠáīłáĪ°": 1210,
      "Ġáīłáĭĭ": 1211,
      "ĠáīłáīµáĪŃ": 1212,
      "áīĢáĪį": 1213,
      "áī£áī±": 1214,
      "áī£áĪª": 1215,
      "áĪ¨áĭ³": 1216,
      "áĪ¨áĬĿ": 1217,
      "Ġáĭ¨áīłáĪĭ": 1218,
      "áĭĪáĮĭ": 1219,
      "áĭĪáĪĪáĭ°": 1220,
      "áīħáĬķ": 1221,
      "áĮ¥áĪŃáĪµ": 1222,
      "áĮłáīµ": 1223,
      "ĠáĪĪáĪ°áĭį": 1224,
      "ĠáĪĺáĪ°": 1225,
      "ĠáĪĺáĭĿ": 1226,
      "ĠáĪĺáĭµáĪĢ": 1227,
      "áĭ¨áĪĿáīµ": 1228,
      "áī½áĭį": 1229,
      "áī½áĪģ": 1230,
      "ĠáĪ²áĪį": 1231,
      "Ġáī¢áĪ°": 1232,
      "Ġáī¢áĪŀáīµ": 1233,
      "Ġáī°áĬĵ": 1234,
      "ĠáĭĪáĭ´áīµ": 1235,
      "áĬ¨áįį": 1236,
      "ĠáĬłáĬķáĮĢáĪ«": 1237,
      "áĬŃáĪ©": 1238,
      "áĬŃáĪ¨áĪĿáīµ": 1239,
      "ĠáĮĪáĮĪ": 1240,
      "ĠáĪĽáĪĪáīµ": 1241,
      "áĬłáĬķáĮįáĭ³": 1242,
      "áĮīáĬķ": 1243,
      "áīģáĬĿ": 1244,
      "áĮ¨áĭį": 1245,
      "ĠáĪµáīµ": 1246,
      "ĠáĬ¨áĪļ": 1247,
      "Ġáĭ«áĪĪáī½": 1248,
      "Ġáĭ«áĪĪáīħáĪ³áĪį": 1249,
      "ĠáįĪáĪµ": 1250,
      "áĪ¨áĪħ": 1251,
      "áĭ°áĪŃáĪµ": 1252,
      "ĠáĮįáĪŃ": 1253,
      "Ġáĭ³áĪŃ": 1254,
      "áĮĤáĬķ": 1255,
      "áĬłáĪŃáīħ": 1256,
      "ĠáĮħáĪ«áīµ": 1257,
      "ĠáĪĺáĪįáĬ«áĪĿ": 1258,
      "ĠáĪĺáĮĪáĮĪáĭµ": 1259,
      "ĠáīĤáĮ¥": 1260,
      "Ġáĭ¨áĭĪáĭ°áĭ°": 1261,
      "ĠáĮ¤áįį": 1262,
      "ĠáĪĺáī¥áĪĭáīµ": 1263,
      "ĠáĮĪáĬķáĭĺáī¥": 1264,
      "ĠáĮīáĪįáīłáīµ": 1265,
      "ĠáīłáĪ½áī°áĬĽ": 1266,
      "ĠáĬ¨áĪŀáīµ": 1267,
      "ĠáĭŃáĬĸáĪ«áĪį": 1268,
      "ĠáĪµáĪįáī»": 1269,
      "Ġáĭ«áĪµáī³áĭįáīĥáĪį": 1270,
      "ĠáĪĺáĭµáĪĢáĬĴ": 1271,
      "ĠáĬķáĮīáĪµ": 1272,
      "áĪĤ": 1273,
      "áĬ¤": 1274,
      "áĬłáĪĺáĪį": 1275,
      "áĬłáĪ«áīµ": 1276,
      "ĠáĭĻ": 1277,
      "ĠáĬłáĪĺáĭµ": 1278,
      "ĠáĬłáĮĮ": 1279,
      "ĠáĬłáĭĪáĮ£": 1280,
      "Ġáī½": 1281,
      "áĬķáĪ½": 1282,
      "áĬķáĭĿ": 1283,
      "áĮĪáĭ³": 1284,
      "áĪĪáĮł": 1285,
      "áĪĪáĭĭáĪį": 1286,
      "áĭŃáĮ£áĬķ": 1287,
      "áĪµáĪĽ": 1288,
      "áĭ«áĭĻ": 1289,
      "áĭµáĪİ": 1290,
      "ĠáĭŃáįĪáĪŃ": 1291,
      "Ġáĭ«áĬĲ": 1292,
      "Ġáĭ«áĮł": 1293,
      "Ġáĭ«áĪ°": 1294,
      "Ġáĭ«áĭĿ": 1295,
      "Ġáĭ«áĪħáĪį": 1296,
      "áĬĵáĪĿ": 1297,
      "áīĢáīħ": 1298,
      "áĪ«áĭį": 1299,
      "Ġáĭ¨áĪį": 1300,
      "Ġáĭ¨áĪĭ": 1301,
      "Ġáĭ¨áĮİ": 1302,
      "áī³áĭįáĬķ": 1303,
      "áī³áĪĪáī½": 1304,
      "áĬĲáī±": 1305,
      "áĮįáĪ®": 1306,
      "áĮįáī¶": 1307,
      "áĮįáĪ«áĪį": 1308,
      "áĭĪáĬķáĭµ": 1309,
      "áįĪáĪĪ": 1310,
      "ĠáĬłáĭŃáĮłáįĭ": 1311,
      "áĮ£áĪī": 1312,
      "áĮ£áĮŃ": 1313,
      "ĠáĪĪáī°": 1314,
      "ĠáĪĺáĪĭ": 1315,
      "ĠáĬ¨áĭĺ": 1316,
      "ĠáĬ¨áĮİ": 1317,
      "ĠáĪ²áĪīáīµ": 1318,
      "Ġáī¢áĪĪáĭį": 1319,
      "Ġáī°áĪŃ": 1320,
      "Ġáī°áĬ¨": 1321,
      "áĮĭáī¥": 1322,
      "áī±áīµ": 1323,
      "ĠáĬłáĮĪáĮįáĭ³": 1324,
      "áĭĺáĭĿ": 1325,
      "áĬ¨áīµ": 1326,
      "ĠáĪįáī¡": 1327,
      "áĭ¨áĪ°": 1328,
      "áĭ¨áĪĢ": 1329,
      "ĠáĬłáĬķáĭ²": 1330,
      "Ġáī£áĪĭ": 1331,
      "áĬŃáĬķ": 1332,
      "ĠáĮĪáĪĽ": 1333,
      "áĭ±áĪĭ": 1334,
      "áĪŀáĪĭ": 1335,
      "ĠáĬ«áĪĭ": 1336,
      "ĠáĬłáĭ«áĮ£áĪĿ": 1337,
      "ĠáīµáĪĿ": 1338,
      "áĮŃáĪŃ": 1339,
      "áĪ±áīµ": 1340,
      "áĪģáĪĪ": 1341,
      "áīłáĪĭáĪ½": 1342,
      "ĠáĪĭáĪĿ": 1343,
      "áĮİáĭ³": 1344,
      "áĭ«áĪįáī³": 1345,
      "áĬłáī£áī±": 1346,
      "áĬłáī£áī±áĬķ": 1347,
      "Ġáĭ¨áĪļáĭ«": 1348,
      "áĬĶáĬķ": 1349,
      "ĠáįįáĪĪáĮĭ": 1350,
      "ĠáĬłáĪµáĬ¨": 1351,
      "áĮĥáĪį": 1352,
      "ĠáĪģáĪį": 1353,
      "ĠáĬłáĪŃáĪ»": 1354,
      "áĬłáĪŃáĪ»": 1355,
      "áĪĦáĭ³áĪį": 1356,
      "ĠáĭŃáīĢáĮłáĪ«áĪį": 1357,
      "áĭ¨áĪĽáī³": 1358,
      "ĠáĪĺáĪµáĪİ": 1359,
      "áĮĪáīłáĪ³": 1360,
      "áĭĪáĪįáĭµ": 1361,
      "ĠáĭŃáĪµáīĥáĪį": 1362,
      "ĠáĬłáĪĽáĪ«áīµ": 1363,
      "Ġáī¥áĪįáĪĢáīµ": 1364,
      "ĠáĬłáĪŀáĪĮ": 1365,
      "ĠáĪ²áīłáĭĽ": 1366,
      "ĠáĮīáĭµáĮĵ": 1367,
      "Ġáī°áĪĺáĪįáĪ¶": 1368,
      "áĭİáĬķ": 1369,
      "áĬĲáĬ©áĪ´": 1370,
      "ĠáįįáĪªáĭ³": 1371,
      "ĠáĬĭáĪĭ": 1372,
      "ĠáĬķ": 1373,
      "áĮ»": 1374,
      "áĬłáĭ°": 1375,
      "ĠáĬłáī°": 1376,
      "ĠáĬłáĪ±": 1377,
      "ĠáĬłáĪ«áīµ": 1378,
      "ĠáĬłáįĪáĪŃ": 1379,
      "ĠáĬłáĬ©áĪį": 1380,
      "Ġáī¡": 1381,
      "áĪįáĮį": 1382,
      "áĪŃáĪ¶": 1383,
      "áĮĪáĪ«": 1384,
      "áĮĪáįį": 1385,
      "áĪĪáĪµ": 1386,
      "áĪĪáī°": 1387,
      "áĪĪáī³áĪį": 1388,
      "áĪµáįĭ": 1389,
      "áĪĭáĭĭ": 1390,
      "ĠáĭŃáĭĺ": 1391,
      "ĠáĭŃáĬ®": 1392,
      "ĠáĭŃáĪĦáĭ³áĪį": 1393,
      "ĠáĮ©": 1394,
      "áī¥áĪħ": 1395,
      "áĭ°áĪĺ": 1396,
      "ĠáīłáĮĭ": 1397,
      "ĠáīłáĪĪáĭį": 1398,
      "ĠáīłáĪĭáĭŃ": 1399,
      "áī°áįĪ": 1400,
      "áī°áĬ¨": 1401,
      "áĪ¨áĪŃ": 1402,
      "Ġáĭ¨áĪĿáīµ": 1403,
      "áĬĲáī¥áĪŃ": 1404,
      "áĭ³áĪĪáī½": 1405,
      "áĪĽáī±": 1406,
      "áĪĽáĬĸ": 1407,
      "áįĪáĪ«": 1408,
      "ĠáĬłáĭŃáīł": 1409,
      "ĠáĬłáĭŃáīłáĪĭ": 1410,
      "ĠáĬłáĭŃáĮĪáĭµ": 1411,
      "ĠáĪĺáĪŃ": 1412,
      "ĠáĪĺáĭį": 1413,
      "ĠáĪĺáīħ": 1414,
      "áĪ°áĪµ": 1415,
      "áĪ°áĪ°": 1416,
      "áĪ³áĪ³áīµ": 1417,
      "ĠáĬ¨áĪį": 1418,
      "ĠáĬ¨áĮł": 1419,
      "ĠáĬ¨áĭĭ": 1420,
      "ĠáĬ¨áĮħáī¥": 1421,
      "áĮħáĪ«": 1422,
      "ĠáĬĲáĮĪ": 1423,
      "áĪ½áĭį": 1424,
      "ĠáĪ²áĮł": 1425,
      "ĠáĪ²áĬ¨": 1426,
      "Ġáī¢áĪĨáĬķ": 1427,
      "Ġáī°áĬķ": 1428,
      "Ġáī°áĮł": 1429,
      "Ġáī°áĪ°": 1430,
      "Ġáī°áĭĭ": 1431,
      "áĮĭáī½": 1432,
      "ĠáĭĪáĮ£": 1433,
      "áĭĺáī½": 1434,
      "áĬ¨áĭį": 1435,
      "áĬ¨áĪĿ": 1436,
      "áĭ¨áĪģ": 1437,
      "ĠáĬłáĬķáĮįáĭ³": 1438,
      "Ġáī£áīĦáĪĭ": 1439,
      "Ġáī¥áī³": 1440,
      "ĠáĪĿáĪ°": 1441,
      "ĠáĪĿáĭµáĪŃ": 1442,
      "ĠáĪĿáĮįáī¥": 1443,
      "áĭĿáĪĨáĬķ": 1444,
      "áĭĿáĮĪáī¥": 1445,
      "ĠáĮĪáĪĪáī£": 1446,
      "ĠáĪ°áĭįáĬķ": 1447,
      "áĪ»áĮĪáĪŃ": 1448,
      "áĬłáĬķáī°": 1449,
      "áĮīáĪĿ": 1450,
      "áĮīáĭµ": 1451,
      "áĪĨáĭ´": 1452,
      "ĠáĬłáĭ«áĪ³": 1453,
      "ĠáĪµáĮĪ": 1454,
      "áĪģáīµ": 1455,
      "áĬ«áĪŃ": 1456,
      "áĮĢáīµ": 1457,
      "áĬ¨áĪĽ": 1458,
      "áĮ¡áĪĿ": 1459,
      "Ġáĭ°áĪĿ": 1460,
      "áĪĮáī£": 1461,
      "ĠáĭĺáĬķ": 1462,
      "ĠáīħáĪĽáĪį": 1463,
      "áĭ«áĪįáīħ": 1464,
      "áĭ°áĪŃáīħ": 1465,
      "ĠáĬłáīµáīł": 1466,
      "ĠáĭŃáĪĺáĮ£áĪį": 1467,
      "ĠáĬŃáĪ¨áĪĿáīµ": 1468,
      "Ġáįįáĭ¨áĪį": 1469,
      "áĮ¸áĮ¸": 1470,
      "áĮ¸áĭµáīħ": 1471,
      "ĠáĬłáĪįáĮĭ": 1472,
      "áĮĵáĪĿ": 1473,
      "ĠáĭĿáĬķáĮĢáĪ®": 1474,
      "áĬłáĭįáĬĲáīµ": 1475,
      "áĪĦáĪŃ": 1476,
      "áīĦáīµ": 1477,
      "áĪ¹áĪĺáīµ": 1478,
      "ĠáĭŃáĪĺáĪµáĪį": 1479,
      "áī°áĪŃáįį": 1480,
      "áĬĲáĮįáĪ©": 1481,
      "Ġáĭ¨áĪĽáĭ«": 1482,
      "ĠáĮĪáīłáĭ«": 1483,
      "ĠáĪ«áĪµ": 1484,
      "ĠáĪ«áĪ±": 1485,
      "Ġáĭ«áĮ£áĪĭ": 1486,
      "ĠáĬłáī£áĭŃ": 1487,
      "áĮĪáĪ¨áĬĽ": 1488,
      "ĠáĪĺáĮ£áī½": 1489,
      "áī¥áĪįáĪħ": 1490,
      "Ġáĭ±áĪĭ": 1491,
      "ĠáĬłáĪŀáĪ«": 1492,
      "ĠáĪ²áīĢáĮ£": 1493,
      "ĠáĭĪáįįáĮ®": 1494,
      "ĠáĬłáĭŃáĭ°áĪĪáĪĿ": 1495,
      "Ġáĭ«áĪĺáĬĲ": 1496,
      "ĠáĭŃáī°áĪŃáįĭáĪį": 1497,
      "ĠáĬłáĭŃáĮłáįĭáĪĿ": 1498,
      "..": 1499,
      "áĬĻ": 1500,
      "áĬłáĭİáĬķ": 1501,
      "ĠáĪ´": 1502,
      "ĠáĪ¹": 1503,
      "ĠáĪĤ": 1504,
      "ĠáĬłáĮ£": 1505,
      "ĠáĬłáĪĺáĪį": 1506,
      "ĠáĬłáī¤áīµ": 1507,
      "ĠáĬłáĬ¨áĬŃ": 1508,
      "áĪįáī£": 1509,
      "áĪįáĪħ": 1510,
      "áĬķáĭĻ": 1511,
      "áĪŃáī¼": 1512,
      "áĮĪáĭĿ": 1513,
      "áĮĪáĮĪáĭµ": 1514,
      "áĭįáĪŃ": 1515,
      "áĭįáĭµ": 1516,
      "áĪĪáĬł": 1517,
      "áĪĪáįį": 1518,
      "áĪĿáĬ¨áĪ¨áĭį": 1519,
      "ĠáĬ¥": 1520,
      "ĠáĬĸ": 1521,
      "áĭŃáī¶": 1522,
      "áĪµáĪĢ": 1523,
      "áĪµáĮĭ": 1524,
      "áĪĭáĪĪ": 1525,
      "áĪĭáĪĪáī½": 1526,
      "áīłáĮ¥": 1527,
      "áīłáĪ¨áĭį": 1528,
      "ĠáĭŃáīĨ": 1529,
      "ĠáĮ¨áĪ": 1530,
      "áī¥áĪ«": 1531,
      "áī¥áĪİ": 1532,
      "áī¥áī»": 1533,
      "áĭ°áĬĽ": 1534,
      "áĪĺáĭį": 1535,
      "áĪĺáĬĿ": 1536,
      "áĪĺáĬĽ": 1537,
      "áĪĺáĭ±": 1538,
      "Ġáĭ«áĬķ": 1539,
      "Ġáĭ«áĪĽ": 1540,
      "Ġáĭ«áĭĪáĮ£": 1541,
      "ĠáīłáĪĿ": 1542,
      "Ġáīłáīł": 1543,
      "ĠáīłáīłáĪĭ": 1544,
      "ĠáīłáĪ°áĪĽ": 1545,
      "ĠáīłáĪĿáĬķ": 1546,
      "áī°áī°": 1547,
      "áī°áĪµáįĭ": 1548,
      "áīĢáĪĪ": 1549,
      "áīĢáĭµáĪŀ": 1550,
      "áĪ¨áĪĿ": 1551,
      "áĪ¨áī½": 1552,
      "áĪ«áīĤ": 1553,
      "Ġáĭ¨áĭĺ": 1554,
      "Ġáĭ¨áĮĪáī£": 1555,
      "Ġáĭ¨áĪĪáĬĿ": 1556,
      "Ġáĭ¨áĭ«áĭĺ": 1557,
      "áī³áīµ": 1558,
      "áī³áĪ¨": 1559,
      "áĬĲáĮĪ": 1560,
      "áĬĲáĮĪáĪ©": 1561,
      "áĪħáĪĿ": 1562,
      "áĪħáĬĲáīµ": 1563,
      "áĭ³áī¦": 1564,
      "áĪĽáĬķ": 1565,
      "áĪĽáĮŃ": 1566,
      "áĮįáĪµ": 1567,
      "áĮįáī£áīµ": 1568,
      "áĭĪáīħáĪĿ": 1569,
      "áīħáĪĻ": 1570,
      "áīħáĪĿáīµ": 1571,
      "áįĪáĪį": 1572,
      "áįĪáĪ¬": 1573,
      "áĮ¥áī¥": 1574,
      "áĮ¥áĪħ": 1575,
      "ĠáĬłáĭŃáĪĨ": 1576,
      "ĠáĬłáĭŃáī¶": 1577,
      "áĮłáĪ©": 1578,
      "áĮłáĪ©áīµ": 1579,
      "áĮ£áīµ": 1580,
      "áĮ£áĮ£": 1581,
      "áĮ£áĭ±": 1582,
      "ĠáĪĪáīł": 1583,
      "ĠáĪĪáĪ°": 1584,
      "ĠáĪĺáīĢ": 1585,
      "ĠáĪĺáĮ¥": 1586,
      "ĠáĪĺáĮĭ": 1587,
      "ĠáĪĺáīĥ": 1588,
      "ĠáĬ¨áī£": 1589,
      "ĠáĬ¨áī¥áĪŃ": 1590,
      "ĠáĬ¨áĭ°áĪ¨": 1591,
      "áĭ¨áĬĲ": 1592,
      "áĮħáĪĿ": 1593,
      "ĠáĬĲáįį": 1594,
      "ĠáĬĲáĮĭ": 1595,
      "áĪ½áĪĿ": 1596,
      "áĪīáĬķ": 1597,
      "Ġáī°áĬĵáĮĪáĪŃ": 1598,
      "Ġáĭ¨áĪ´áīµ": 1599,
      "ĠáĬłáĮĪáī£": 1600,
      "ĠáĭĪáĭ³": 1601,
      "ĠáĭĪáĪ¬": 1602,
      "áĪ®áĮ¥": 1603,
      "áĬĽáĭį": 1604,
      "áįĭáįį": 1605,
      "ĠáĬłáĬķáĮ¨áīµ": 1606,
      "Ġáī£áĬķ": 1607,
      "Ġáī¥áĭĻ": 1608,
      "áĬŃáĪį": 1609,
      "ĠáĪĿáĪį": 1610,
      "áīĥáīµ": 1611,
      "ĠáĮĪáĪĺáĭµ": 1612,
      "áĪªáīµ": 1613,
      "ĠáīĢáĪĪ": 1614,
      "áĬłáĬķáĭ³": 1615,
      "áĬłáĬķáĭ±": 1616,
      "ĠáĭįáĪµ": 1617,
      "ĠáĭįáĪ½": 1618,
      "áĮīáĭĿ": 1619,
      "áīģáĪĪáīµ": 1620,
      "ĠáĬ«áĮĪáĪŃ": 1621,
      "áĮŃáĭµ": 1622,
      "áī¤áī±áĬķ": 1623,
      "ĠáĪµáĪĪ": 1624,
      "áĭĽáĭį": 1625,
      "áĭĽáĪĿ": 1626,
      "áĭĽáįį": 1627,
      "áĬ«áĪ³": 1628,
      "ĠáĪ³áĪį": 1629,
      "áĬ¨áĪ³": 1630,
      "ĠáĮłáĪį": 1631,
      "ĠáĮłáīł": 1632,
      "ĠáĭĺáĮĪ": 1633,
      "áĪ¨áĪ¨": 1634,
      "áĪ¨áĪ±": 1635,
      "Ġáī³áĪµ": 1636,
      "Ġáī³áĮ¥": 1637,
      "ĠáĮįáĬķ": 1638,
      "ĠáĮįáī£": 1639,
      "áī¸áĮįáĪŃ": 1640,
      "Ġáĭ¨áī°áĪ°": 1641,
      "áīĤáĪį": 1642,
      "Ġáĭ³áī£": 1643,
      "áī£áĪįáĬĵ": 1644,
      "Ġáĭ«áĪµáįĪ": 1645,
      "Ġáī¢áĭ«áī¥áĪŃ": 1646,
      "Ġáī¢áĭ«áĪĿáĪŃ": 1647,
      "áī¢áĮ¥": 1648,
      "áĬĳáīµ": 1649,
      "ĠáĪĨáĬĸ": 1650,
      "áĪŁáĮĪ": 1651,
      "áĭ©áĬĿ": 1652,
      "ĠáĭŃáĭĪáĪį": 1653,
      "ĠáĭŃáĭĪáĮ£áĪį": 1654,
      "ĠáĪįáī¥áĪµ": 1655,
      "ĠáĭŃáīĢáĪ«áĪį": 1656,
      "ĠáĬłáĭįáĪŃ": 1657,
      "ĠáĬłáĭįáīĢ": 1658,
      "ĠáĬłáĭįáĬĲáīµ": 1659,
      "ĠáĭŃáĮłáįĭáĪį": 1660,
      "áĬĺáĭį": 1661,
      "ĠáĪĢáī¥áī³áĪĿ": 1662,
      "áĮ®áĬ¸": 1663,
      "ĠáĬłáįįáĬķáĮ¨": 1664,
      "ĠáĬłáī³áĭį": 1665,
      "ĠáĬłáĪĿáĪĭáĬŃ": 1666,
      "ĠáĪĬáĮ¥": 1667,
      "áĮĦáĬķ": 1668,
      "ĠáĬłáĪ«áī±": 1669,
      "áĬłáĮįáĭļ": 1670,
      "ĠáĬĵáī¸áĭį": 1671,
      "Ġáĭ¨áĪĽáĪŃ": 1672,
      "ĠáĬłáĭŃáī³áĭĪáīħáĪĿ": 1673,
      "áīħáĪįáįį": 1674,
      "áĭĺáĪĺáĭµáĬĵ": 1675,
      "áīĢáĪĺáĮ¥": 1676,
      "ĠáĬłáĭµáĪľ": 1677,
      "áĬłáī£áĭŃáĬķ": 1678,
      "áĭµáĮĪáĮĭáĭŃ": 1679,
      "ĠáĪ°áĪŃáĮį": 1680,
      "ĠáĪĪáī£áĪ½": 1681,
      "áīĢáĪĭáįĭ": 1682,
      "ĠáĬłáĬĲáĪ°áĭį": 1683,
      "ĠáĪŀáī°áī½": 1684,
      "ĠáĪĪáīħáĪ¶": 1685,
      "Ġáī°áĪŁáĮįáī¶": 1686,
      "Ġáĭ«áĭĪáĮ£áĪį": 1687,
      "Ġáĭ°áī¥áīģáĬĿ": 1688,
      "ĠáĬłáĭŃáĮĪáĬĿáĪĿ": 1689,
      "áĭ¨áĪĮáī£": 1690,
      "Ġáĭ¨áĪŀáī°": 1691,
      "ĠáīłáĪ¨áĭ¶": 1692,
      "ĠáĪĺáĭµáĪĢáĬĴáīµ": 1693,
      "ĠáĮīáĭµáĮĵáĭµ": 1694,
      "áĪĽáĬĸáīµ": 1695,
      "áĬ¬": 1696,
      "áĮ½": 1697,
      "áĬłáĭ¨": 1698,
      "áĬłáĭĺ": 1699,
      "áĬłáĭ¬": 1700,
      "áĬłáĪĿáĪ³": 1701,
      "Ġáĭ²": 1702,
      "ĠáĬłáīħ": 1703,
      "ĠáĬłáĮĭ": 1704,
      "ĠáĬłáĬĽ": 1705,
      "ĠáĬłáĪ¾áĪħ": 1706,
      "Ġáī¸": 1707,
      "áĪįáįĭ": 1708,
      "áĪįáĮ£áĪį": 1709,
      "áĬķáĬķ": 1710,
      "áĬķáĮĢáĪ«": 1711,
      "áĮĪáĪĭ": 1712,
      "áĮĪáĬĺ": 1713,
      "áĭįáĮ¥": 1714,
      "áĪĪáĪ°": 1715,
      "áĪĪáĪįáĮħ": 1716,
      "áĪĪáĪ«áĪ±": 1717,
      "áįĸ": 1718,
      "áĪĿáĪĮ": 1719,
      "áĭŃáĪħ": 1720,
      "áĪµáīħ": 1721,
      "áĭ«áī£": 1722,
      "áĭ«áĭ¨": 1723,
      "áĭ«áĬķáĭµ": 1724,
      "áĪĭáĪĪáĪĿ": 1725,
      "áĭµáįį": 1726,
      "áĭµáĪ®": 1727,
      "áĭµáĪ©": 1728,
      "áĭµáīĥ": 1729,
      "áĭµáīĥáĪį": 1730,
      "ĠáĭŃáĪĽ": 1731,
      "áĭ°áįĪ": 1732,
      "áĭ°áĭ±": 1733,
      "áĪĺáĪĿ": 1734,
      "áĪĺáĮ¥": 1735,
      "áĪĺáĮł": 1736,
      "áĪĺáĪµáĪį": 1737,
      "Ġáĭ«áĪĭáīµ": 1738,
      "Ġáĭ«áĮĪáī£": 1739,
      "ĠáīłáĪµ": 1740,
      "ĠáīłáĮł": 1741,
      "ĠáīłáĪŀ": 1742,
      "ĠáīłáĭįáĪĢ": 1743,
      "ĠáīłáĪĭáĭį": 1744,
      "ĠáīłáĮĪáĬĵ": 1745,
      "áĬĵáįį": 1746,
      "áī°áĪ½": 1747,
      "áī°áĭĭ": 1748,
      "áī°áĬŃ": 1749,
      "áīĢáĪĿ": 1750,
      "áīĢáī¥": 1751,
      "áīĢáĭ³": 1752,
      "áīĢáĮ£": 1753,
      "áĪ¨áįĪ": 1754,
      "áĪ¨áįį": 1755,
      "áĪ«áĪī": 1756,
      "áĪ«áĪĪáī½": 1757,
      "Ġáĭ¨áīµ": 1758,
      "Ġáĭ¨áīĢ": 1759,
      "Ġáĭ¨áī£": 1760,
      "Ġáĭ¨áĮ£": 1761,
      "Ġáĭ¨áĮ¨": 1762,
      "Ġáĭ¨áĭµáĪĢ": 1763,
      "áĬĲáĬĿ": 1764,
      "áĬĲáīłáĪ¨": 1765,
      "áĬĲáĮĪáĪ¨áĬĽ": 1766,
      "áĭ³áĪĭ": 1767,
      "áĭ³áĪª": 1768,
      "áĮįáĪ©": 1769,
      "áĭĪáĭŃ": 1770,
      "áįĪáĪĭ": 1771,
      "áįĪáĪ©": 1772,
      "ĠáĬłáĭŃáĭĪáĮ£": 1773,
      "ĠáĬłáĭŃáĮĪáī£": 1774,
      "ĠáĬłáĭŃáĪ°áĪĽ": 1775,
      "ĠáĬłáĭŃáĪĺáĪĪáĪµ": 1776,
      "ĠáĬłáĭŃáī°áĪħ": 1777,
      "ĠáĬłáĭŃáĪĨáĬķáĪĿ": 1778,
      "áĮłáĪĿ": 1779,
      "ĠáĪĪáĮł": 1780,
      "ĠáĪĪáĪĨáĭ±": 1781,
      "ĠáĪĪáī£áĪĪáī¤áī±": 1782,
      "ĠáĪĺáĬŃ": 1783,
      "ĠáĪĺáĬ«": 1784,
      "áĪ°áĭįáĬķ": 1785,
      "áĪ³áĪĿ": 1786,
      "áĪ³áĪ³": 1787,
      "ĠáĬ¨áĪŃ": 1788,
      "ĠáĬ¨áĮį": 1789,
      "áĭ¨áĬĵáīµ": 1790,
      "áĭ¨áī°áĬĵ": 1791,
      "áĭ¨áįįáĭ¨áĪį": 1792,
      "áĭ¨áĪĪáĪĺáĭ°": 1793,
      "ĠáĬĲáī¥áĪŃ": 1794,
      "ĠáĪ²áĬĲ": 1795,
      "ĠáĪ²áĮĪáĬĿ": 1796,
      "Ġáī¢áĪ³áĪ³áīµ": 1797,
      "Ġáī°áĬĿ": 1798,
      "Ġáī°áĮĭ": 1799,
      "Ġáī°áĪ¸": 1800,
      "Ġáī°áĪ»áĮĪáĪŃ": 1801,
      "áĮĭáīµ": 1802,
      "áĮĭáĭ³": 1803,
      "áī±áĮĪ": 1804,
      "ĠáĭĪáĪ¨": 1805,
      "ĠáĭĪáĪĪáĪĿ": 1806,
      "áĭĺáįĪáĬķ": 1807,
      "áĬ¨áī¥": 1808,
      "áįĭáī³": 1809,
      "áįĭáĪ½": 1810,
      "áįĭáĪª": 1811,
      "áĪĪáĭįáĪĿ": 1812,
      "ĠáĬłáĬķáĭ±": 1813,
      "ĠáĬłáĬķáĭ³áĭŃ": 1814,
      "ĠáĬłáĬķáīº": 1815,
      "Ġáī£áĭ¶": 1816,
      "Ġáī£áĪħáĪŃ": 1817,
      "áĬŃáĪĭ": 1818,
      "ĠáĪĿáĮĪ": 1819,
      "áĭĿáĬ«áĪŃ": 1820,
      "ĠáĪ°áĪĭ": 1821,
      "áĭ±áīµ": 1822,
      "áĭ±áĪŃ": 1823,
      "ĠáīĢáīłáĪ®": 1824,
      "ĠáīĢáĪŃáī¶": 1825,
      "ĠáĪĽáĭ°": 1826,
      "ĠáĭįáĪŃ": 1827,
      "ĠáĬłáĪĪáīµ": 1828,
      "áĪ¬áĬķ": 1829,
      "áīģáĪį": 1830,
      "áīģáĪĭáĪį": 1831,
      "áĮ¨áĬĽ": 1832,
      "ĠáīµáĪį": 1833,
      "ĠáīµáĪŃ": 1834,
      "Ġáīµáī³": 1835,
      "ĠáīµáĬķáĪ½": 1836,
      "áĮŃáĬķ": 1837,
      "ĠáĪµáĪĿ": 1838,
      "ĠáĪµáĪĪáīµ": 1839,
      "áĭ¶áĭµ": 1840,
      "áī¶áĪİ": 1841,
      "áĪģáĬķ": 1842,
      "ĠáĪ³áī³": 1843,
      "áĮĢáĪŃáī£": 1844,
      "ĠáĮ¥áĪŃ": 1845,
      "áĬ©áĬĿ": 1846,
      "áĪĪáīµáĪĿ": 1847,
      "ĠáĮłáī£": 1848,
      "áĪ¸áĪ½": 1849,
      "Ġáĭ°áĪĺáĬĵ": 1850,
      "Ġáĭ°áĪ¨áīħ": 1851,
      "ĠáĭĺáĪŃ": 1852,
      "ĠáĭĺáĬķáĭµ": 1853,
      "ĠáĭĺáĮłáĬĿ": 1854,
      "ĠáĭĺáįĪáĬķ": 1855,
      "Ġáĭ«áĪĪáīłáīµ": 1856,
      "ĠáįĪáĪĭ": 1857,
      "ĠáįĪáĮ£áĪª": 1858,
      "áĪ¨áĪĺ": 1859,
      "Ġáī¤áī±": 1860,
      "ĠáĮįáĭµ": 1861,
      "Ġáĭ¨áĪļáĮł": 1862,
      "ĠáĭŃáĪĺáĪ°": 1863,
      "áĬ®áĪ«": 1864,
      "áĪĺáĪįáĮ¥": 1865,
      "Ġáĭ«áĪįáīĥáĪį": 1866,
      "áī¢áĭ«": 1867,
      "áĭ¨áĪļáĭ«áĪįáįį": 1868,
      "áĬĳáĬķ": 1869,
      "áĮ¸áĪİáīµ": 1870,
      "áĮĵáī±áĬķ": 1871,
      "áĭ²áĪħ": 1872,
      "áĭ«áĭįáīģ": 1873,
      "áĭ«áĭįáīģáīµ": 1874,
      "ĠáīģáĬĵ": 1875,
      "áįİáī½": 1876,
      "ĠáĮŃáĪµ": 1877,
      "áīµáĬķáĪ½": 1878,
      "ĠáīłáĬłáĪ³áīµ": 1879,
      "ĠáĪĢáĭŃ": 1880,
      "áīĭáĪį": 1881,
      "ĠáĬłáĮĪáĭµáĪĿ": 1882,
      "ĠáĬłáĪĿáĮ¡": 1883,
      "Ġáī£áĪĪáī¤áī±": 1884,
      "ĠáĪļáĪµ": 1885,
      "ĠáĭĭáĪ»": 1886,
      "ĠáĪĬáĭ«": 1887,
      "ĠáĬłáĪ«áĪ±": 1888,
      "áĬłáī¥áĪĦáĪŃ": 1889,
      "ĠáĪĺáĪµáĪıáīµ": 1890,
      "áĪ¨áĪ°áĬĽ": 1891,
      "ĠáĬłáĬĵáī±áĬķ": 1892,
      "áĬłáĭµáĪľ": 1893,
      "ĠáĬłáĮįáĭľáĪŃ": 1894,
      "ĠáĪ½áĪĽáĮįáĪĮ": 1895,
      "áī³áĭįáīħ": 1896,
      "áĬłáĪĭáĭĭáīĤ": 1897,
      "áĬłáĪĭáĪŃáįį": 1898,
      "áī°áĬĵáĮįáĪ®": 1899,
      "ĠáĪĦáĭ°": 1900,
      "ĠáĬłáĮĪáĭ±áĬķ": 1901,
      "áįĮáĬķ": 1902,
      "ĠáĬ®áĪ¶": 1903,
      "ĠáĬłáĮĪáĭ³áīµ": 1904,
      "áĬ¸áĭį": 1905,
      "áĮ¢áĪŃ": 1906,
      "áĮ¢áĬłáīµ": 1907,
      "áĮĪáĬĵáĬĿ": 1908,
      "áĪħáĪŃáīµ": 1909,
      "ĠáĬłáĪµáĬªáĭ«áĪįáįį": 1910,
      "ĠáĮĵáĪ®": 1911,
      "áĭ¨áĮ¨áĭĭ": 1912,
      "ĠáĪĿáĪµáĮ¢áĪŃ": 1913,
      "ĠáĪµáĬķáīħ": 1914,
      "ĠáĬłáĭ°áĪ¨áĮĪáĬĿ": 1915,
      "ĠáĭŃáĭįáĪĭáĪį": 1916,
      "áĭ¨áĪļáĭ«áĭµáĮį": 1917,
      "ĠáĬłáĭ«áĭįáīħ": 1918,
      "ĠáĬ¨áĪĨáĬĲ": 1919,
      "ĠáĭŀáĪ®": 1920,
      "ĠáĭŃáĮ¥áĪĭáĪį": 1921,
      "ĠáĭĪáĬķáĭµáĪĿ": 1922,
      "ĠáīłáĭĭáĬĵ": 1923,
      "ĠáĮįáĪŃáĮįáĭ³": 1924,
      "áĬ¤áĪį": 1925,
      "Ġáĭ¨áĪĭáĬ¨áĭį": 1926,
      "ĠáĪģáĪįáĮĬáĭľ": 1927,
      "ĠáĬłáĭŃáĮĪáĭµáĪĿ": 1928,
      "ĠáĪĿáĪ°áĪ¶": 1929,
      "ĠáĬĸáĪ®": 1930,
      "ĠáĬłáĭŃáĪĨáĮĪáĪĿ": 1931,
      "áĬłáĮįáĭļáĬłáī¥áĪĦáĪŃ": 1932,
      "ĠáĭĪáĪĪáĪĿáī³": 1933,
      "Ĩáĭµ": 1934,
      "áĬłáĬĲ": 1935,
      "áĬłáĮĭ": 1936,
      "áĬłáįī": 1937,
      "áĬłáĪ·": 1938,
      "ĠáĭĲ": 1939,
      "ĠáĪº": 1940,
      "ĠáĪ¨áĪ": 1941,
      "ĠáĬłáĮł": 1942,
      "ĠáĬłáĪ°": 1943,
      "ĠáĬłáĪ½": 1944,
      "ĠáĬłáĭĺ": 1945,
      "ĠáĬłáīĥ": 1946,
      "ĠáĬłáĭĿ": 1947,
      "ĠáĬłáĮĤ": 1948,
      "ĠáĬłáĪĭáĪĿ": 1949,
      "ĠáĬłáĭĪáĪŃ": 1950,
      "áĪįáĪĽ": 1951,
      "áĬķáĪĿ": 1952,
      "áĬķáĮĭ": 1953,
      "áĬķáįĪáĪŃ": 1954,
      "áĬķáīĢáĪĭáįĭ": 1955,
      "áīµáįį": 1956,
      "áĪŃáīµ": 1957,
      "áĪŃáīĢ": 1958,
      "áĪŃáĪ³áĪį": 1959,
      "áĮĪáĪį": 1960,
      "áĮĪáĪ«áĪį": 1961,
      "áĮĪáĭĻ": 1962,
      "áĪĪáĮ¥": 1963,
      "áĪĪáī±": 1964,
      "áĪĪáĪŀ": 1965,
      "áĪĪáĪŀáĬĿ": 1966,
      "áĪĪáī¥áĪįáĪħ": 1967,
      "áĪĿáī¶": 1968,
      "áĭŃáĪ°": 1969,
      "áĭ«áīł": 1970,
      "áĭ«áįį": 1971,
      "áĪĭáīħ": 1972,
      "áĪĭáĮħ": 1973,
      "áīłáĭĿ": 1974,
      "áīłáĭĭáĪį": 1975,
      "ĠáĭŃáĪŃ": 1976,
      "ĠáĭŃáī£": 1977,
      "ĠáĭŃáĭĭ": 1978,
      "ĠáĭŃáī°áĬĽ": 1979,
      "ĠáĭŃáĮ®": 1980,
      "ĠáĮĬ": 1981,
      "ĠáĮ¾áĪĿ": 1982,
      "áī¥áĪ³": 1983,
      "áĭ°áįĭáĪŃ": 1984,
      "áĪĺáĪµ": 1985,
      "áĪĺáĪ½": 1986,
      "áĪĺáĬŃ": 1987,
      "Ġáĭ«áĬĵ": 1988,
      "Ġáīłáī³": 1989,
      "ĠáīłáĪĢ": 1990,
      "Ġáīłáĭĺ": 1991,
      "ĠáīłáĮŃ": 1992,
      "ĠáīłáĪħáĪį": 1993,
      "áĬĵáĪĪáī½": 1994,
      "áī°áĬ«": 1995,
      "áīĢáĪ±": 1996,
      "áīĢáĪ³áĪį": 1997,
      "áī£áĪŃ": 1998,
      "áĪ¨áĮ¥": 1999,
      "Ġáĭ¨áĮĮ": 2000,
      "Ġáĭ¨áĮĪáĭ°": 2001,
      "Ġáĭ¨áĭµáĪĺáīµ": 2002,
      "Ġáĭ¨áīĢáĪ¨": 2003,
      "Ġáĭ¨áĭĺáĮĪ": 2004,
      "áĬĲáīħ": 2005,
      "áĬĲáĮŃ": 2006,
      "áĪħáī°áīµ": 2007,
      "áĭ³áĬķ": 2008,
      "áĭ³áīĭ": 2009,
      "áĭ³áĮĬ": 2010,
      "áĭ³áĮĪáīµ": 2011,
      "áĪĽáĪª": 2012,
      "áĭĪáĪµ": 2013,
      "áīħáĪ¶": 2014,
      "áīħáĪĽáĪį": 2015,
      "áįĪáĬĽ": 2016,
      "áĮ¥áĪĭ": 2017,
      "áĮ¥áĪ®": 2018,
      "áĮ¥áīĭ": 2019,
      "ĠáĬłáĭŃáī°": 2020,
      "áĮłáĬĵ": 2021,
      "áĮ£áĪĭ": 2022,
      "ĠáĪĪáĪ«áĪ±": 2023,
      "ĠáĪĺáīĭ": 2024,
      "ĠáĪĺáĬĲáĬ©áĪ´": 2025,
      "ĠáĪĺáĮįáī£áīµ": 2026,
      "áĪ³áĪĪáī½": 2027,
      "ĠáĬ¨áĪµ": 2028,
      "ĠáĬ¨áĭįáĪĢ": 2029,
      "áĭ¨áī£": 2030,
      "áĭ¨áįĬáīµ": 2031,
      "áĪĢáĬķ": 2032,
      "áĪĢáįį": 2033,
      "áĪīáĪħ": 2034,
      "ĠáĪ²áī³": 2035,
      "ĠáĪ²áĮ¥": 2036,
      "ĠáĪ²áĪ°": 2037,
      "ĠáĪ²áĪŀáīµ": 2038,
      "ĠáĪ²áĮłáĮįáī¥": 2039,
      "Ġáī¢áĪį": 2040,
      "Ġáī¢áī³": 2041,
      "Ġáī¢áĪĦáĭµ": 2042,
      "Ġáī°áĪĪ": 2043,
      "Ġáī°áĪ³": 2044,
      "Ġáī°áī¥áĪİ": 2045,
      "Ġáĭ¨áĪ¸": 2046,
      "ĠáĬłáĮĪáĪ©": 2047,
      "ĠáĬłáĮĪáĮĢáĪ«": 2048,
      "áĭĺáĮłáĬĿ": 2049,
      "áĬ¨áĬĵ": 2050,
      "áĬ¨áĬĽ": 2051,
      "áĬ¨áĬ¨": 2052,
      "ĠáĬłáĬķáīłáĪ³": 2053,
      "ĠáĬłáĬķáīģáĪĭáĪį": 2054,
      "áĬŃáĪ®": 2055,
      "áĬŃáĪ³áĪį": 2056,
      "áĪ©áĪĿ": 2057,
      "ĠáĪĿáĪĭáĪµ": 2058,
      "ĠáĪ°áĬĶ": 2059,
      "ĠáīĢáĮĪ": 2060,
      "ĠáīĢáĭŃ": 2061,
      "ĠáīĢáĪĭ": 2062,
      "ĠáīĢáĮŃáĬķ": 2063,
      "ĠáĪĽáĪį": 2064,
      "áĪİáĪĮ": 2065,
      "ĠáĬłáĪĪáĪĺ": 2066,
      "áĮīáĪ±": 2067,
      "áĮ¨áī¥": 2068,
      "áīłáīµáĪŃ": 2069,
      "ĠáĬłáĭ«áĪį": 2070,
      "ĠáĬłáĭ«áĭĪ": 2071,
      "ĠáĬłáĭ«áĭµáĪŃ": 2072,
      "ĠáĬłáĭ«áĭµáĬķ": 2073,
      "ĠáīµáĭĪáĪį": 2074,
      "áĮŃáīµ": 2075,
      "áĭ¶áī½": 2076,
      "áĭĽáīµ": 2077,
      "áī¶áī½": 2078,
      "ĠáĬ¨áĪ«": 2079,
      "ĠáĬ¨áĪ³": 2080,
      "áĬ«áī¥": 2081,
      "áĬ«áĪ½": 2082,
      "áĬ©áĪĭ": 2083,
      "áĬ©áĭĻ": 2084,
      "ĠáĮłáĪĿ": 2085,
      "ĠáĮłáĪĭáīµ": 2086,
      "ĠáĭĺáĪĺ": 2087,
      "ĠáįĪáĪ³": 2088,
      "ĠáīħáĮłáĪį": 2089,
      "ĠáīħáīłáĪ©": 2090,
      "áĭ«áĪįáĭĪáĪĪáĭ°": 2091,
      "áĪ¨áĪ»": 2092,
      "ĠáĪŀáī±": 2093,
      "áĪĪáĪĿáĬķ": 2094,
      "áĬłáĭŃáĬĲáĮĭ": 2095,
      "áįīáĮį": 2096,
      "ĠáĮįáĬķáĭµ": 2097,
      "ĠáĮįáĮĪáĭµ": 2098,
      "áī¸áĭįáĬķ": 2099,
      "áįĬáĭ«": 2100,
      "Ġáĭ¨áī°áĮł": 2101,
      "ĠáĭŃáĪĺáī³áĪį": 2102,
      "áīĤáĮ¥": 2103,
      "áĬ®áĬĲ": 2104,
      "áĪŃáĪµáī²": 2105,
      "áĪĺáĪįáĬ«áĪĿ": 2106,
      "Ġáĭ«áĪįáīħ": 2107,
      "ĠáĮīáĪĿ": 2108,
      "áĭ¨áĪļáĪµáīµ": 2109,
      "ĠáĪĨáĭ±": 2110,
      "ĠáĬłáĬķáĭ°áĪĨáĬķ": 2111,
      "ĠáĪ³áĭŃáĭĺ": 2112,
      "áĮ¸áĪĢáĭŃ": 2113,
      "áĬłáĪĪáīĥ": 2114,
      "áĭĪáĮ£áĪ½": 2115,
      "ĠáĭĿáĪĨáĬķ": 2116,
      "áĭ²áĭ«áĭį": 2117,
      "áĭ«áĭįáīħ": 2118,
      "áĪıáĬķ": 2119,
      "ĠáĬ«áĪįáĬĲ": 2120,
      "ĠáĭŃáĭĪáĭ³áĪį": 2121,
      "ĠáīģáĪµáĪį": 2122,
      "áĮħáī¥áĬķ": 2123,
      "áĮ«áĭĪ": 2124,
      "ĠáĭŃáĮĪáī£": 2125,
      "Ġáĭ¨áĪĮáĪĭáīµ": 2126,
      "áĮĪáĬķáįİ": 2127,
      "áĮ¦áĪŃ": 2128,
      "Ġáĭ¨áĪĽáĭŃáĪĨáĬķ": 2129,
      "ĠáĪĪáĪĺáĬ¨áĪ«": 2130,
      "Ġáī£áĪĪáī¤áīµ": 2131,
      "áĭµáĬķáĮĭáĭŃ": 2132,
      "ĠáĪĮáīµ": 2133,
      "ĠáĭŃáĪ°áī¥áĪ«áĪį": 2134,
      "ĠáĪĻáĮįáīµ": 2135,
      "áĮĪáīłáĭ«": 2136,
      "ĠáĮ¨áĪŃáīħ": 2137,
      "ĠáĪ«áĪ±áĬķ": 2138,
      "áĪĪáĪĽáĬĿ": 2139,
      "ĠáĭŃáĪ»áĪį": 2140,
      "áĭĪáĪįáĭ±": 2141,
      "áĪ·áĬķ": 2142,
      "ĠáĭŃáĪŀáīĥáĪį": 2143,
      "ĠáĬłáī¥áĪ¨áĭį": 2144,
      "ĠáĬłáī¥áĪ¨áĪħ": 2145,
      "áī°áĪĽáĪ¨": 2146,
      "áī°áĪĽáĪª": 2147,
      "áī°áĬķáĬ®áĪĪ": 2148,
      "áĭ¨áĪŀáī°": 2149,
      "ĠáĬłáīłáī£": 2150,
      "ĠáīĨáĭŃ": 2151,
      "Ġáĭ¨áĪĺáĮ£": 2152,
      "ĠáĬłáĭµáįį": 2153,
      "áī¥áĪįáĪĢáīµ": 2154,
      "ĠáĮħáī¥áĬķ": 2155,
      "ĠáĪ°áĪŃáĭ¶": 2156,
      "Ġáĭ«áĮĪáī£áĪį": 2157,
      "Ġáĭ«áĪĭáĭ¨": 2158,
      "áĭ¥áĪĿ": 2159,
      "áī°áĪįáī£": 2160,
      "ĠáĮ¦áĪŃ": 2161,
      "ĠáĮ¦áĪĿ": 2162,
      "ĠáĬłáĮĪáĬķáĭ³": 2163,
      "áĪ¨áĮĪáĭĺáī½": 2164,
      "áĮīáĪįáīłáī±": 2165,
      "ĠáīłáĬ¨áĮĪ": 2166,
      "ĠáīĢáĭ³áĭ³": 2167,
      "áĪĪáĭĪáĪ¬": 2168,
      "Ġáĭ¨áĭĭáĪĪ": 2169,
      "Ġáĭ¨áĭĭáĪĪáī½": 2170,
      "ĠáĮĪáĬķáįİ": 2171,
      "áĮ¨áĭĪáīµ": 2172,
      "áĬłáī³áĪĭáĭŃ": 2173,
      "Ġáĭ¨áĭ°áīłáīĢ": 2174,
      "ĠáĪįáĮĦáĬķ": 2175,
      "ĠáĬłáĭ°áĪ«": 2176,
      "Ġáĭ¨áĬĲáīłáĪ¨": 2177,
      "ĠáĪ©áīħ": 2178,
      "ĠáĪŃáĪµáīµ": 2179,
      "áĭŃáĪīáĬĿ": 2180,
      "ĠáīĥáĪį": 2181,
      "Ġáĭ«áĮłáįĭáĪį": 2182,
      "ĠáĬ¨áĮİáĪ¨áī¤áīµ": 2183,
      "Ġáī°áĪŃáįİ": 2184,
      "áĭ¨áĪ°áĭį": 2185,
      "áĪģáĪĪáī°áĬĽ": 2186,
      "áĭ«áĪįáī³áĭ°áĪĪ": 2187,
      "áĭ¨áĬĲáī¶áĪİ": 2188,
      "ĠáĬĲáįįáĪµ": 2189,
      "áĬ¨áĪ³áĪį": 2190,
      "Ġáī¢áĭ«áĪĿáĪŃáĪħ": 2191,
      "ĠáĭĺáĬķáĭµáĪ®": 2192,
      "ĠáīłáĪħáĪįáĪĻ": 2193,
      "áĮ¥áīĭáĮ¦": 2194,
      "ĠáīµáĭĪáĪįáĭ³áĪĪáī½": 2195,
      "áĪŃáĪµáī²áĭ«áĬķ": 2196,
      "¨áīĥ": 2197,
      "ĠáįĬ": 2198,
      "Ļáīµ": 2199,
      "áĮ³": 2200,
      "áĮ¾áĪĿ": 2201,
      "áĬłáĪĺ": 2202,
      "áĬłáĮ£": 2203,
      "áĬłáĪī": 2204,
      "áĬłáĭĭáīĤ": 2205,
      "áĬłáĮīáĪį": 2206,
      "áĬłáĪ¾áĪħ": 2207,
      "Ġáĭľ": 2208,
      "ĠáĪ¬": 2209,
      "ĠáĪ¶": 2210,
      "ĠáĪ¾": 2211,
      "ĠáĬłáĬŃ": 2212,
      "ĠáĬłáīģ": 2213,
      "ĠáĬłáĪĽáīµ": 2214,
      "ĠáĬłáĮ¥áĪŃ": 2215,
      "ĠáĬłáĮĬ": 2216,
      "ĠáĬłáĮ£áĪª": 2217,
      "ĠáĬłáĪ¨áĬĽ": 2218,
      "ĠáĬłáīłáĪĭáĪ½": 2219,
      "áĪįáī¥": 2220,
      "áĪįáīĢ": 2221,
      "áĬķáīģ": 2222,
      "áĬķáįĬáīµ": 2223,
      "áĬķáĮīáĪ±": 2224,
      "áĪŃáĪĿ": 2225,
      "áĪŃáī¥": 2226,
      "áĮĪáĪµ": 2227,
      "áĮĪáĪħ": 2228,
      "áĮĪáįĭ": 2229,
      "áĮĪáīĭ": 2230,
      "áĪĪáĪĭ": 2231,
      "áĪĪáīģ": 2232,
      "áĪĪáĬłáĪ³áīµ": 2233,
      "áĪĪáįĪáĪª": 2234,
      "áĪĪáĪ«áĪµ": 2235,
      "áĪĪáĪĨáĭ³áĪĿ": 2236,
      "áĪĿáī³": 2237,
      "áĪĿáĬ¨áĪŃ": 2238,
      "áĭŃáĭį": 2239,
      "áĭŃáĭĽáĪį": 2240,
      "áĭ«áĪĺ": 2241,
      "áĭ«áī£áĭŃ": 2242,
      "áĭ«áĭĪáīĢ": 2243,
      "áĭ«áĮĪáīłáĪ³": 2244,
      "áĭµáĪĽ": 2245,
      "áĭµáĪª": 2246,
      "áīłáĭµ": 2247,
      "áīłáĪ°": 2248,
      "áīłáī½": 2249,
      "áīłáĪ½": 2250,
      "áīłáĭµáĪŃ": 2251,
      "ĠáĭŃáįį": 2252,
      "ĠáĭŃáĭ°áĪŃ": 2253,
      "ĠáĭŃáĪĭáĪī": 2254,
      "ĠáĭŃáĪŁáĮĪ": 2255,
      "ĠáĮ¡": 2256,
      "áī¥áĭµ": 2257,
      "áī¥áīħ": 2258,
      "áī¥áĮ£áĪį": 2259,
      "áī¥áĪĭáīµ": 2260,
      "áī¥áĮ¦": 2261,
      "áī¥áĪĭáĭį": 2262,
      "áĭ°áĬķ": 2263,
      "áĭ°áīµ": 2264,
      "áĭ°áĪĭ": 2265,
      "áĭ°áĮĭ": 2266,
      "áĭ°áĭįáĬķ": 2267,
      "áĭ°áĪĺáĬĵ": 2268,
      "áĪĺáĭįáĪĿ": 2269,
      "áĪĺáī±áīµ": 2270,
      "Ġáĭ«áĪŃ": 2271,
      "Ġáĭ«áĪ«áĪį": 2272,
      "Ġáĭ«áĪĿáĪŃ": 2273,
      "Ġáĭ«áĮłáįĭ": 2274,
      "Ġáĭ«áĪĺáĮ£": 2275,
      "Ġáīłáĭį": 2276,
      "ĠáīłáĪĪ": 2277,
      "Ġáīłáī°": 2278,
      "ĠáīłáįĪ": 2279,
      "ĠáīłáĪ¶": 2280,
      "ĠáīłáĬłáĪħáĭ«": 2281,
      "ĠáīłáĮ¥áĪŃ": 2282,
      "ĠáīłáĬĭáĪĭ": 2283,
      "Ġáīłáīħáī¤": 2284,
      "Ġáīłáĭ±áĪĭ": 2285,
      "Ġáīłáī¥áĪįáĪĢáīµ": 2286,
      "áĬĵáĬĽ": 2287,
      "áĬĵáī·": 2288,
      "áī°áĬĲ": 2289,
      "áī°áįį": 2290,
      "áīĢáĪ®": 2291,
      "áīĢáĪ©": 2292,
      "áīĢáĭĿ": 2293,
      "áīĢáĬķáĭµ": 2294,
      "áīĢáĭĭáĪį": 2295,
      "áī£áĪ«": 2296,
      "áī£áī£áĭŃ": 2297,
      "áĪ«áĮħ": 2298,
      "áĪ«áĪª": 2299,
      "áĪ«áĮŃ": 2300,
      "Ġáĭ¨áĪĪ": 2301,
      "Ġáĭ¨áĭĪáĮ£": 2302,
      "Ġáĭ¨áĭ¶áĪ®": 2303,
      "Ġáĭ¨áīĦáĪµ": 2304,
      "Ġáĭ¨áĪĪáĪ½": 2305,
      "áī³áĭ°áĪŃ": 2306,
      "áī³áī¦": 2307,
      "áĬĲáīĢ": 2308,
      "áĬĲáĭĭáĪį": 2309,
      "áĬĲáīĢáĭį": 2310,
      "áĪħáĪĺ": 2311,
      "áĪħáīłáĪŃ": 2312,
      "áĭ³áī¥": 2313,
      "áĭ³áĭ³": 2314,
      "áĪĽáĪĿ": 2315,
      "áĪĽáĭ³": 2316,
      "áĪĽáĪī": 2317,
      "áĪĽáĪ©": 2318,
      "áĮįáĪį": 2319,
      "áĭĪáĪ¨": 2320,
      "áĭĪáĮī": 2321,
      "áĭĪáīģ": 2322,
      "áĭĪáĪĪáĭµ": 2323,
      "áīħáĪ½": 2324,
      "áīħáĪĭáĪį": 2325,
      "áįĪáĪ¨": 2326,
      "áĮ¥áĪ«áĪį": 2327,
      "áĮ¥áĬķáīµ": 2328,
      "ĠáĬłáĭŃáĭį": 2329,
      "ĠáĬłáĭŃáĪĽ": 2330,
      "ĠáĬłáĭŃáĪĺáĪį": 2331,
      "ĠáĬłáĭŃáįĪáĪŃ": 2332,
      "ĠáĬłáĭŃáĪĪáīĢ": 2333,
      "ĠáĬłáĭŃáĬĲáĮįáĪ©": 2334,
      "áįįáīħ": 2335,
      "áįįáī¶": 2336,
      "ĠáĪĪáĪį": 2337,
      "ĠáĪĪáīµ": 2338,
      "ĠáĪĪáĮĪ": 2339,
      "ĠáĪĪáĮİ": 2340,
      "ĠáĪĪáĪĮ": 2341,
      "ĠáĪĪáĬĶ": 2342,
      "ĠáĪĪáĮĮ": 2343,
      "ĠáĪĺáī³": 2344,
      "ĠáĪĺáĪĢáĪį": 2345,
      "áĪ°áī½": 2346,
      "áĪ°áĬĲáįį": 2347,
      "ĠáĬ¨áīł": 2348,
      "ĠáĬ¨áī¥": 2349,
      "ĠáĬ¨áĮ¥": 2350,
      "ĠáĬ¨áįį": 2351,
      "ĠáĬ¨áĮĭ": 2352,
      "ĠáĬ¨áįĭ": 2353,
      "ĠáĬ¨áī¶": 2354,
      "ĠáĬ¨áī¤áī±": 2355,
      "ĠáĬ¨áĬķáįĪáĪŃ": 2356,
      "áĬĿáĪĿ": 2357,
      "áĭ¨áī°": 2358,
      "áĭ¨áĮ¨áĪ": 2359,
      "áĭ¨áĬłáĬĵáīµ": 2360,
      "áī½áīłáīµ": 2361,
      "áī½áĮįáĪŃ": 2362,
      "áī½áĬ©áĪį": 2363,
      "ĠáĬĲáĮį": 2364,
      "áĪ½áĪĭ": 2365,
      "áĪ½áĪĽáĮįáĪĮ": 2366,
      "áĪĢáĮ¢áĬłáīµ": 2367,
      "áĪīáĬĿ": 2368,
      "ĠáĪ²áĪµ": 2369,
      "Ġáī¢áĮĪ": 2370,
      "Ġáī¢áĪµ": 2371,
      "Ġáī¢áīĢ": 2372,
      "Ġáī¢áįĪ": 2373,
      "Ġáī¢áĪ¸": 2374,
      "Ġáī¢áīĢáĪŃ": 2375,
      "Ġáī¢áĮłáįĭ": 2376,
      "Ġáī¢áĪĭáĭĭ": 2377,
      "Ġáī°áĪ«": 2378,
      "Ġáī°áĪĽáīµ": 2379,
      "Ġáī°áĪĭáĮŃ": 2380,
      "Ġáī°áĭ«áĭŃ": 2381,
      "Ġáī°áĪįáī£": 2382,
      "áĮĭáĪª": 2383,
      "áĮĭáĭµáĪį": 2384,
      "Ġáĭ¨áĪ«": 2385,
      "Ġáĭ¨áĪ³": 2386,
      "ĠáĬłáĮĪáī°": 2387,
      "ĠáĭĪáĭµ": 2388,
      "ĠáĭĪáĬķáĭĿ": 2389,
      "áĭĺáĪĺáĬķ": 2390,
      "áĭĺáĭĺáĭį": 2391,
      "áĪ®áĮ¡": 2392,
      "áĭĭáĪµ": 2393,
      "áĭĭáĮħ": 2394,
      "áĭĭáĮĭ": 2395,
      "áĬ¨áĪµ": 2396,
      "áįĭáĭį": 2397,
      "áįĭáĬĿ": 2398,
      "ĠáĪįáĪĽ": 2399,
      "ĠáĪįáĮĵáĪĿ": 2400,
      "áĭ¨áĪ«": 2401,
      "áĭ¨áĪħ": 2402,
      "áĭ¨áĪĨáĭµ": 2403,
      "ĠáĬłáĬķáī°": 2404,
      "ĠáĬłáĬķáĭ±áĬķ": 2405,
      "ĠáĬłáĬķáīħáĪįáįį": 2406,
      "Ġáī£áĪĮ": 2407,
      "Ġáī£áĮĪáĪ©": 2408,
      "Ġáī¥áĭµáĪŃ": 2409,
      "áĬŃáĮĪ": 2410,
      "ĠáĪĿáĬĲáĭį": 2411,
      "ĠáĪĿáĬŃáĪŃ": 2412,
      "áīĥáī¥áĪŃ": 2413,
      "áĭĿáĬķ": 2414,
      "áĭĿáĬĵ": 2415,
      "ĠáĮĪáĭµáĪİ": 2416,
      "ĠáĪ°áĭŃáĮ£áĬķ": 2417,
      "áĭ±áīµáĬķ": 2418,
      "áĭ±áīĦáīµ": 2419,
      "ĠáīĢáĪµ": 2420,
      "ĠáĪĽáĪ°": 2421,
      "ĠáĪĽáĪ³": 2422,
      "ĠáĪĽáĮŃáĭµ": 2423,
      "áĬłáĬķáīłáĪ³": 2424,
      "áĪİáĪļ": 2425,
      "ĠáĬłáĪĪáĪ½": 2426,
      "ĠáĬłáĪĪáīĥ": 2427,
      "áĮīáīµ": 2428,
      "áĮīáĪ¨áĪµ": 2429,
      "áīģáĪĺ": 2430,
      "ĠáĬ«áĪī": 2431,
      "ĠáĬ«áĪĪáīĢ": 2432,
      "ĠáĬłáĭ«áĪĪ": 2433,
      "ĠáīµáīłáĪĭ": 2434,
      "ĠáīµáĭĪáĮ£": 2435,
      "áĮŃáī¶": 2436,
      "áī¤áī·áĬķ": 2437,
      "áĪ±áĬĿ": 2438,
      "áĬ«áĪ«áĪĿ": 2439,
      "ĠáĪ³áĮ£": 2440,
      "áīłáĪĭáĭįáĬķ": 2441,
      "ĠáĮ¥áĪĿ": 2442,
      "ĠáĮ¥áĪĭ": 2443,
      "ĠáĮ¥áīģáĪŃ": 2444,
      "ĠáĮ¥áĮĭáī¥": 2445,
      "áĬ¨áĪ±": 2446,
      "áĬ©áĪĿ": 2447,
      "áĬ©áĪ«": 2448,
      "áĪ¸áĬķ": 2449,
      "Ġáĭ°áĮĭ": 2450,
      "ĠáĭĺáĪĺáĬķ": 2451,
      "Ġáĭĺáĭįáĭµ": 2452,
      "Ġáĭ«áĪĪáįĭáĪį": 2453,
      "áĭ«áĪįáīłáĪĭ": 2454,
      "áĪ¨áĪ½": 2455,
      "áī³áĪįáĪıáīµ": 2456,
      "ĠáĪŀáī±áĬķ": 2457,
      "áĪ°áĭįáĪĿ": 2458,
      "ĠáĮİáĬķ": 2459,
      "ĠáĮİáī³": 2460,
      "ĠáĮİáī°áĪ«": 2461,
      "ĠáĮİáįĪáĪ¬": 2462,
      "ĠáĮİáĪįáĪĽ": 2463,
      "áĪīáīµáĬķ": 2464,
      "Ġáĭ¨áĪļáĭ«áĪµ": 2465,
      "áī¸áĪŃ": 2466,
      "áī¸áĮįáĪ«áĪį": 2467,
      "ĠáĬłáīµáĪµ": 2468,
      "áī¦áī½": 2469,
      "Ġáĭ¨áī°áĪ°áĪ«": 2470,
      "áīĤáīµ": 2471,
      "áīĤáĪĿ": 2472,
      "Ġáĭ³áĮĪáīµ": 2473,
      "Ġáĭ³áĭĬ": 2474,
      "ĠáĬŃáĪĿáĪŃ": 2475,
      "ĠáĬŃáĮĪáįį": 2476,
      "áī£áĪįáĪ½": 2477,
      "ĠáįįáĪ¬": 2478,
      "áĮĥáīµ": 2479,
      "Ġáĭ«áĪįáįĭáĪį": 2480,
      "áĮĮáĬķ": 2481,
      "ĠáĪĨáĭŃ": 2482,
      "ĠáĪĨáĬĵ": 2483,
      "ĠáĪĨáĭ´": 2484,
      "áī°áĬĽáĭį": 2485,
      "áĮ¸áĪĢáįį": 2486,
      "ĠáĬłáĪįáīĥ": 2487,
      "áĬłáĪħáĭ«áĬķ": 2488,
      "ĠáĪ²áĭ«áī³áĪįáĪıáīµ": 2489,
      "áĮĵáĪ®": 2490,
      "ĠáĭĿáĬĵáĪĿ": 2491,
      "ĠáĬłáĪŃáĮį": 2492,
      "ĠáĬłáĪŃáīħ": 2493,
      "ĠáĬłáĪŃáĮİ": 2494,
      "ĠáĮĭáī¥áī»": 2495,
      "ĠáĬ¨áĪĺáīĥáī¥áĪŃ": 2496,
      "áī·áīµ": 2497,
      "áĬĲáīµáĬķ": 2498,
      "áĪıáĪį": 2499,
      "áĪļáĪµ": 2500,
      "áĬłáĭįáīĢ": 2501,
      "ĠáĬ«áĪįáĮĭ": 2502,
      "Ġáī£áĭŃáĮłáĮ£": 2503,
      "áĮ«áĬĽ": 2504,
      "áĬłáĪŃáĪ±": 2505,
      "ĠáĮŃáī¥áĮ¦": 2506,
      "ĠáĭŃáīĢáĪĭáĪį": 2507,
      "ĠáĬłáĭįáĪ«": 2508,
      "ĠáĬłáĭįáĪ¬": 2509,
      "ĠáĭŃáīłáĪĭáĪį": 2510,
      "ĠáĭŃáīłáīĥáĪį": 2511,
      "áĮ¦áĮ£": 2512,
      "áĬ³áĪ½": 2513,
      "áĪľáĬķ": 2514,
      "áĪľáĪµáīµ": 2515,
      "Ġáī£áĪįáĭĪáĮ£áĪ½": 2516,
      "áĬĺáĪ½": 2517,
      "ĠáĪĢáĪĿáĪ³": 2518,
      "áĭ¶áĪ®áĬķ": 2519,
      "áīħáĪŃáī¥": 2520,
      "áĮ®áĪħáĪĿ": 2521,
      "ĠáĬłáī³áĪµ": 2522,
      "áĪ°áĪĽáĭį": 2523,
      "ĠáĬłáĪĿáī£": 2524,
      "Ġáī£áĪĪáī¤áī±áĬķ": 2525,
      "áĮĨáī¹": 2526,
      "ĠáĭĭáĭĽ": 2527,
      "ĠáĪĬáīłáĪĭ": 2528,
      "áĪ¾áĪĺ": 2529,
      "ĠáīłáĪĺáĪŃ": 2530,
      "ĠáĬłáĪ«áĭ³": 2531,
      "áĪĪáĪĺáĪµ": 2532,
      "ĠáĭŃáĪ°áĪĽáĪį": 2533,
      "ĠáĪĺáĪµáĮłáīµ": 2534,
      "ĠáĬłáĬĵáī±": 2535,
      "ĠáĬłáĭ³áĪª": 2536,
      "ĠáĬłáĭ³áĭįáĬķ": 2537,
      "ĠáĮĪáīłáĭ«áĪĿ": 2538,
      "áĬłáĪ³áīµáĬĵ": 2539,
      "Ġáĭ«áĮ£áĪĭáĪį": 2540,
      "áĪ·áīµ": 2541,
      "áĭ¨áĪĺáĬ¨áĪ«": 2542,
      "áĮĪáĪ¨áĭµ": 2543,
      "áĪĬáīµ": 2544,
      "áĪĬáĪµ": 2545,
      "áĪĬáīłáĪĭ": 2546,
      "ĠáīĤáĮ£": 2547,
      "ĠáĮĮáī³áĭįáĬķ": 2548,
      "áĬĭáīµ": 2549,
      "ĠáĬ¨áĭĪáĬķáĭµ": 2550,
      "ĠáĭĽáĪ¬": 2551,
      "áī°áĬķáĪ½": 2552,
      "Ġáĭ¨áįĪáĮł": 2553,
      "Ġáī°áīĢáī£áĭŃ": 2554,
      "ĠáĬ®áĪŃ": 2555,
      "ĠáĭŃáī³áĭ«áĪį": 2556,
      "áĭĿáĪĿáī³": 2557,
      "Ġáĭ±áĪŃ": 2558,
      "áĪĭáĮŃáĬķ": 2559,
      "ĠáĬłáĭŃáĬĲáĭµáĪĿ": 2560,
      "ĠáĪ²áīłáĪī": 2561,
      "áĪ¸áĪĽáĮįáĪĮ": 2562,
      "Ġáĭ¨áĮłáĪĭ": 2563,
      "Ġáĭ¨áĮłáĭĭáīµ": 2564,
      "ĠáĮ¦áĮ£": 2565,
      "áĭ¨áĭĪáĬķáĭµ": 2566,
      "Ġáī°áĪĺáĬ«": 2567,
      "áĭ«áĬķáĭ±": 2568,
      "áĮīáĪįáīłáīµ": 2569,
      "áī§áĭŃ": 2570,
      "ĠáĮ¤áĭĽ": 2571,
      "áĮįáī£áĪŃ": 2572,
      "ĠáĬłáĭŃáĭ°áįįáĪŃ": 2573,
      "ĠáĪĺáī¥áĪ«áīµ": 2574,
      "áĮªáĭį": 2575,
      "Ġáĭ«áĭ°áĪŃáĪ³áĪį": 2576,
      "ĠáĬłáĭŃáĭĪáĭ±": 2577,
      "áĭĺáĪĺáĭ±": 2578,
      "áĬłáĮ¥áī¥áīĢ": 2579,
      "ĠáĬłáĭŃáĪĺáĪµ": 2580,
      "ĠáĬłáĭŃáįĪáĪ«áĪĿ": 2581,
      "Ġáĭ«áī£áī´": 2582,
      "áīĢáĪĽáĮ£": 2583,
      "ĠáĭĪáĪŃáĭ¶": 2584,
      "Ġáĭ°áī¥áī°áĪ«": 2585,
      "áĪĥáĪį": 2586,
      "ĠáĬĳáĮį": 2587,
      "ĠáĭŃáĬĵáĮĪáĪ«áĪį": 2588,
      "ĠáĬ¨áĪĿáĮ£áĭ±": 2589,
      "áĭ¨áīĢáĮ¡áĬķ": 2590,
      "ĠáĬłáĭ«áĭįáīħáĪĿ": 2591,
      "ĠáĭŃáĪįáĪ³áĪį": 2592,
      "ĠáĮĪáĪįáĮ¦": 2593,
      "ĠáīģáĪŃáīłáīµ": 2594,
      "Ġáī¦áī³": 2595,
      "ĠáīłáĪ°áĬĶ": 2596,
      "Ġáī¢áĪŀáīµáī¥áĪ½": 2597,
      "ĠáĬ¨áĪŀáīµáĬ©": 2598,
      "ĠáĬłáĭĪáĮ£áī½": 2599,
      "ĠáĮ©áĬ¸": 2600,
      "ĠáĭĪáĮ£áī½": 2601,
      "ĠáĪµáĮĪáĭ´": 2602,
      "áĮ¸áĮ¸áīµ": 2603,
      "áĪĭáĪĪáįĪáĭį": 2604,
      "Ġáĭ«áĭĪáĮ£áĭĭáĪį": 2605,
      "ĠáĬ¨áī£áĪħáĪŃ": 2606,
      "ĠáĬ¨áī¥áĪŃáĭµ": 2607,
      "ĠáĬĲáĮĭáĭ´": 2608,
      "ĠáĪĿáĪįáĬŃ": 2609,
      "ĠáĭŃáĭĪáĪįáĭ³áĪį": 2610,
      "áįĸáĪĬáĪµ": 2611,
      "ĠáĬłáĭŃáĭĪáĮ£áĪĿ": 2612,
      "ĠáĪĽáĭ°áĪªáĭ«": 2613,
      "ĠáĮ¥áĪŃáĪ´": 2614,
      "ĠáĪĢáĭŃáĪĽáĬĸáīµ": 2615,
      "ĠáĬłáĭĪáĪŃáĭµ": 2616,
      "ĠáĭŃáĮ®áĪĢáĪį": 2617,
      "ĠáĪĽáĪįáīĢáĪµ": 2618,
      "áĮĪáīĭáĭŃ": 2619,
      "Ġáī°áĪĽáīµáī¶": 2620,
      "ĠáĮİáĪįáĪĽáĪ³": 2621,
      "ªáĭ«": 2622,
      "±áĪª": 2623,
      "Ġáįĭ": 2624,
      "Ġáįİ": 2625,
      "ĠáĬķáĮĪ": 2626,
      "ŀáī½": 2627,
      "áĭ®": 2628,
      "áĬĥ": 2629,
      "áĬŀáī½": 2630,
      "áĬłáī°": 2631,
      "áĬłáĪ¨": 2632,
      "áĬłáĪĽ": 2633,
      "áĬłáĭĪ": 2634,
      "áĬłáĪ½": 2635,
      "áĬłáĬĽ": 2636,
      "áĬłáīĥ": 2637,
      "áĬłáĪŀ": 2638,
      "áĬłáīłáīµ": 2639,
      "áĬłáĪ±": 2640,
      "áĬłáīłáĪĭ": 2641,
      "áĬłáĮİ": 2642,
      "áĬłáĪĪáĪĿ": 2643,
      "áĬłáĪĺáīµ": 2644,
      "áĬłáĪĺáĭµ": 2645,
      "áĬłáī¢": 2646,
      "áĬłáįĪáĪŃ": 2647,
      "áĬłáīº": 2648,
      "áĬłáĮĪáĭ°": 2649,
      "áĬłáĪº": 2650,
      "áĬłáĬĲáĮĭ": 2651,
      "áĬłáĭĪáīħ": 2652,
      "áĬłáĮ¸áĭµáīħ": 2653,
      "ĠáĪ»": 2654,
      "ĠáĪ±áĪª": 2655,
      "ĠáĬłáĪ¨": 2656,
      "ĠáĬłáĪ®": 2657,
      "ĠáĬłáĪ©": 2658,
      "ĠáĬłáĪ»": 2659,
      "ĠáĬłáĮī": 2660,
      "ĠáĬłáĭĽ": 2661,
      "ĠáĬłáįī": 2662,
      "ĠáĬłáĪĭáīµ": 2663,
      "ĠáĬłáĪŁ": 2664,
      "ĠáĬłáĮłáįĭ": 2665,
      "ĠáĬłáĪ·": 2666,
      "ĠáĬłáĭļ": 2667,
      "ĠáĬłáįĭáĪŃ": 2668,
      "ĠáĬłáĮŃáĪŃ": 2669,
      "ĠáĬłáįĭáįį": 2670,
      "ĠáĬłáĭ©áĬĿ": 2671,
      "ĠáĬłáĮĦáĬķ": 2672,
      "ĠáĬłáĪ¨áĮĪáĭĺáī½": 2673,
      "Ġáīĭ": 2674,
      "áĪįáĮ¥": 2675,
      "áĬķáī±": 2676,
      "áĬķáīº": 2677,
      "áĪŃáĭ¶": 2678,
      "áĪŃáĪĻ": 2679,
      "áĮĪáīĢ": 2680,
      "áĮĪáĮ¥": 2681,
      "áĮĪáĬĽ": 2682,
      "áĮĪáĭįáĬķ": 2683,
      "áĮĪáĮİ": 2684,
      "áĮĪáĪĻ": 2685,
      "áĮĪáĪ¨áĭį": 2686,
      "áĪĪáĭ³": 2687,
      "áĪĪáĪĢ": 2688,
      "áĪĪáĬĽ": 2689,
      "áĪĪáī¤áīµ": 2690,
      "áĪĪáĪ´áīµ": 2691,
      "áĪĪáĪĭáĪĿ": 2692,
      "áĪĪáĮįáĪµ": 2693,
      "áįĴ": 2694,
      "ĠáĬ¢": 2695,
      "ĠáĬª": 2696,
      "áĭŃáīµ": 2697,
      "áĭŃáĪĿ": 2698,
      "áĭŃáĪħáĬķ": 2699,
      "áĭŃáīº": 2700,
      "áĪµáī¥": 2701,
      "áĭ«áĭ³": 2702,
      "áĭ«áĪ³": 2703,
      "áĭ«áĮħ": 2704,
      "áĭ«áĪī": 2705,
      "áĭ«áĪĪáĭį": 2706,
      "áĭ«áĭĿ": 2707,
      "áĭ«áĮĪáī£": 2708,
      "áĪĭáĪħ": 2709,
      "áĪĭáīłáīµ": 2710,
      "áĪĭáĪħáĭ«": 2711,
      "áĪĭáīĤ": 2712,
      "áĪĭáĮĭáĭŃ": 2713,
      "áĪĭáĪ´": 2714,
      "áĭµáīģ": 2715,
      "áĭµáĪ¨áĬĿ": 2716,
      "áīłáĬĵ": 2717,
      "áīłáĪ«": 2718,
      "áīłáĬĿ": 2719,
      "áīłáĪĪáīµ": 2720,
      "áīłáī¡": 2721,
      "áīłáĭ°áĪŃ": 2722,
      "áīłáĪīáīµ": 2723,
      "áīłáĭĻ": 2724,
      "áīłáīħáĪİ": 2725,
      "áīłáĪ°áī¥": 2726,
      "ĠáĭŃáĪĿ": 2727,
      "ĠáĭŃáĮĪáĪŃ": 2728,
      "ĠáĭŃáīĥ": 2729,
      "ĠáĭŃáĭĽ": 2730,
      "ĠáĭŃáĮİ": 2731,
      "ĠáĭŃáĭ°áĮį": 2732,
      "ĠáĭŃáĭ°áĮĪ": 2733,
      "ĠáĭŃáĪĽáĪŃ": 2734,
      "ĠáĭŃáĮĭáī¥": 2735,
      "ĠáĭŃáĪĿáĬ¨áĪ¨áĭį": 2736,
      "ĠáĭŃáĭŃáĭĽáĪį": 2737,
      "ĠáĮ¢": 2738,
      "áī¥áī¥": 2739,
      "áī¥áĪ³áĪį": 2740,
      "áĭ°áĪµ": 2741,
      "áĭ°áĬĿ": 2742,
      "áĭ°áĭĭáĪį": 2743,
      "áĭ°áĮĥ": 2744,
      "áĭ°áĬĲáĮį": 2745,
      "áĭ°áĭ°áĭį": 2746,
      "áĪĺáĪŃ": 2747,
      "Ġáĭ«áĭŃ": 2748,
      "Ġáĭ«áĮį": 2749,
      "Ġáĭ«áīĥ": 2750,
      "Ġáĭ«áĪ»": 2751,
      "Ġáĭ«áĬķáĭµ": 2752,
      "Ġáĭ«áī£áīµ": 2753,
      "Ġáĭ«áĪĺáĪį": 2754,
      "Ġáĭ«áįĪáĪŃ": 2755,
      "Ġáĭ«áĭĪáĪŃ": 2756,
      "Ġáĭ«áĮįáī£": 2757,
      "Ġáĭ«áĮİáĪŃ": 2758,
      "ĠáīłáĮī": 2759,
      "Ġáīłáīģ": 2760,
      "Ġáīłáī¥áĪŃ": 2761,
      "Ġáīłáĭ³áĬĽ": 2762,
      "Ġáīłáĭ°áĪį": 2763,
      "ĠáīłáĪĺáĬķ": 2764,
      "ĠáīłáĪĿáĪ³": 2765,
      "Ġáīłáĭ¨áĭĪ": 2766,
      "ĠáīłáĭĺáĬĲ": 2767,
      "ĠáīłáĬłáĬķáĮ¨áīµ": 2768,
      "ĠáīłáĪµáĪĿ": 2769,
      "ĠáīłáĮīáĪįáīłáī±": 2770,
      "áĬĵáĮ£": 2771,
      "áĬĵáĪ½": 2772,
      "áĬĵáī°áĬĽ": 2773,
      "áĬĵáī¸áĭį": 2774,
      "áĬĵáĮĪáĪ¨": 2775,
      "áī°áĪ¨": 2776,
      "áīĢáĮĪ": 2777,
      "áīĢáįĪ": 2778,
      "áīĢáĮ«": 2779,
      "áī£áī¥": 2780,
      "áī£áĮ£": 2781,
      "áī£áīĤ": 2782,
      "áĪ¨áīģ": 2783,
      "áĪ¨áĮĥ": 2784,
      "áĪ¨áĭ³áĪį": 2785,
      "áĪ¨áĭ°áĭį": 2786,
      "áĪ¨áĭĪáĪ¨": 2787,
      "áĪ«áĭ´": 2788,
      "Ġáĭ¨áĬł": 2789,
      "Ġáĭ¨áĮĪ": 2790,
      "Ġáĭ¨áĮ¥": 2791,
      "Ġáĭ¨áĮĭ": 2792,
      "Ġáĭ¨áĬ¨": 2793,
      "Ġáĭ¨áĮħáī¥": 2794,
      "Ġáĭ¨áĭįáĪĢ": 2795,
      "Ġáĭ¨áĬĵáīµ": 2796,
      "Ġáĭ¨áĪĪáĪħ": 2797,
      "Ġáĭ¨áĬĭáĪĭ": 2798,
      "Ġáĭ¨áī³áĮł": 2799,
      "áī³áĮ¥": 2800,
      "áī³áĪ»áĪį": 2801,
      "áī³áĭĬ": 2802,
      "áĬĲáĬ®": 2803,
      "áĬĲáĮįáĪŃ": 2804,
      "áĬĲáī¢": 2805,
      "áĬĲáĭįáĪĿ": 2806,
      "áĬĲáīĢáĪµ": 2807,
      "áĬĲáįĭáĪµ": 2808,
      "áĪħáī³áĭĬ": 2809,
      "áĭ³áīµ": 2810,
      "áĭ³áĪī": 2811,
      "áĪĽáĪµ": 2812,
      "áĪĽáĪ¨": 2813,
      "áĮįáĬķ": 2814,
      "áĮįáĪ«": 2815,
      "áĮįáĭ°áĪŃ": 2816,
      "áĮįáĪĺáĪį": 2817,
      "áĮįáĪĽáĪį": 2818,
      "áĭĪáĮ¥": 2819,
      "áĭĪáĪ©": 2820,
      "áĭĪáĪŃáīħ": 2821,
      "áĭĪáīĢáĭį": 2822,
      "áīħáĬĵ": 2823,
      "áīħáĭĿ": 2824,
      "áįĪáīĢ": 2825,
      "áįĪáĮ¥": 2826,
      "ĠáĬłáĭŃáĪĪ": 2827,
      "ĠáĬłáĭŃáĭĺ": 2828,
      "ĠáĬłáĭŃáĮ¨": 2829,
      "ĠáĬłáĭŃáĪ¸": 2830,
      "ĠáĬłáĭŃáī°áĭį": 2831,
      "ĠáĬłáĭŃáī°áĪŃ": 2832,
      "ĠáĬłáĭŃáĪĪáĪĽ": 2833,
      "ĠáĬłáĭŃáĭĪáĪŃ": 2834,
      "ĠáĬłáĭŃáĬ¨áĪ°": 2835,
      "ĠáĬłáĭŃáĪ¨áī³": 2836,
      "ĠáĬłáĭŃáĮ¨áĭĪ": 2837,
      "ĠáĬłáĭŃáĪ¨áī£": 2838,
      "ĠáĬłáĭŃáĬĹ": 2839,
      "ĠáĬłáĭŃáīħáĪĻ": 2840,
      "ĠáĬłáĭŃáĪĿáī³": 2841,
      "áįįáĪį": 2842,
      "áįįáĬķ": 2843,
      "áįįáīµ": 2844,
      "áįįáĪĿ": 2845,
      "áįįáĮ¥áĪĿ": 2846,
      "áĮłáĪĭ": 2847,
      "áĮłáĪ«": 2848,
      "áĮłáĪ½": 2849,
      "áĮ£áĮ¥": 2850,
      "áĮ£áĮł": 2851,
      "ĠáĪĪáĮĭ": 2852,
      "ĠáĪĪáĪŀ": 2853,
      "ĠáĪĪáĬĲáĮĪáĪŃ": 2854,
      "ĠáĪĪáĬłáī£áī¥": 2855,
      "ĠáĪĪáĪ«áĪµ": 2856,
      "ĠáĪĪáĮĪáĮīáĪµ": 2857,
      "ĠáĪĪáĬłáĮįáĭľáĪŃ": 2858,
      "ĠáĪĪáĮīáĪĿ": 2859,
      "ĠáĪĺáīµ": 2860,
      "ĠáĪĺáĬĵ": 2861,
      "ĠáĪĺáĭĺ": 2862,
      "ĠáĪĺáĬ¨": 2863,
      "ĠáĪĺáī¶": 2864,
      "ĠáĪĺáī°áĭį": 2865,
      "ĠáĪĺáīłáĪĪáīµ": 2866,
      "áĪ°áĪħ": 2867,
      "áĪ°áĮ¥": 2868,
      "áĪ°áĬĽ": 2869,
      "áĪ°áĭ°áĭį": 2870,
      "áĪ³áĪŃ": 2871,
      "áĪ³áĪĪ": 2872,
      "áĪ³áĪī": 2873,
      "ĠáĬ¨áĭ°": 2874,
      "ĠáĬ¨áīĢ": 2875,
      "ĠáĬ¨áĭĪáĭ°": 2876,
      "ĠáĬ¨áĪĭáĭŃ": 2877,
      "ĠáĬ¨áĭĺáĪĺáĭµ": 2878,
      "ĠáĬ¨áĬłáĮħ": 2879,
      "ĠáĬ¨áīłáĪ®": 2880,
      "ĠáĬ¨áĮ¥áĪŃáĪµ": 2881,
      "áĭ¨áīħ": 2882,
      "áĭ¨áīłáĪĭ": 2883,
      "áĭ¨áĭĪáĭ°": 2884,
      "áĭ¨áįĪáĪª": 2885,
      "áĮħáī¶": 2886,
      "áī½áĪīáīµ": 2887,
      "ĠáĬĲáĬĿ": 2888,
      "ĠáĬĲáĮĪáĪ©": 2889,
      "ĠáĬĲáīłáĪ¨": 2890,
      "ĠáĬĲáĬ¨áĪ°": 2891,
      "áĪ½áĪ«": 2892,
      "áĪ½áĪĽ": 2893,
      "áĪĢáĭĺáĬķ": 2894,
      "ĠáĪ²áĪĺáĪĪ": 2895,
      "ĠáĪ²áĪĺáĮ£": 2896,
      "ĠáĪ²áĪ³áĭŃ": 2897,
      "ĠáĪ²áĭ°áĪŃáĪµ": 2898,
      "Ġáī¢áĮ¥": 2899,
      "Ġáī¢áĪī": 2900,
      "Ġáī¢áĪĪáĬĿ": 2901,
      "Ġáī¢áĭĺáĮĪ": 2902,
      "Ġáī¢áĬĲáĮįáĭµ": 2903,
      "Ġáī°áĬĽ": 2904,
      "Ġáī°áĭĿáĬ«áĪŃ": 2905,
      "áĮĭáĮħ": 2906,
      "ĠáĬłáĮĪáĮĪ": 2907,
      "ĠáĬłáĮĪáī¢": 2908,
      "ĠáĬłáĮĪáīłáĪ³": 2909,
      "áĭĺáĬĵ": 2910,
      "áĭĺáĪ«": 2911,
      "áĭĺáĪ®": 2912,
      "áĭĺáī¡": 2913,
      "áĭĺáĪįáīħ": 2914,
      "áĭĺáĪĭáĪĪáĪĿ": 2915,
      "áĪ®áĭį": 2916,
      "áĭĭáī¸áĭį": 2917,
      "áĬ¨áĬłáĪħáĭ«": 2918,
      "ĠáĪįáĮ¥": 2919,
      "ĠáĪįáĬŃ": 2920,
      "ĠáĪįáĮĥ": 2921,
      "ĠáĪįáĪĺáĬĵ": 2922,
      "ĠáĪįáī¡áĬķ": 2923,
      "áĭ¨áĪĻáīµ": 2924,
      "ĠáĬłáĬķáī£": 2925,
      "ĠáĬłáĬķáīµáĬķ": 2926,
      "ĠáĬłáĬķáĬ³áĬķ": 2927,
      "ĠáĬłáĬķáĮĪáīµ": 2928,
      "Ġáī£áĭ«": 2929,
      "Ġáī£áĭ³": 2930,
      "Ġáī£áĭĿ": 2931,
      "Ġáī£áĮĪáĭ±": 2932,
      "Ġáī¥áĪĪáĪĿ": 2933,
      "Ġáī¥áĪŃáīħ": 2934,
      "Ġáī¥áĪ¨áīµ": 2935,
      "áĬŃáĪĿ": 2936,
      "áĬŃáĪµ": 2937,
      "áĬŃáĪĪáĭį": 2938,
      "áĬŃáįī": 2939,
      "áĬŃáĪ¨áĭį": 2940,
      "ĠáĪĿáĮ¥": 2941,
      "ĠáĪĿáĮĪáĭµ": 2942,
      "ĠáĪĿáĪĭáĮŃ": 2943,
      "ĠáĪĿáĬ¨áĪ¨áĭį": 2944,
      "ĠáĪĿáĭµáĪ©": 2945,
      "áīĥáĪĭ": 2946,
      "áīĥáĪĪáī½": 2947,
      "áĭĿáĬķáī¥": 2948,
      "áĭĿáīłáĭį": 2949,
      "ĠáĮĪáĬĵ": 2950,
      "ĠáĪ°áī£": 2951,
      "ĠáĪ°áįĬ": 2952,
      "ĠáĪ°áĪĭáĪĿ": 2953,
      "áĭ±áī£": 2954,
      "ĠáīĢáĪŃ": 2955,
      "ĠáīĢáĮĭ": 2956,
      "ĠáīĢáĪİ": 2957,
      "ĠáīĢáĪĭáĪį": 2958,
      "ĠáīĢáĬķáĭµ": 2959,
      "ĠáīĢáīłáĬĽ": 2960,
      "ĠáĪĽáĪµ": 2961,
      "ĠáĪĽáīħ": 2962,
      "ĠáĪĽáĮĢáīµ": 2963,
      "áĪŀáī°": 2964,
      "ĠáĬłáĪĪáĬĵ": 2965,
      "áĪĨáĬĲ": 2966,
      "áĪĨáĬĵáĪĪáī½": 2967,
      "áīģáĪ«": 2968,
      "áīģáĮ¥áīĭáĮ¦": 2969,
      "áĮ¨áĪĿ": 2970,
      "áĮ¨áĪŃáĪµ": 2971,
      "ĠáĬ«áĪĪ": 2972,
      "ĠáĬ«áĪ«": 2973,
      "ĠáĬ«áĪ³": 2974,
      "ĠáĬ«áĪīáīµ": 2975,
      "ĠáĬ«áĪħáĬķ": 2976,
      "áīłáīµáĬķ": 2977,
      "ĠáĬłáĭ«áĪµáĮ¥": 2978,
      "ĠáīµáĪŀ": 2979,
      "ĠáīµáĬłáĮį": 2980,
      "ĠáīµáĪįáīħ": 2981,
      "ĠáīµáĪĨáĬĵáĪĪáī½": 2982,
      "áĮŃáĪį": 2983,
      "áĮŃáĭį": 2984,
      "áī¤áĬķ": 2985,
      "áī¤áī´": 2986,
      "ĠáĪµáī°": 2987,
      "ĠáĪµáĪĽ": 2988,
      "ĠáĪµáĪħáī°áīµ": 2989,
      "áĭĽáĭĽ": 2990,
      "áĭĽáĪĪáī½": 2991,
      "áī¶áįĭ": 2992,
      "ĠáĪ³áĪļ": 2993,
      "ĠáĮ¥áĪ©": 2994,
      "ĠáĮ¥áįī": 2995,
      "ĠáĮ¥áīĥáīµ": 2996,
      "áĬ©áĪī": 2997,
      "áĬ©áīłáīµ": 2998,
      "ĠáĪĭáĪĺ": 2999,
      "ĠáĪĭáĮĪáĭ±": 3000,
      "ĠáĪĭáĪĽáī±": 3001,
      "áĮ¡áĬĿ": 3002,
      "áĮ¡áīłáīµ": 3003,
      "ĠáĮłáĮłáĪŃ": 3004,
      "ĠáĮłáĭĭáīµ": 3005,
      "áĮİáĪ¨áĪ°": 3006,
      "áĮİáĭµáĪį": 3007,
      "Ġáĭ°áĬķ": 3008,
      "Ġáĭ°áĪ¨": 3009,
      "Ġáĭ°áĮĥ": 3010,
      "Ġáĭ°áĪ¨áĪ°": 3011,
      "Ġáĭ°áĪµáī³": 3012,
      "ĠáĭĺáĮį": 3013,
      "Ġáĭĺáĭ´": 3014,
      "Ġáĭ«áĪĪáĭ³áĬĽ": 3015,
      "ĠáįĪáī³": 3016,
      "ĠáįĪáĪª": 3017,
      "ĠáįĪáĮĢáĭį": 3018,
      "ĠáįĪáĪŃáī¼": 3019,
      "ĠáīħáĪŃ": 3020,
      "Ġáīħáĭ³": 3021,
      "ĠáīħáĬķáĭµ": 3022,
      "ĠáīħáĭĺáĬķ": 3023,
      "áĭ«áĪįáī°áĪĽáĪ¨": 3024,
      "Ġáī³áĮł": 3025,
      "Ġáī³áī¦": 3026,
      "Ġáī³áĪĭáīħ": 3027,
      "Ġáī³áĪĽáĪµ": 3028,
      "ĠáĪŀáĪį": 3029,
      "Ġáī¤áī°": 3030,
      "ĠáĮİáĪ¨": 3031,
      "áĬłáĭŃáĬĲ": 3032,
      "áĬłáĭŃáīłáĪĭ": 3033,
      "ĠáĮįáĪ«": 3034,
      "ĠáĮįáĪįáĮį": 3035,
      "Ġáĭ¨áĪļáīłáĪĭ": 3036,
      "Ġáĭ¨áĪļáĪŀáīµ": 3037,
      "áī¸áīµ": 3038,
      "ĠáĬłáīµáīłáĪĭ": 3039,
      "áī¦áī¥áĪ½": 3040,
      "Ġáĭ¨áī°áĬĽ": 3041,
      "Ġáĭ¨áī°áĬĲáĪ³": 3042,
      "áĬ®áī°": 3043,
      "Ġáĭ³áĪ»": 3044,
      "áĪŃáĪµáīµ": 3045,
      "ĠáįįáĪŃ": 3046,
      "ĠáĬłáĪµáī°áĪĽ": 3047,
      "Ġáĭ«áĪµáī¸áĮįáĪ«áĪį": 3048,
      "Ġáĭ«áĪįáī°": 3049,
      "Ġáĭ«áĪįáīłáĭĭáĪį": 3050,
      "Ġáī¢áĭ«áĪµ": 3051,
      "áī»áĭįáĬķ": 3052,
      "áĭµáĪĢáĬĵ": 3053,
      "áĭ¨áĪļáĭĪ": 3054,
      "áĭ¨áĪļáĭ³áīĭ": 3055,
      "ĠáĪ³áĭŃáī°áĬĽ": 3056,
      "ĠáĪ³áĭŃáĬĸáĪŃ": 3057,
      "áĮ¸áĮĭ": 3058,
      "ĠáĬłáĪįáįĪ": 3059,
      "áĬłáĪħáĭ«áĭįáĬķ": 3060,
      "ĠáĪ²áĭ«áĪŃ": 3061,
      "ĠáĪ²áĭ«áĪĽ": 3062,
      "ĠáĪ²áĭ«áĮ¡": 3063,
      "ĠáĪ²áĭ«áĪ¨áĮħ": 3064,
      "ĠáĪ²áĭ«áĪĺáĪįáĮ¥": 3065,
      "áĬłáĪĪáĭĭ": 3066,
      "áĬłáĪĪáĭ³áĬĽ": 3067,
      "áīłáĪŃáĪĿ": 3068,
      "áĪŁáīµ": 3069,
      "áĮĵáĮĵáī±áĬķ": 3070,
      "ĠáĭĿáĪĿ": 3071,
      "ĠáĬłáĪŃáĮ¥áī¥": 3072,
      "ĠáĬłáĪŃáĮīáĭĿ": 3073,
      "ĠáĮĭáĪĽ": 3074,
      "áī·áĪį": 3075,
      "áĭ«áĭįáīĢáĭį": 3076,
      "ĠáĬ«áĪįáĮ«": 3077,
      "ĠáĭŃáĭĪáĭµáīĥáĪį": 3078,
      "Ġáĭ¨áĪ°áĮł": 3079,
      "Ġáĭ¨áĪ°áĮłáĭį": 3080,
      "Ġáī£áĭŃáĬĲáĮįáĭµ": 3081,
      "ĠáĭŃáĮĪáįĭáĪį": 3082,
      "áīĢáĪŃáī¥": 3083,
      "ĠáĮŃáĭµ": 3084,
      "ĠáĮŃáīĥ": 3085,
      "ĠáĭŃáīĢáĭ³áĪį": 3086,
      "ĠáĬłáĭįáīĢáīµ": 3087,
      "ĠáĭŃáīłáĪ¨": 3088,
      "ĠáĭŃáīłáĪįáĮ£áĪį": 3089,
      "ĠáīłáĬłáĮįáĪ©": 3090,
      "áĪ¹áĬķ": 3091,
      "ĠáĭŃáĮłáĪĭáĪį": 3092,
      "ĠáĭŃáĮłáĪ«áĪį": 3093,
      "ĠáĮħáī¦": 3094,
      "ĠáĪĪáĪĺáĪĭ": 3095,
      "Ġáī£áĪįáĬķáĮĢáĪ«": 3096,
      "áĬĺáĪģ": 3097,
      "ĠáīłáĪ¬áĪħáĬķ": 3098,
      "ĠáĮ£áĪıáīµ": 3099,
      "áĭ°áĪ¨áīħ": 3100,
      "áīħáĪŃáīµ": 3101,
      "ĠáĪĺáĪįáĪµ": 3102,
      "ĠáĪĺáĪįáĬŃ": 3103,
      "áīĨáĪŃ": 3104,
      "áĮĪáĪ©áīµ": 3105,
      "áĪĿáĪŃáĪĿ": 3106,
      "áĬłáįįáĬĵ": 3107,
      "ĠáĬłáĪĿáī¢": 3108,
      "Ġáī£áĪĪáĬłáĭ³": 3109,
      "Ġáī£áĪĪáĪŁáĪį": 3110,
      "Ġáī£áĪĪáĮ¸áĮĭ": 3111,
      "ĠáĪļáĭ¶": 3112,
      "Ġáĭ«áĭįáĪ«": 3113,
      "Ġáĭ«áĭįáīĢáĭĭáĪį": 3114,
      "ĠáĭĭáĮĭ": 3115,
      "áĭ¨áĪĽáĭŃáīĢáĬĵ": 3116,
      "áĭ¨áĪĽáĭŃáĭĺáĪįáīħ": 3117,
      "ĠáīłáĪĺáĮ¨áĬĽ": 3118,
      "ĠáĬłáĪ«áī½": 3119,
      "ĠáĬłáĪ³áī±": 3120,
      "ĠáĭŃáĪ°áĪ«áĪį": 3121,
      "ĠáĭŃáĪ°áįĭáĪį": 3122,
      "ĠáīłáĭĪáĪ¬": 3123,
      "ĠáĭŃáĪĺáĪµáĪĪáĭĭáĪį": 3124,
      "áĬłáĮįáĪ¨": 3125,
      "ĠáĪĻáĭ«": 3126,
      "ĠáĪĻáĪī": 3127,
      "ĠáĪĻáīĢáĮ«": 3128,
      "áĪ¨áĪ°áĭį": 3129,
      "áĮĪáīłáĪ¬": 3130,
      "Ġáĭ¨áĪĽáĭ«áĪµ": 3131,
      "ĠáĮ¨áĭį": 3132,
      "áĬłáĭµáĪį": 3133,
      "ĠáĬłáĭŃáī³áĪ¨áĪµ": 3134,
      "ĠáĬłáĭŃáī³áįĪáĪµ": 3135,
      "ĠáĬłáī£áī¥": 3136,
      "ĠáĬłáĮįáī£": 3137,
      "ĠáĬłáĮįáĪ©": 3138,
      "áĬķáĮĪáīµ": 3139,
      "áĪĪáĭ°áĪ½": 3140,
      "ĠáĭŃáĭŀáĪ«áĪį": 3141,
      "áīĢáĪµáīĢáĪµ": 3142,
      "Ġáī¥áĪĭáĬĿ": 3143,
      "áĮĬáĭ«": 3144,
      "ĠáĬłáī¥áĪµ": 3145,
      "ĠáĬłáī¥áĪ®": 3146,
      "ĠáĭŃáĬĲáĮŃ": 3147,
      "ĠáĭŃáĬĲáĬŃáĪ³áĪį": 3148,
      "áĬłáĪĭáī£áīµ": 3149,
      "áĭĺáĬķáĮĭáĭ³": 3150,
      "áĭĺáĪĺáĭµáĬķ": 3151,
      "áĬłáĮħáĬĵ": 3152,
      "ĠáĪĪáĭĪáĪĪáĭ°áĪ½": 3153,
      "áĬ¨áĪŃáĪĺáĭįáĪĿ": 3154,
      "Ġáī¥áĪįáĪħ": 3155,
      "Ġáī¥áĪįáĮ¥": 3156,
      "áĭļáīµ": 3157,
      "áĭļáĭ«": 3158,
      "ĠáĪĦáĭ³": 3159,
      "ĠáĬ¨áĭĪáĮ¡": 3160,
      "áĬ¨áĪ¨áĪĿ": 3161,
      "áĮĪáĭ°áĪĪ": 3162,
      "ĠáĭŃáįĪáĪ³áĪį": 3163,
      "ĠáĭŃáįĪáī³áĪ»áĪį": 3164,
      "Ġáĭ¨áįĪáĪ¨áĭ°": 3165,
      "áĭĿáĪĿáĭĿáĪĿ": 3166,
      "ĠáīĨáĪİ": 3167,
      "Ġáĭ±áīĦáīµ": 3168,
      "áĮ©áīµ": 3169,
      "Ġáĭ«áĪĭáĭĪáīĢ": 3170,
      "ĠáĪ²áīĢáĬĵáĮ£": 3171,
      "áĭ°áī¥áī°áĪ«": 3172,
      "ĠáĮĪáī¥áī³": 3173,
      "ĠáĮĪáī¥áī¶": 3174,
      "ĠáĪ¨áĮį": 3175,
      "Ġáĭ«áĭµáĬĵáĪį": 3176,
      "Ġáī¥áīµáĪį": 3177,
      "ĠáīłáīĢáĭ³áĭ³": 3178,
      "ĠáĬłáĮ¥áįĬ": 3179,
      "áĭ«áĪĿáĪ«áĪį": 3180,
      "ĠáĬ¨áĮĪáįĪáĪŃ": 3181,
      "ĠáĪĿáĪŃáĮ¨": 3182,
      "ĠáĬłáĬĶáĭį": 3183,
      "Ġáĭ«áĭ°áĪŃáīħ": 3184,
      "Ġáĭ«áĭ°áĪŃáĮĭáĪį": 3185,
      "ĠáĬłáĭŃáĬ¨áī¥": 3186,
      "ĠáĬłáĭŃáĬ¨áįį": 3187,
      "ĠáĬłáĭŃáĬ¨áĭµáĬķ": 3188,
      "áĪ¨áĪ³áĪį": 3189,
      "áĪ¨áĪ³áĪĿ": 3190,
      "ĠáĪĿáĪµáĬŃáĪŃ": 3191,
      "áĪ¹áĪĿáĬĵ": 3192,
      "áĬłáī¥áĭµáĬĵ": 3193,
      "áĭ·áĪį": 3194,
      "áīłáĮłáī½": 3195,
      "ĠáĭŃáĪ¸áī³áĪį": 3196,
      "ĠáĮĢáĪŃáī£": 3197,
      "Ġáĭ«áĪĺáĮ£áĪį": 3198,
      "áĮłáĪ¨áī½": 3199,
      "ĠáĪ²áĭĪáĪµ": 3200,
      "Ġáī°áĬĲáĬ¨áĪµ": 3201,
      "Ġáī°áĪŁáĮĭáī½": 3202,
      "Ġáĭ°áĮįáĪŀ": 3203,
      "áĭ¨áĪĽáĭ«áĭµáĮį": 3204,
      "ĠáĭŃáĮ£áĪĭáĪį": 3205,
      "ĠáīłáĮĪáĪµáĪĢ": 3206,
      "áīĢáĪĽáĮŃ": 3207,
      "ĠáĪĿáĪ³áĭį": 3208,
      "ĠáīĢáĪĽáĮ£": 3209,
      "ĠáĪµáĪŃáīĢáīµ": 3210,
      "áĮ§áīµ": 3211,
      "ĠáĪħáĪĺáĪĿ": 3212,
      "ĠáĭŃáīłáĪĭáĭĭáĪį": 3213,
      "áĭŃáĪīáĪ½áĬķ": 3214,
      "Ġáĭ«áĪĿáĪ«áĪį": 3215,
      "Ġáĭ«áĪ¨áĮĥáĪį": 3216,
      "ĠáīłáĮİáĪĺáĬķ": 3217,
      "áĮĢáĪĺáĪªáĭ«": 3218,
      "Ġáĭ¨áĪ°áĪĽáĭįáĬķ": 3219,
      "áĬĹáīµ": 3220,
      "áĭ«áĭŃáĮ¥": 3221,
      "ĠáīłáĮ¥áīħáĪĿáīµ": 3222,
      "áīĢáĪįáĭ°áĬĽ": 3223,
      "áĪ¨áĭ³áĭ³": 3224,
      "Ġáī¢áĪ°áīłáĪ°áī¥": 3225,
      "áĬ¨áįįáĪį": 3226,
      "ĠáĮĪáĮĪáĪ¨áĭį": 3227,
      "ĠáĮĪáĮĪáįİ": 3228,
      "ĠáĬ¨áĪļáĭ«": 3229,
      "ĠáīłáĪ½áī°áĬĽáĭį": 3230,
      "ĠáĪµáĪįáī»áĭįáĬķ": 3231,
      "ĠáĭĻáĪ®": 3232,
      "áĪµáĪĽáĪĻ": 3233,
      "Ġáĭ«áĭĿáĪĪáī³áĪį": 3234,
      "ĠáĬ¨áĭĺáįĪ": 3235,
      "ĠáīµáĪĿáĭ«áĪĪáĪ½": 3236,
      "áĮ»áĭµáīĥ": 3237,
      "ĠáĬłáī°áĪĭ": 3238,
      "áĮħáĪ«áįį": 3239,
      "ĠáĬĲáĮĪáĪ¬": 3240,
      "Ġáī°áĬķáĮłáĪį": 3241,
      "ĠáĬłáĭ«áĪ³áĭ©": 3242,
      "ĠáĭĺáĬķáī¦áī¥áĪ½": 3243,
      "áĮ¸áĮ¸áī±": 3244,
      "Ġáĭ«áĮ£áĪĭáĬĵáĪį": 3245,
      "ĠáīłáĪ°áĪĽáĪ½": 3246,
      "Ġáĭ¨áĪĪáĬĿáĪĿ": 3247,
      "Ġáĭ¨áĭ«áĭĺáĭįáĬķ": 3248,
      "ĠáĪĪáĪ°áĪªáĭį": 3249,
      "Ġáī£áĬķáĭ±": 3250,
      "ĠáĭįáĪµáĮ¡": 3251,
      "ĠáĮłáīłáīĥ": 3252,
      "ĠáĭĺáĮĪáĭ¶": 3253,
      "Ġáĭ«áĪµáįĪáĮŃ": 3254,
      "ĠáĬłáī³áĭįáĪ°áĭį": 3255,
      "Ġáĭ¨áĮ¨áĭĭ": 3256,
      "ĠáĪĺáĬ«áĪª": 3257,
      "áĭ¨áī°áĬĵáīĢ": 3258,
      "Ġáī°áĮĭáĭ³áĭŃ": 3259,
      "ĠáĭĪáĪ¨áĭ±": 3260,
      "ĠáĮłáī£áĪ³": 3261,
      "ĠáįĪáĪĭáĮĬ": 3262,
      "ĠáĮįáĭµáĮįáĭ³": 3263,
      "áĬłáĭµáĪľáĬĵ": 3264,
      "ĠáĭĲáĭŃ": 3265,
      "áĪĪáĪŀáī³": 3266,
      "ĠáĮĬáĭ°áĪŃ": 3267,
      "áĭ°áįĭáĪŃáĬĵ": 3268,
      "áĪĺáĬŃáī°áĭį": 3269,
      "áī°áĬ«áĬ¨áĪį": 3270,
      "Ġáĭ¨áĭĺáĮĪáĬĲ": 3271,
      "áĬ¨áĬĵáĬĲ": 3272,
      "ĠáįĪáĪ³áĪ½": 3273,
      "ĠáĪ³áĭŃáĭĺáĮĭ": 3274,
      "áī°áĬķáĬ®áĪĪáĬĽ": 3275,
      "ĠáĪ¬áĪ³": 3276,
      "ĠáĪ¶áĪµáīµ": 3277,
      "ĠáĬłáīģáĪĽáĭ³": 3278,
      "ĠáĬłáĮĬáĮ¥": 3279,
      "áīłáĪ½áī³áĭįáĬķ": 3280,
      "ĠáĭŃáĭ°áĪŃáĪ³áĪį": 3281,
      "ĠáĮ¡áīµ": 3282,
      "ĠáĬłáĭŃáĪĺáĪįáĪ°áĭįáĪĿ": 3283,
      "ĠáĪĪáĮĮáī³": 3284,
      "Ġáī°áĪĭáĮŃáī³": 3285,
      "ĠáīµáĭĪáĮ£áĪĪáī½": 3286,
      "áĬ©áĪ«áįĬ": 3287,
      "ĠáĬłáīµáĪµáĮłáĭį": 3288,
      "Ġáĭ³áĭĬáīµ": 3289,
      "ĠáĬ®áĪŃáī»áĭįáĬķ": 3290,
      "ĠáĬłáĭŃáĪĺáĪµáĪĪáĭįáĪĿ": 3291,
      "ĠáĪĿáĪįáĬŃáī±": 3292,
      "ĠáĬķáĮĪáĪ¨áĭį": 3293,
      "áĬłáĪŀáĪ«": 3294,
      "áĭ«áĮĪáī£áĪ½": 3295,
      "ĠáĭŃáĭ°áĮįáįī": 3296,
      "ĠáĭŃáĮĭáī¥áĭĽáĪį": 3297,
      "áĭ°áĬĲáĮįáĮ¥": 3298,
      "Ġáĭ«áįĪáĪŃáĪ³áĪį": 3299,
      "Ġáĭ«áĭĪáĪŃáĪ³áĪį": 3300,
      "ĠáīłáĪĿáĪ³áĪĮ": 3301,
      "ĠáīłáĭĺáĬĲáĭĺáĬĵ": 3302,
      "ĠáĬłáĭŃáī°áĭįáĪĿ": 3303,
      "ĠáĬłáĭŃáĬ¨áĪ°áĪµ": 3304,
      "ĠáĬłáĭŃáĮ¨áĭĪáīµáĪĿ": 3305,
      "ĠáĬłáĭŃáĪĿáī³áĪħ": 3306,
      "Ġáī¢áĭĺáĮĪáĭŃ": 3307,
      "ĠáĪįáĮĥáĮĪáĪ¨áĭµ": 3308,
      "Ġáī¥áĪĪáĪĿáĬĲáĭį": 3309,
      "ĠáĮįáĪįáĮįáĪį": 3310,
      "ĠáĬ«áĪįáĮ«áĪ¨": 3311,
      "Ġáĭ¨áĪĽáĭ«áĪµáī¥": 3312,
      "áĮ»áĭµáīĥáĬķ": 3313,
      "®áĮ¡": 3314,
      "¹áĪĿ": 3315,
      "¾áĪĽ": 3316,
      "Ġáįī": 3317,
      "İáĪļ": 3318,
      "áĭĮ": 3319,
      "áĭĵ": 3320,
      "áī´áīµ": 3321,
      "áĬ¡": 3322,
      "áĬĢ": 3323,
      "áĬłáĪ«": 3324,
      "áĬłáīħ": 3325,
      "áĬłáĪ°": 3326,
      "áĬłáĬŃ": 3327,
      "áĬłáĭĿ": 3328,
      "áĬłáĪª": 3329,
      "áĬłáĭĽ": 3330,
      "áĬłáĬ«": 3331,
      "áĬłáĪĪáīµ": 3332,
      "áĬłáī¡": 3333,
      "áĬłáĪŃáĪµ": 3334,
      "áĬłáī¥áĪŃ": 3335,
      "áĬłáī¤áīµ": 3336,
      "áĬłáĪĽáīµ": 3337,
      "áĬłáĮ¤": 3338,
      "áĬłáĭ¨áįĪ": 3339,
      "áĬłáĬ«áĪį": 3340,
      "áĬłáĪ«áĪµ": 3341,
      "áĬłáĬ¨áĬŃ": 3342,
      "áĬłáĪĽáī½": 3343,
      "áĬłáĮŃáĪŃ": 3344,
      "áĬłáĮĪáīłáĪ³": 3345,
      "áĬłáĪģáĬķ": 3346,
      "Ġáĭ¥": 3347,
      "ĠáĪŁ": 3348,
      "ĠáĪİáĪļ": 3349,
      "ĠáĬłáĬ¨": 3350,
      "ĠáĬłáīłáĪĭ": 3351,
      "ĠáĬłáĮĥ": 3352,
      "ĠáĬłáįİ": 3353,
      "ĠáĬłáĪıáīµ": 3354,
      "ĠáĬłáĪĺáĮ£": 3355,
      "ĠáĬłáįĮ": 3356,
      "ĠáĬłáĭ°áĮį": 3357,
      "ĠáĬłáĭ°áĮĪ": 3358,
      "ĠáĬłáĪ¨áĭµ": 3359,
      "ĠáĬłáīłáĪĭáĭį": 3360,
      "ĠáĬłáĮīáĪŃ": 3361,
      "ĠáĬłáĮĤáĬķ": 3362,
      "ĠáĬłáĮĵáī±áĬķ": 3363,
      "ĠáĬłáįĮáĬķ": 3364,
      "áĪįáĬĵ": 3365,
      "áĪįáī³": 3366,
      "áĪįáĪ½": 3367,
      "áĪįáī¥áĪµ": 3368,
      "áĪįáĪŁáĪį": 3369,
      "áĬķáī³": 3370,
      "áĬķáĮ¥": 3371,
      "áĬķáĮ£": 3372,
      "áĬķáĭ±": 3373,
      "áĬķáĮİ": 3374,
      "áĬķáĮ«": 3375,
      "áĪŃáĪ³": 3376,
      "áĪŃáīģ": 3377,
      "áĪŃáĪ±": 3378,
      "áĪŃáĬ«": 3379,
      "áĪŃáīĦ": 3380,
      "áĪŃáĮĪáĪĿ": 3381,
      "áĮĪáĭį": 3382,
      "áĮĪáĮį": 3383,
      "áĮĪáīħ": 3384,
      "áĮĪáĮł": 3385,
      "áĮĪáĪ³": 3386,
      "áĮĪáĪī": 3387,
      "áĮĪáĮĭ": 3388,
      "áĮĪáīłáīµ": 3389,
      "áĮĪáĭĽ": 3390,
      "áĮĪáī£áīµ": 3391,
      "áĮĪáįİ": 3392,
      "áĮĪáī¡áīµ": 3393,
      "áĮĪáĪªáĭ«áĭį": 3394,
      "áĭįáĪĭ": 3395,
      "áĭįáĪ«": 3396,
      "áĭįáīħ": 3397,
      "áĭįáĮ£": 3398,
      "áĭįáĪĭáĪį": 3399,
      "áĭįáĪµáĮ¥": 3400,
      "áĪĪáĬķ": 3401,
      "áĪĪáī³": 3402,
      "áĪĪáįĪ": 3403,
      "áĪĪáĪī": 3404,
      "áĪĪáįĭ": 3405,
      "áĪĪáīĥ": 3406,
      "áĪĪáĭ±": 3407,
      "áĪĪáĮİ": 3408,
      "áĪĪáĬ®": 3409,
      "áĪĪáĭ³áĬĽ": 3410,
      "áĪĪáīĢáĬķ": 3411,
      "áĪĪáī°áĪ«": 3412,
      "áĪĪáįįáĭ¨áĪį": 3413,
      "áĪĪáĬłáīł": 3414,
      "áĪĪáįįáīħáĪŃ": 3415,
      "áĪĪáĮįáĪĿ": 3416,
      "áĪĪáĪ¹áĪĺáīµ": 3417,
      "áįķ": 3418,
      "áĪĿáĪĿ": 3419,
      "áĪĿáīħ": 3420,
      "áĪĿáĮ¥": 3421,
      "áĪĿáīłáĪŃ": 3422,
      "áĪĿáĬĵáĪį": 3423,
      "áĪĿáĪĭáĬŃ": 3424,
      "áĭŃáī¥": 3425,
      "áĭŃáīħ": 3426,
      "áĭŃáįį": 3427,
      "áĭŃáĭĻ": 3428,
      "áĭŃáĭŀ": 3429,
      "áĪµáĭį": 3430,
      "áĪµáī¶": 3431,
      "áĪµáī°áĭį": 3432,
      "áĪµáĬŃáĪŃ": 3433,
      "áĪµáįĪáīµ": 3434,
      "áĭ«áĮĪ": 3435,
      "áĭ«áĬĵ": 3436,
      "áĭ«áĪĽ": 3437,
      "áĭ«áĮ£": 3438,
      "áĭ«áĭ°áĪŃ": 3439,
      "áĭ«áīĤ": 3440,
      "áĭ«áĬĸ": 3441,
      "áĭ«áĭ©": 3442,
      "áĭ«áĭĭáīĤ": 3443,
      "áĭ«áīģáīµ": 3444,
      "áĭ«áĪĪáĭįáĬķ": 3445,
      "áĪĭáĪ±": 3446,
      "áĪĭáĭĭáĪį": 3447,
      "áĪĭáī½áĪģ": 3448,
      "áĪĭáĪĬáīłáĪĭ": 3449,
      "áĭµáĮ¥": 3450,
      "áĭµáĪŃáĪµ": 3451,
      "áĭµáĪ¨áĭį": 3452,
      "áĭµáĪ«áĪĪáī½": 3453,
      "áīłáĪĪ": 3454,
      "áīłáī°": 3455,
      "áīłáĮ£": 3456,
      "áīłáĬłáĮħ": 3457,
      "áīłáĬĺáĭį": 3458,
      "ĠáĭŃáī½": 3459,
      "ĠáĭŃáĮĭ": 3460,
      "ĠáĭŃáĭĪáĮ£": 3461,
      "ĠáĭŃáĪ°áĪĽ": 3462,
      "ĠáĭŃáĪ¾": 3463,
      "ĠáĭŃáĪĪáīĢ": 3464,
      "ĠáĭŃáĪ¨áĮį": 3465,
      "ĠáĭŃáĭĺáĪŃ": 3466,
      "ĠáĭŃáĪ¨áī³": 3467,
      "ĠáĭŃáī¥áĪĭ": 3468,
      "ĠáĭŃáĮ¨áĭĪ": 3469,
      "ĠáĭŃáĮĢáĪĺ": 3470,
      "ĠáĮ½": 3471,
      "ĠáĮĥ": 3472,
      "áī¥áĮ¥": 3473,
      "áī¥áī±": 3474,
      "áī¥áĭ³áĪį": 3475,
      "áī¥áĭĽáĪĿ": 3476,
      "áĭ°áĬĵ": 3477,
      "áĭ°áīħ": 3478,
      "áĭ°áī½": 3479,
      "áĭ°áĪĪáĭį": 3480,
      "áĭ°áĪµáī³": 3481,
      "áĭ°áĪħáĬĵ": 3482,
      "áĭ°áīłáĭį": 3483,
      "áĭ°áįĭáĪ½": 3484,
      "áĪĺáĪĭ": 3485,
      "áĪĺáī°": 3486,
      "áĪĺáĪ¨": 3487,
      "áĪĺáĪ°": 3488,
      "áĪĺáī½": 3489,
      "áĪĺáĪĢ": 3490,
      "áĪĺáĬ«": 3491,
      "áĪĺáĬĺ": 3492,
      "Ġáĭ«áīĢ": 3493,
      "Ġáĭ«áįį": 3494,
      "Ġáĭ«áĭĭ": 3495,
      "Ġáĭ«áĬ¨": 3496,
      "Ġáĭ«áīłáĪĭ": 3497,
      "Ġáĭ«áĭ«áĪį": 3498,
      "Ġáĭ«áĬ®": 3499,
      "Ġáĭ«áĮ£áĪį": 3500,
      "Ġáĭ«áĭ°áĪ¨": 3501,
      "Ġáĭ«áĭĽáĪį": 3502,
      "Ġáĭ«áįı": 3503,
      "Ġáĭ«áĭ¨áĪģ": 3504,
      "Ġáĭ«áĬ¨áĪ³áĪį": 3505,
      "Ġáīłáīµ": 3506,
      "Ġáīłáī¥": 3507,
      "Ġáīłáīħ": 3508,
      "Ġáīłáĭ¨": 3509,
      "Ġáīłáīĥ": 3510,
      "ĠáīłáĮ¨": 3511,
      "ĠáīłáĮĢ": 3512,
      "ĠáīłáĪĮ": 3513,
      "ĠáīłáĪĻ": 3514,
      "ĠáīłáĬĲáĮĪáĪŃ": 3515,
      "ĠáīłáĭµáĪŃ": 3516,
      "ĠáīłáĪļ": 3517,
      "ĠáīłáīĢáĪŃ": 3518,
      "ĠáīłáīĢáĬķ": 3519,
      "ĠáīłáĭµáĬķ": 3520,
      "ĠáīłáīĢáĪµ": 3521,
      "ĠáīłáĬłáĬķáĭµ": 3522,
      "ĠáīłáĭµáĪĺáīµ": 3523,
      "ĠáīłáĪ¾áĪħ": 3524,
      "ĠáīłáĮĬáĭľ": 3525,
      "ĠáīłáĬłáĪŃáīħ": 3526,
      "ĠáīłáĪĪáĮł": 3527,
      "ĠáīłáĪĨáĭ´": 3528,
      "Ġáīłáĭ±áīĦáīµ": 3529,
      "ĠáīłáĬ©áīłáīµ": 3530,
      "áĬĵáĬķ": 3531,
      "áĬĵáĭ³": 3532,
      "áĬĵáīģ": 3533,
      "áĬĵáĮįáĪŃ": 3534,
      "áī°áĬĿ": 3535,
      "áī°áĮĭ": 3536,
      "áī°áįĭ": 3537,
      "áī°áĪįáīħ": 3538,
      "áī°áĬĭáĪĭ": 3539,
      "áī°áĮįáĭ°áĪŃ": 3540,
      "áī°áīĢáĪĽáĮŃ": 3541,
      "áīĢáĭŃ": 3542,
      "áīĢáī£": 3543,
      "áīĢáĬĽ": 3544,
      "áīĢáīłáīµ": 3545,
      "áīĢáĭįáĬķ": 3546,
      "áīĢáĪĪáĪĿ": 3547,
      "áī£áĪİ": 3548,
      "áī£áĪĨ": 3549,
      "áī£áī¸áĭį": 3550,
      "áī£áĪªáĭį": 3551,
      "áī£áīĦáĪĭ": 3552,
      "áĪ¨áī¥": 3553,
      "áĪ¨áĮł": 3554,
      "áĪ¨áĮĭ": 3555,
      "áĪ¨áī±": 3556,
      "áĪ¨áĮĢ": 3557,
      "áĪ¨áįĪáĭį": 3558,
      "áĪ¨áī¢áĭ«": 3559,
      "áĪ¨áĭ¥áĪĿ": 3560,
      "áĪ«áī±": 3561,
      "áĪ«áĪĪáĪģ": 3562,
      "Ġáĭ¨áĬłáĬķ": 3563,
      "Ġáĭ¨áįĬ": 3564,
      "Ġáĭ¨áĬĶ": 3565,
      "Ġáĭ¨áī¤áīµ": 3566,
      "Ġáĭ¨áĬłáĪħáĭ«": 3567,
      "Ġáĭ¨áĮłáįĭ": 3568,
      "Ġáĭ¨áĬłáĭįáĪŃ": 3569,
      "Ġáĭ¨áĬłáĮħ": 3570,
      "Ġáĭ¨áĬłáĬķáĮĢáĪ«": 3571,
      "Ġáĭ¨áĪĪáĪĺáĭ°": 3572,
      "Ġáĭ¨áĬŃáĪ¨áĪĿáīµ": 3573,
      "Ġáĭ¨áĪĭáĮŃáĬķ": 3574,
      "áī³áĪĭ": 3575,
      "áī³áī½": 3576,
      "áī³áĪŀ": 3577,
      "áī³áĪŃáīĢ": 3578,
      "áĬĲáī½": 3579,
      "áĬĲáįĭ": 3580,
      "áĬĲáīģ": 3581,
      "áĬĲáĬ«": 3582,
      "áĬĲáīĥáĪį": 3583,
      "áĪħáĮĪ": 3584,
      "áĪħáĪ¨áīµ": 3585,
      "áĭ³áĬĿ": 3586,
      "áĭ³áĪ©": 3587,
      "áĭ³áĮĤ": 3588,
      "áĭ³áĪ¨áī½": 3589,
      "áĭ³áĬŀáī½": 3590,
      "áĪĽáĮ¥": 3591,
      "áĪĽáĪİ": 3592,
      "áĮįáĪĭáĪį": 3593,
      "áĮįáĪĻ": 3594,
      "áĮįáī£áĪį": 3595,
      "áĭĪáī±": 3596,
      "áĭĪáĪ¬": 3597,
      "áīħáĪµ": 3598,
      "áīħáĪħ": 3599,
      "áīħáī¡": 3600,
      "áīħáĮ«": 3601,
      "áīħáĬĵáīµ": 3602,
      "áīħáįĭáīµ": 3603,
      "áįĪáī³": 3604,
      "áįĪáĪ³": 3605,
      "áįĪáįĭ": 3606,
      "áįĪáĭįáĬķ": 3607,
      "áįĪáĪŃáĪµ": 3608,
      "áĮ¥áĮ¨": 3609,
      "áĮ¥áī¶": 3610,
      "áĮ¥áĪĽáīµ": 3611,
      "ĠáĬłáĭŃáĪį": 3612,
      "ĠáĬłáĭŃáĪµ": 3613,
      "ĠáĬłáĭŃáī½": 3614,
      "ĠáĬłáĭŃáĪ½": 3615,
      "ĠáĬłáĭŃáĪŀ": 3616,
      "ĠáĬłáĭŃáĮİ": 3617,
      "ĠáĬłáĭŃáĬ®": 3618,
      "ĠáĬłáĭŃáī»": 3619,
      "ĠáĬłáĭŃáĬĳ": 3620,
      "ĠáĬłáĭŃáī°áĬĽ": 3621,
      "ĠáĬłáĭŃáīłáĪŃ": 3622,
      "ĠáĬłáĭŃáĭ°áĪį": 3623,
      "ĠáĬłáĭŃáĮłáĮ£": 3624,
      "ĠáĬłáĭŃáįĪáĪµ": 3625,
      "ĠáĬłáĭŃáĪ°áĪ«": 3626,
      "ĠáĬłáĭŃáĭĺáĬĲ": 3627,
      "ĠáĬłáĭŃáĬĲáĮįáĭµ": 3628,
      "ĠáĬłáĭŃáĪµáĪĽ": 3629,
      "ĠáĬłáĭŃáĬĶáĬķ": 3630,
      "ĠáĬłáĭŃáĭĪáĪįáĭ±": 3631,
      "ĠáĬłáĭŃáĮ®áĪħáĪĿ": 3632,
      "ĠáĬłáĭŃáĪ¨áĪ³áĪĿ": 3633,
      "ĠáĬłáĭŃáĪŃáĮĪáĪĿ": 3634,
      "áįįáī³": 3635,
      "áįįáĭ¬": 3636,
      "áįįáĮ£áĪį": 3637,
      "áįįáĬĸ": 3638,
      "áįįáīħáĪĿ": 3639,
      "áįįáĪ°áĪµ": 3640,
      "áĮłáīĢ": 3641,
      "áĮłáī£": 3642,
      "áĮłáĪĽ": 3643,
      "áĮłáĮ¥": 3644,
      "áĮłáĪ®": 3645,
      "áĮłáĬĽ": 3646,
      "áĮłáĮĪáīł": 3647,
      "áĮ£áĪ«": 3648,
      "áĮ£áįįáĮ¥": 3649,
      "ĠáĪĪáĭį": 3650,
      "ĠáĪĪáīĢ": 3651,
      "ĠáĪĪáįĪ": 3652,
      "ĠáĪĪáĪĢ": 3653,
      "ĠáĪĪáĮī": 3654,
      "ĠáĪĪáĮĢ": 3655,
      "ĠáĪĪáĪĻ": 3656,
      "ĠáĪĪáī£áĪį": 3657,
      "ĠáĪĪáĮ¸": 3658,
      "ĠáĪĪáĬłáĪħáĭ«": 3659,
      "ĠáĪĪáĮħáī¥": 3660,
      "ĠáĪĪáĭįáĪĢ": 3661,
      "ĠáĪĪáĪ´áīµ": 3662,
      "ĠáĪĪáĬķáĮīáĪµ": 3663,
      "ĠáĪĪáĪįáĮħ": 3664,
      "ĠáĪĪáīĢáĪĺ": 3665,
      "ĠáĪĪáĮłáĮ£": 3666,
      "ĠáĪĪáĬłáĭŃáĬķ": 3667,
      "ĠáĪĪáĭĺáĪŃ": 3668,
      "ĠáĪĪáĪ¨áĮĪ": 3669,
      "ĠáĪĪáĮĬáĭľ": 3670,
      "ĠáĪĪáįĪáĪ¨áĪµ": 3671,
      "ĠáĪĪáī°áĭĪ": 3672,
      "ĠáĪĪáĬĵáī±": 3673,
      "ĠáĪĪáĪĨáĭ³áĪĿ": 3674,
      "ĠáĪĪáĭĿáĮĪáī¥": 3675,
      "ĠáĪĪáĬĲáĮĪ": 3676,
      "ĠáĪĪáĬ«áī¥": 3677,
      "ĠáĪĪáĮ¦áĪŃ": 3678,
      "ĠáĪĺáĪĪ": 3679,
      "ĠáĪĺáĪĿ": 3680,
      "ĠáĪĺáĭµ": 3681,
      "ĠáĪĺáĪ«": 3682,
      "ĠáĪĺáī½": 3683,
      "ĠáĪĺáĪª": 3684,
      "ĠáĪĺáĪ¸": 3685,
      "ĠáĪĺáĬķáĮĪ": 3686,
      "ĠáĪĺáīĢáĪĺ": 3687,
      "ĠáĪĺáĮłáĮ£": 3688,
      "ĠáĪĺáĪĺáĪĪáĪµ": 3689,
      "ĠáĪĺáĪ¨áīħ": 3690,
      "ĠáĪĺáīĢáĬĲ": 3691,
      "ĠáĪĺáĮīáĪ¨áĪµ": 3692,
      "ĠáĪĺáīĢáĪµáīĢáĪµ": 3693,
      "ĠáĪĺáĮĢáĪĺáĪªáĭ«": 3694,
      "áĪ°áĪį": 3695,
      "áĪ°áĮĪ": 3696,
      "áĪ°áĪ®": 3697,
      "áĪ°áĪĪáīµ": 3698,
      "áĪ°áĬĶ": 3699,
      "áĪ°áĮ¡áīµ": 3700,
      "áĪ°áĮłáĪĿ": 3701,
      "áĪ³áī¥": 3702,
      "ĠáĬ¨áĭ±": 3703,
      "ĠáĬ¨áĬĲáĮĪáĪŃ": 3704,
      "ĠáĬ¨áĪĿáīµ": 3705,
      "ĠáĬ¨áīłáĪ¨": 3706,
      "ĠáĬ¨áī°áĪĽ": 3707,
      "ĠáĬ¨áĭ¥": 3708,
      "ĠáĬ¨áīĢáĮ¥": 3709,
      "ĠáĬ¨áįįáīħáĪŃ": 3710,
      "ĠáĬ¨áĮ®áĬ¸": 3711,
      "ĠáĬ¨áĭµáĮĪáĮĭáĭŃ": 3712,
      "ĠáĬ¨áĭ±áĪŃ": 3713,
      "ĠáĬ¨áĮīáĪįáīłáīµ": 3714,
      "áĬĿáĬĵ": 3715,
      "áĭ¨áįĭ": 3716,
      "áĭ¨áī¸": 3717,
      "áĭ¨áī£áĪį": 3718,
      "áĭ¨áĭįáĪĢ": 3719,
      "áĭ¨áĪĪáĪĺ": 3720,
      "áĭ¨áĭįáĪĿ": 3721,
      "áĭ¨áĪĭáĭŃ": 3722,
      "áĮħáĬĵ": 3723,
      "áĮħáĪ«áīµ": 3724,
      "áī½áĪĿ": 3725,
      "ĠáĬĲáīħ": 3726,
      "ĠáĬĲáĭ¶": 3727,
      "ĠáĬĲáįĭáĪµ": 3728,
      "áĪ½áĪ¨": 3729,
      "áĪ½áĪ½": 3730,
      "áĪĢáĬª": 3731,
      "áĪĢáī¥áīµ": 3732,
      "áĪīáīłáīµ": 3733,
      "áĪīáĪĪáīµ": 3734,
      "áĪīáī¥áĪħ": 3735,
      "ĠáĪ²áĬĵ": 3736,
      "ĠáĪ²áĪ»": 3737,
      "ĠáĪ²áĪ¶": 3738,
      "ĠáĪ²áīĢáĪŃ": 3739,
      "ĠáĪ²áĮłáįĭ": 3740,
      "ĠáĪ²áĮ£áĪī": 3741,
      "ĠáĪ²áĪŃáī¥": 3742,
      "Ġáī¢áī°": 3743,
      "Ġáī¢áĬĲ": 3744,
      "Ġáī¢áĭĺ": 3745,
      "Ġáī¢áĮ¨": 3746,
      "Ġáī¢áĭĽ": 3747,
      "Ġáī¢áĭ°áĪį": 3748,
      "Ġáī¢áĪ¨áĮį": 3749,
      "Ġáī¢áĭĪáīħ": 3750,
      "Ġáī¢áĬĲáĮįáĪ©": 3751,
      "Ġáī¢áĬķáīģ": 3752,
      "Ġáī¢áĪĪáĮįáĪµ": 3753,
      "Ġáī°áĭĪ": 3754,
      "Ġáī°áįĭ": 3755,
      "Ġáī°áīĥ": 3756,
      "Ġáī°áīłáĪĭ": 3757,
      "Ġáī°áĮİ": 3758,
      "Ġáī°áĬ®": 3759,
      "Ġáī°áįĪáĪŃ": 3760,
      "Ġáī°áĪ°áĪŃ": 3761,
      "Ġáī°áīłáĪį": 3762,
      "Ġáī°áĭĪáĮĭ": 3763,
      "Ġáī°áĪĽáĪª": 3764,
      "Ġáī°áĬ³áĪ½": 3765,
      "áĮĭáĬĵ": 3766,
      "áĮĭáĮį": 3767,
      "áĮĭáīłáīµ": 3768,
      "áĮĭáĮŃ": 3769,
      "Ġáĭ¨áĪĢ": 3770,
      "Ġáĭ¨áĪ¹áĪĿ": 3771,
      "ĠáĬłáĮĪáĪ³": 3772,
      "ĠáĬłáĮĪáĮĭ": 3773,
      "ĠáĬłáĮĪáĮĵ": 3774,
      "ĠáĬłáĮĪáĮĪáīµ": 3775,
      "ĠáĬłáĮĪáĭ´áīµ": 3776,
      "ĠáĬłáĮĪáĭ²áĭ«áĭį": 3777,
      "ĠáĬłáĮĪáī¥áĪĭáĭį": 3778,
      "ĠáĭĪáĮĭ": 3779,
      "ĠáĭĪáĭ¶": 3780,
      "ĠáĭĪáĮĪáĬķ": 3781,
      "ĠáĭĪáĪĪáĭ°": 3782,
      "ĠáĭĪáĮª": 3783,
      "ĠáĭĪáĭ²áĪħ": 3784,
      "áĭĺáĮ¥": 3785,
      "áĪ®áī½": 3786,
      "áĪ®áĪ®": 3787,
      "áĪ®áĮĮ": 3788,
      "áĭĭáĭŃ": 3789,
      "áĭĭáĬĵ": 3790,
      "áĭĭáī³": 3791,
      "áĬ¨áĪįáĮħ": 3792,
      "áĬ¨áī°áĪį": 3793,
      "áĬ¨áīłáĪ®": 3794,
      "áĬ¨áī£áĪįáĪ½": 3795,
      "áįĭáĪĿ": 3796,
      "áįĭáī±": 3797,
      "áįĭáįĭ": 3798,
      "ĠáĪįáīµ": 3799,
      "ĠáĪįáĮĤ": 3800,
      "ĠáĪįáĮģ": 3801,
      "áĪĪáĭįáĪ»": 3802,
      "áĭ¨áĪ½": 3803,
      "ĠáĬłáĬķáĭ´áīµ": 3804,
      "ĠáĬłáĬķáī¥áĪĭ": 3805,
      "Ġáī£áĪ³": 3806,
      "Ġáī£áĭ¨": 3807,
      "Ġáī£áĪī": 3808,
      "Ġáī£áĮĪáĪŃ": 3809,
      "Ġáī£áĪħáĭ«": 3810,
      "Ġáī£áĬķáĭµ": 3811,
      "Ġáī£áĪĺáĭµ": 3812,
      "Ġáī£áĪı": 3813,
      "Ġáī£áĪªáĭ«": 3814,
      "Ġáī£áĪŃáī£": 3815,
      "Ġáī£áĪħáī³áĭĬ": 3816,
      "Ġáī¥áīħáĪį": 3817,
      "áĬŃáĪ±": 3818,
      "áĬŃáī³áĪį": 3819,
      "áĪ©áī£": 3820,
      "ĠáĪĿáĪ«áīµ": 3821,
      "áīĥáī½áĪģ": 3822,
      "áĭĿáīµ": 3823,
      "áĭĿáī¥": 3824,
      "áĭĿáĭĿ": 3825,
      "áĭĿáĪĽáī½": 3826,
      "ĠáĮĪáĭ°": 3827,
      "ĠáĮĪáĭ³": 3828,
      "ĠáĮĪáĭ³áĭŃ": 3829,
      "ĠáĮĪáĪĭáĮĭáĭŃ": 3830,
      "áĪªáĬŃ": 3831,
      "áĪ»áĪ½": 3832,
      "áĪ»áĪ®": 3833,
      "ĠáīĢáĮ¥": 3834,
      "ĠáīĢáĭ¨": 3835,
      "ĠáīĢáĪŀ": 3836,
      "ĠáīĢáĭ¶": 3837,
      "ĠáīĢáĪĭáĭį": 3838,
      "ĠáīĢáĪĭáĭĭ": 3839,
      "ĠáĪĽáĭį": 3840,
      "ĠáĪĽáĪ½": 3841,
      "ĠáĪĽáĬłáĭµ": 3842,
      "ĠáĪĽáĬĲáĭį": 3843,
      "ĠáĪĽáĮ£áīµ": 3844,
      "ĠáĪĽáĪħáīłáĪŃ": 3845,
      "ĠáĪĽáĬłáĪ¨": 3846,
      "ĠáĪĽáĪ¨áĮĥ": 3847,
      "ĠáĪĽáįįáĪ°áĪµ": 3848,
      "áĬłáĬķáī°áĬķ": 3849,
      "áĬłáĬķáīħáĪįáįį": 3850,
      "áĬłáĬķáĭ²áĪħ": 3851,
      "áĬłáĬķáĭ²áĭ«áĭį": 3852,
      "ĠáĭįáĮ£": 3853,
      "Ġáĭįáīĥ": 3854,
      "ĠáĭįáĮŃ": 3855,
      "ĠáĭįáĪĪáī³": 3856,
      "áĪİáī°": 3857,
      "ĠáĬłáĪĪáĪģ": 3858,
      "ĠáĬłáĪĪáī¥áĪ½": 3859,
      "áĮīáĪľ": 3860,
      "áĮīáĪ±áĬķ": 3861,
      "áĪĨáĭµáĬķ": 3862,
      "áĪĨáĭ±áĬķ": 3863,
      "áĮ¨áĬķ": 3864,
      "ĠáĬ«áī£": 3865,
      "ĠáĬ«áĮ£": 3866,
      "ĠáĬ«áĪĪáĭį": 3867,
      "ĠáĬłáĭ«áĪĿ": 3868,
      "ĠáĬłáĭ«áĪ»": 3869,
      "ĠáĬłáĭ«áī±áĬķ": 3870,
      "ĠáĬłáĭ«áĪŁ": 3871,
      "ĠáĬłáĭ«áĭµáĮĪ": 3872,
      "Ġáīµáī¥áĪµ": 3873,
      "Ġáīµáī°áĪ½": 3874,
      "ĠáīµáĮ«áĭĪ": 3875,
      "ĠáīµáĬłáī¢": 3876,
      "ĠáīµáĬĲáīĢáĪµ": 3877,
      "áĮŃáīµáĬĵ": 3878,
      "áī¤áĮĪ": 3879,
      "ĠáĪµáī³": 3880,
      "ĠáĪµáįĪ": 3881,
      "ĠáĪµáĮłáĭį": 3882,
      "ĠáĪµáĪĻáĬķ": 3883,
      "áĭįáĬķáīµ": 3884,
      "áĭĽáī¥": 3885,
      "áĭĽáīłáīµ": 3886,
      "áĭĽáĭĭáĪį": 3887,
      "áĭĽáįİáī½": 3888,
      "ĠáĬ¨áĪ®áĮ¡": 3889,
      "ĠáĪ³áĬķ": 3890,
      "ĠáĪ³áīµ": 3891,
      "ĠáĪ³áĭ«áĭįáīģ": 3892,
      "ĠáĪįáĮħáĭĭáĬķ": 3893,
      "ĠáĪįáĮħáī·áĬķ": 3894,
      "áīłáĪĭáĪħ": 3895,
      "ĠáĮ¥áĪį": 3896,
      "ĠáĮ¥áĪ«": 3897,
      "ĠáĮ¥áĮį": 3898,
      "ĠáĮ¥áĭĭ": 3899,
      "ĠáĮ¥áĬĵáīµ": 3900,
      "ĠáĮ¥áĪįáīħ": 3901,
      "ĠáĮ¥áįĭáīµ": 3902,
      "áĬ¨áĪħ": 3903,
      "áĬ¨áĪªáĭ«": 3904,
      "áĬ©áĭ«": 3905,
      "áĬ©áĪ³áĪį": 3906,
      "áĬ©áĪŃáīµ": 3907,
      "ĠáĪĭáīµ": 3908,
      "ĠáĪĭáĭ«": 3909,
      "ĠáĪĭáĪ½": 3910,
      "ĠáĪĭáĪ³áĪŃ": 3911,
      "ĠáĪĭáĭįáĪ«": 3912,
      "áĮ¡áĪ½": 3913,
      "áĮ¡áīµáĬķ": 3914,
      "ĠáĭµáĪį": 3915,
      "ĠáĭµáĪŃ": 3916,
      "ĠáĭµáĮį": 3917,
      "ĠáĭµáĪ®": 3918,
      "ĠáĮłáĪĽ": 3919,
      "ĠáĮłáĮŃ": 3920,
      "ĠáĮłáīłáĪį": 3921,
      "ĠáĮłáĪŃáī¼": 3922,
      "ĠáĮłáī¥áīħ": 3923,
      "ĠáĮłáĮĪáīĭáĭŃ": 3924,
      "ĠáĮłáĮ¥áī¶": 3925,
      "áĪ¸áĮĪ": 3926,
      "áĪ¸áĪĿ": 3927,
      "áĪ¸áīłáīµ": 3928,
      "áĪ¸áĪŃáĪĻ": 3929,
      "áĮİáīµ": 3930,
      "Ġáĭ°áĪĢ": 3931,
      "Ġáĭ°áī¥áĪŃ": 3932,
      "Ġáĭ°áĪ«áĪ½": 3933,
      "Ġáĭ°áĪħáĬĵ": 3934,
      "Ġáĭ°áĪ¨áī£": 3935,
      "Ġáĭ°áĪŃáĪ¶": 3936,
      "Ġáĭ°áĮĦáĬķ": 3937,
      "áĪĮáīµ": 3938,
      "ĠáįĪáĮĪ": 3939,
      "ĠáįĪáĪ©": 3940,
      "ĠáįĪáĪ¨áĪ°áĬĽ": 3941,
      "ĠáįĪáĪ«áĮħ": 3942,
      "ĠáįĪáĮĥáīµ": 3943,
      "ĠáīħáĪĮáīµ": 3944,
      "áĭ«áĪįáĪ°áĪĽ": 3945,
      "áĪĻáĪŃ": 3946,
      "áĪĻáĪµ": 3947,
      "Ġáī³áĪŃ": 3948,
      "Ġáī³áĪ½": 3949,
      "Ġáī³áĪļ": 3950,
      "Ġáī³áĭ²áĭ«": 3951,
      "Ġáī³áĪ¨áĮį": 3952,
      "Ġáī³áĬĵáĪ½": 3953,
      "ĠáĪŀáįĪáĪŃ": 3954,
      "ĠáĪŀáīµáĬķ": 3955,
      "Ġáī¤áī°áĬŃ": 3956,
      "áĭ°áĪŃáĪĿ": 3957,
      "áĭ°áĪŃáĪ±": 3958,
      "ĠáĮİáĪŃ": 3959,
      "ĠáĮİáĮĪ": 3960,
      "ĠáĮİáĭ³": 3961,
      "ĠáĮİáĪ«áĪ½": 3962,
      "ĠáĮİáī£áĮ£": 3963,
      "áĬłáĭŃáī¥": 3964,
      "áĬłáĭŃáī³": 3965,
      "áĬłáĭŃáĪĺáĮ£": 3966,
      "áĬłáĭŃáī¡áĬķ": 3967,
      "ĠáĮįáĪį": 3968,
      "ĠáĮįáĮĪ": 3969,
      "ĠáĮįáĭĿáīµ": 3970,
      "Ġáĭ¨áĪļáĪĺáĪµáĪį": 3971,
      "áī¸áĮĪáĪŃ": 3972,
      "áįĬáī±": 3973,
      "áĬĲáĮĪáĪŃáĬķ": 3974,
      "ĠáĬłáīµáĭĭáĪį": 3975,
      "ĠáĬłáīµáĮĪáĬĿ": 3976,
      "ĠáĬłáīµáĬ¨áĪį": 3977,
      "ĠáĬłáīµáĪĿáĬ¨áĪŃ": 3978,
      "ĠáĬłáīµáĪŃáĪ³": 3979,
      "áī¦áĬ«": 3980,
      "Ġáĭ¨áī°áĪ¨áī³": 3981,
      "Ġáĭ¨áī°áĭ«áĭĺ": 3982,
      "Ġáĭ¨áī°áĪĺáī³": 3983,
      "Ġáĭ¨áī°áĭĪáĪĪáĭ°": 3984,
      "Ġáĭ¨áī°áĬĵáĮĪáĪ¨": 3985,
      "Ġáĭ¨áī°áĪĺáĬĺ": 3986,
      "ĠáĭŃáĪĺáĪĪ": 3987,
      "ĠáĭŃáĪĺáī³": 3988,
      "ĠáĭŃáĪĺáĪĪáĪĺ": 3989,
      "áīĤáĮ¡": 3990,
      "áĬ®áĪį": 3991,
      "áĬ®áĪ°": 3992,
      "áĬ®áĬķáĬķ": 3993,
      "áĮ£áĪįáĪħ": 3994,
      "Ġáĭ³áĭįáĪĭ": 3995,
      "áĮĤáĮģ": 3996,
      "ĠáĬŃáī¥": 3997,
      "ĠáĬŃáįĪ": 3998,
      "ĠáĬŃáĪ¨áĪĿ": 3999,
      "ĠáĬŃáĪŃáĪµáī²áĭ«áĬķ": 4000,
      "áī¥áĪŃáīµ": 4001,
      "áĪħáĪįáĪĿ": 4002,
      "áĭľáĪĽ": 4003,
      "ĠáįįáĪĭáīµ": 4004,
      "ĠáįįáĪ«áīµ": 4005,
      "ĠáĬłáĪµáĪŃ": 4006,
      "ĠáĬłáĪµáĬŃ": 4007,
      "ĠáĬłáĪµáī¤": 4008,
      "ĠáĬłáĪµáī¦": 4009,
      "Ġáĭ«áĪµáĭĪ": 4010,
      "Ġáĭ«áĪµáĮ¥": 4011,
      "Ġáĭ«áĪµáĪ«áĪį": 4012,
      "Ġáĭ«áĪµáī£áĪį": 4013,
      "áĮĥáĪĪáĪ½": 4014,
      "áĪĺáĪįáĪµ": 4015,
      "Ġáĭ«áĪįáīłáĪĭ": 4016,
      "Ġáĭ«áĪįáĪ°áĪĽ": 4017,
      "Ġáĭ«áĪįáĬĲáīłáĪ¨": 4018,
      "Ġáī¢áĭ«áĮİáĪŃ": 4019,
      "Ġáī¢áĭ«áĬķáīĢáĪĭáįĭ": 4020,
      "Ġáī¢áĭ«áĮĭáĭµáĪį": 4021,
      "Ġáī¢áĭ«áĪŃáĪ±": 4022,
      "áī»áĪį": 4023,
      "áī»áĭį": 4024,
      "ĠáĮīáīłáīµ": 4025,
      "áįĪáĪŃáī°áĭį": 4026,
      "ĠáĪģáĪĪ": 4027,
      "ĠáĪģáĪĮ": 4028,
      "áĭ¨áĪļáĪ°": 4029,
      "áĭ¨áĪļáĮ£áįįáĮ¥": 4030,
      "áĬĳáĪĪáīµ": 4031,
      "ĠáĪĨáĭ³áĪĿ": 4032,
      "ĠáĪĨáĬĲáĭį": 4033,
      "ĠáĪ³áĭŃáĪĺáĮ£": 4034,
      "ĠáĪ³áĭŃáīłáĮł": 4035,
      "ĠáĬłáĪįáįį": 4036,
      "ĠáĬłáĪįáĬ©": 4037,
      "ĠáĬłáĪįáĭĪáĮ£": 4038,
      "ĠáĬłáĪįáīħáĪ¶": 4039,
      "ĠáĬłáĪįáĪ°áĮłáĪĿ": 4040,
      "áĬłáĪħáĭ«áĪĿ": 4041,
      "ĠáĪ²áĭ«áĪµ": 4042,
      "ĠáĪ²áĭ«áĭ©áīµ": 4043,
      "áĭĻáĬķ": 4044,
      "áĬłáĪĪáĪĽ": 4045,
      "áĬłáĪĪáĮĪáĮīáĪµ": 4046,
      "áīłáĪŃáĭµ": 4047,
      "áĭĪáĮ£áĭį": 4048,
      "áĮĵáīµ": 4049,
      "áĮĵáĪª": 4050,
      "ĠáĭĿáĬķ": 4051,
      "ĠáĭĿáĪĽ": 4052,
      "ĠáĭĿáĪĭáĭŃ": 4053,
      "ĠáĭĿáĮĪáī¥": 4054,
      "ĠáĭĿáĪĨáĬķáĪĿ": 4055,
      "ĠáĭĿáĪ¨áįį": 4056,
      "áĭŀáĪ®": 4057,
      "ĠáĮĭáĬķ": 4058,
      "ĠáĮĭáĪ«": 4059,
      "ĠáĬ¨áĪĺáĭį": 4060,
      "ĠáĬ¨áĪĺáįį": 4061,
      "ĠáĬ¨áĪĺáĪĢáĪį": 4062,
      "ĠáĬ¨áĪĺáĪ¬áīµ": 4063,
      "ĠáĬ¨áĪĺáĪªáĭį": 4064,
      "ĠáĬ¨áĪĺáĪĭáĪµ": 4065,
      "ĠáĬ¨áĪĺáĮĪáĮĪáĭµ": 4066,
      "ĠáĬ¨áĪĺáĪ¨áĪĺ": 4067,
      "áĪļáĪµáīµ": 4068,
      "áī´áĬĵ": 4069,
      "áĬłáĭįáĪį": 4070,
      "ĠáĬ«áĪįáī°": 4071,
      "ĠáĬ«áĪįáĪĺáĮł": 4072,
      "ĠáĬ«áĪįáĬĵáīģ": 4073,
      "ĠáĭŃáĭĪáīģ": 4074,
      "ĠáĭŃáĭĪáĪ¨áĭį": 4075,
      "ĠáĭŃáĭĪáĪŃáĪ³áĪį": 4076,
      "ĠáĭŃáĭĪáīĢáĪ±": 4077,
      "ĠáĭŃáĭĪáĭ°áĬĿ": 4078,
      "ĠáīģáĮŃ": 4079,
      "ĠáīģáĪŃáĪµ": 4080,
      "ĠáīģáĪ¨áĮ¥": 4081,
      "Ġáĭ¨áĪ°áīĢ": 4082,
      "Ġáĭ¨áĪ°áĭŃáĮ£áĬķ": 4083,
      "Ġáĭ¨áĪ°áīłáĪ¨áĭį": 4084,
      "áĮ«áĪį": 4085,
      "áĮ«áĮ¨": 4086,
      "áĬłáĪŃáī£": 4087,
      "áĬłáĪŃáĮīáĭĿ": 4088,
      "ĠáĭŃáĮĪáĪ«áĪį": 4089,
      "ĠáĭŃáĮĪáīĥáĪį": 4090,
      "áĪĦáĮĥ": 4091,
      "ĠáĪįáī¥áĪ±áĬķ": 4092,
      "áĮĪáĬķáĮ¨": 4093,
      "áĮĪáĬķáĭĺáī¥": 4094,
      "ĠáĭŃáīĢáĬĵáĪį": 4095,
      "ĠáĭŃáīĢáĪĽáĪį": 4096,
      "ĠáĭŃáīĢáĪĭáĭį": 4097,
      "ĠáĭŃáīłáĪī": 4098,
      "ĠáĭŃáīłáĭĽáĪį": 4099,
      "ĠáĭŃáīłáĮĢáĭį": 4100,
      "ĠáĭŃáīłáĮĥáĪį": 4101,
      "ĠáĭŃáīłáīħáĪĭáĪį": 4102,
      "ĠáĭŃáīłáĮ£áĮł": 4103,
      "Ġáĭ¨áĪĽáĭŃáĮ¨áĪŃáĪµ": 4104,
      "Ġáĭ¨áĪĽáĭŃáĪĺáĪįáĪµ": 4105,
      "ĠáīłáĬłáĮĪ": 4106,
      "ĠáīłáĬłáĮĪáĬķ": 4107,
      "áĪľáīµ": 4108,
      "áĪ¹áĪŀ": 4109,
      "ĠáĭŃáĮłáĮī": 4110,
      "ĠáĭŃáĮłáįī": 4111,
      "ĠáĭŃáĮłáĪĭáĭĭáĪį": 4112,
      "ĠáĮħáĪ«": 4113,
      "ĠáĮħáĪĽáīµ": 4114,
      "ĠáĪĪáĪĺáĮ¸áĪĢáįį": 4115,
      "Ġáī£áĪįáĪ½": 4116,
      "Ġáī£áĪįáĭĭáĬķ": 4117,
      "áĬĺáīµ": 4118,
      "ĠáĪĢáī¥": 4119,
      "ĠáĪĢáĪĻáĪµ": 4120,
      "áĪŀáīµáĪĿ": 4121,
      "ĠáĮ£áĪĪ": 4122,
      "ĠáĮ£áĮ£": 4123,
      "áĮĪáī£áīłáīµ": 4124,
      "ĠáĪĭáĭŃáīĢáĪŃ": 4125,
      "áīĭáīµ": 4126,
      "áĮ®áĪħ": 4127,
      "ĠáĬłáįįáĮ£áĮŃ": 4128,
      "áīĨáĬķ": 4129,
      "áīĨáĪ¨áĮł": 4130,
      "ĠáĬłáī³áĪ³": 4131,
      "ĠáĬłáī³áīłáĪĭáĪ½": 4132,
      "áĬłáįįáĬķáĮ¨": 4133,
      "ĠáĬłáĪĿáĭ¬": 4134,
      "ĠáĬłáĪĿáĪµáīµ": 4135,
      "áīłáĪ¨áīłáīµ": 4136,
      "áī£áĪĪáī¤áīµ": 4137,
      "áī£áĪĪáī¤áī±áĬķ": 4138,
      "áĭ¨áĪĽáīµ": 4139,
      "áĭ¨áĪĽáĭ«áĭįáīģáīµ": 4140,
      "Ġáĭ¶áĪŃ": 4141,
      "ĠáĭŃáĪĨáĬĲáĭĭáĪį": 4142,
      "áĭ¨áĪĽáĭŃáĭµáĬķ": 4143,
      "áĭ¨áĪĽáĭŃáī°áĪĽ": 4144,
      "áĪ¾áī°áĪį": 4145,
      "ĠáīłáĪĺáĮ«áĬĽ": 4146,
      "ĠáĪĮáĪĬáīµ": 4147,
      "ĠáĬłáĪ«áĪµ": 4148,
      "ĠáĬłáĪ«áĪ½": 4149,
      "ĠáīłáĭĪáĮ¥": 4150,
      "ĠáīłáĭĪáĬķáįĬáīµ": 4151,
      "ĠáĭĪáĭŃáĪĿ": 4152,
      "ĠáĭĪáĭŃáįĪáĬķ": 4153,
      "ĠáĭĪáĭŃáĭĺáĪŃ": 4154,
      "ĠáĭĪáĭŃáĭĺáĪ®": 4155,
      "áĬłáī¥áĪ®": 4156,
      "áĬłáĮįáĪ©": 4157,
      "ĠáĪĻáī³": 4158,
      "ĠáĪĻáĪ½áĪ«": 4159,
      "ĠáĬĵáįĪáīĢ": 4160,
      "ĠáĬłáĪħáĭ«áĬķ": 4161,
      "áĬĲáĮįáĮ£áĪį": 4162,
      "áĬĲáĮįáĪ©áīµ": 4163,
      "ĠáĪŀáīµáĬĵ": 4164,
      "ĠáĪ¸áĪĽ": 4165,
      "ĠáĪ¸áĬŃáĪĭ": 4166,
      "ĠáĪ¸áĮĪáĮİ": 4167,
      "ĠáĮ¨áĪŃ": 4168,
      "ĠáĮ¨áĭĭáī³": 4169,
      "ĠáĮĬáĭľáĭį": 4170,
      "áĬłáĭµáĪĭáĪĿ": 4171,
      "ĠáĪ«áī·áĬķ": 4172,
      "ĠáĬłáĪħáĪįáĬķ": 4173,
      "áĪĺáĪĪáĪº": 4174,
      "áĪĺáĮ£áĪĪáī½": 4175,
      "ĠáĬłáĭŃáī³áĪ½áĪĿ": 4176,
      "ĠáĬłáĭŃáī³áĭ°áĪŃáĪĿ": 4177,
      "áĪ·áĪį": 4178,
      "ĠáĬłáī£áī£": 4179,
      "ĠáĬłáī£áī±áĬķ": 4180,
      "ĠáĬłáĮįáĪ¬áĬķ": 4181,
      "áĮĪáī¥áĪ«": 4182,
      "áĪĪáĭ°áĭį": 4183,
      "ĠáīłáĪįáĮĦ": 4184,
      "ĠáĪĪáĪĽáĭ¨áīµ": 4185,
      "ĠáĪ½áī³": 4186,
      "ĠáĪ½áĪ®": 4187,
      "ĠáĪ½áĮĪáī¥áĪ«": 4188,
      "áĭ¨áĪĺáĮ£": 4189,
      "áĬķáĮĢáīµ": 4190,
      "áĮĪáĪ¨áĬĿ": 4191,
      "áĪĪáīĢáĪĺ": 4192,
      "áĪĪáīĢáĪĭáĪį": 4193,
      "ĠáĭŃáĪµáī£áĪį": 4194,
      "ĠáĭŃáĪµáĪĽáĪį": 4195,
      "ĠáĭŃáĪµáĮ¥áĪħ": 4196,
      "Ġáī¥áĪĭáī´áĬĵ": 4197,
      "áĮĬáīµ": 4198,
      "ĠáĬłáī¥áĮĢáĭį": 4199,
      "ĠáĬłáĪĽáī±áĬķ": 4200,
      "ĠáĭŃáĬĲáĪ³áĪį": 4201,
      "ĠáĭŃáĬĲáīĢáĪ³áĪį": 4202,
      "ĠáĪĺáĮĪáĮĪáĪŃ": 4203,
      "ĠáĪĺáĮĪáĬ©": 4204,
      "ĠáīĤáĪĿ": 4205,
      "áīħáĪįáĬĵ": 4206,
      "áĭĺáĬķáĭ¶": 4207,
      "áĬłáĭ«áĭµáĬķ": 4208,
      "áĬłáĭ«áĭ«áĭĻ": 4209,
      "áĬłáĮħáĮį": 4210,
      "áī°áĬĵáĮĪáĪ¨": 4211,
      "áī°áĬĵáĬ«áĪ½": 4212,
      "ĠáĪĪáĭĪáĭ³áĮħ": 4213,
      "ĠáĪĪáĭĪáĬĵáįį": 4214,
      "Ġáī¥áĪįáīµ": 4215,
      "áĬĭáĬķ": 4216,
      "áĪįáĮħáĬĵ": 4217,
      "áīĢáĪĺáĭį": 4218,
      "ĠáĬłáĮĪáĭ±áĮĪ": 4219,
      "áĪģáĪīáĬķ": 4220,
      "áĮĪáĭ°áĪµ": 4221,
      "áĮĪáĭ°áĭ°": 4222,
      "ĠáĭŃáįĪáī³áĪį": 4223,
      "Ġáĭ¨áįĪáĪ«": 4224,
      "Ġáĭ¨áįĪáĪĪáĮĪ": 4225,
      "Ġáī°áīĢáĪĿ": 4226,
      "Ġáī°áīĢáī¥": 4227,
      "Ġáī°áīĢáĭ°áĪµ": 4228,
      "ĠáĬłáīłáĭ°áĪ¨": 4229,
      "ĠáīĨáĭ³": 4230,
      "áī¥áĪįáĮ¥": 4231,
      "ĠáĬ¨áī°áĭ°áįĭáĪ½": 4232,
      "áĭµáĮĪáĬ³áĬķ": 4233,
      "ĠáĭŃáĬ¨áįĭáĪį": 4234,
      "ĠáĬ¨áĬłáĬĵáī±": 4235,
      "ĠáĬłáĮĪáĭ³áĭįáĬķ": 4236,
      "ĠáĪ°áĪŃáĮī": 4237,
      "ĠáĬ¨áĪĽáĪ¨áĪµ": 4238,
      "áĮ¢áĬķ": 4239,
      "áĪĪáīħáĪµ": 4240,
      "áĪĪáīħáĪ±": 4241,
      "áĭ«áĪµáī¡áīµ": 4242,
      "Ġáĭ«áĮĪáĪ³": 4243,
      "Ġáī¥áĪŃáĭµ": 4244,
      "Ġáī¥áĪŃáīģ": 4245,
      "Ġáī¥áĪŃáĪĢáĬķ": 4246,
      "ĠáĪĽáĪŃáĭ«áĪĿ": 4247,
      "áĪ¸áĪĽáĭį": 4248,
      "áĪ¸áĪĽáĬĶ": 4249,
      "ĠáĬłáĪµáĬªáīĢáĪŃáī¥": 4250,
      "áĬłáĪįáįį": 4251,
      "áĬłáĪįáĮĭ": 4252,
      "áĪµáĪ«áĭĭáĬķ": 4253,
      "áĭ°áī¥áĬĿ": 4254,
      "ĠáĬłáĭŃáĮ¥áĪĪáĭį": 4255,
      "ĠáĬłáĭŃáĮ¥áĪĭáĪħ": 4256,
      "áĬłáĭŃáĮ¥áĬĵ": 4257,
      "ĠáĪ¨áī£": 4258,
      "ĠáĪ¨áĮħáĪĿ": 4259,
      "ĠáĪĪáĬłáĪĪáīµ": 4260,
      "ĠáĪĪáĬłáĬĶ": 4261,
      "Ġáī°áĪĺáĪªáĭį": 4262,
      "ĠáĬłáĮĪáĭ³áĭŃáĭ°áĪŃáīħ": 4263,
      "ĠáĬłáĮĪáĭ³áĭŃáĪĽáĪ©": 4264,
      "Ġáī¥áīµáĪ°": 4265,
      "ĠáĬłáĪĺáĪī": 4266,
      "ĠáĬłáĪĺáĭ³áĪĿ": 4267,
      "ĠáĮĨáĪŃ": 4268,
      "ĠáīłáīĢáĭ°áĭ°áĭį": 4269,
      "áĪ¨áĮĪáĪĺ": 4270,
      "Ġáĭ¨áĭĪáĭ°áĭ°áĭį": 4271,
      "áĬĲáįįáĪµ": 4272,
      "ĠáĪĪáī£áĬłáĭµ": 4273,
      "áĪ°áĪŃáĭ¶": 4274,
      "áĭ¨áĪĿáĪĭáĪµ": 4275,
      "áĭ¨áĪĿáĮ£áĭ±": 4276,
      "Ġáī¥áī»áĭįáĬķ": 4277,
      "áĬłáĬķáĬ³áĬķáĪµ": 4278,
      "áī§áīµ": 4279,
      "áĮ¤áįį": 4280,
      "ĠáĬłáĮ¥áĬķáīµ": 4281,
      "ĠáīłáĬ¨áĬķáī±": 4282,
      "áīĢáĪĭáįĭáīµ": 4283,
      "áĪ¨áĭ°áī½": 4284,
      "áĭ¨áįĪáĪ°áĪ°": 4285,
      "ĠáĪĿáĪŃáĬ©áĭĻ": 4286,
      "áĪŀáĬĿáĬĵ": 4287,
      "ĠáĬłáĭĪáīĢáĬĿ": 4288,
      "ĠáĬłáĭĪáīħáĪ½": 4289,
      "ĠáĬłáĬĶáĪĿ": 4290,
      "Ġáĭ«áĭ¨áĭĭáĪį": 4291,
      "Ġáĭ«áĭ°áĪŃáĪµ": 4292,
      "Ġáĭ¨áĭĭáĪĪáīłáīµ": 4293,
      "ĠáĬ¨áĬĲáī¥áĪŃ": 4294,
      "áĭ¨áĮ¨áĬĲáīĢáĭį": 4295,
      "áĭĺáĪĺáĭ±áĬķ": 4296,
      "áĬłáĮ¥áĬķáīµ": 4297,
      "áĬłáĮ¥áĪįáīĢ": 4298,
      "ĠáĬłáĭµáĪŃáĮĭ": 4299,
      "áĭ«áĪĭáĭĭáīĤ": 4300,
      "áĭ«áĪĭáĭ©áīµ": 4301,
      "Ġáĭ«áįĪáĪ³áĪį": 4302,
      "ĠáīłáĪĭáĪħ": 4303,
      "ĠáīłáĪ½áī³": 4304,
      "Ġáĭ¨áĭĪáĪĪáĭ°áĭį": 4305,
      "ĠáĪĪáīħáĪµáįĪáīµ": 4306,
      "ĠáĪĿáĪµáĮĭáĬĵ": 4307,
      "ĠáĬ¨áĪŀáī°": 4308,
      "ĠáīħáĪįáĮ¥áĪĿ": 4309,
      "áĬłáī£áīµáĬĵ": 4310,
      "áĬłáĬĵáī´": 4311,
      "áĬłáĬĵáī´áĬķ": 4312,
      "áĬķáī¥áĪ¶": 4313,
      "ĠáĭŃáĪĪáīĥ": 4314,
      "ĠáĭŃáĪĪáĮįáĪĽáĪį": 4315,
      "ĠáĭŃáĭ°áĬķ": 4316,
      "ĠáĭŃáĭ°áĬĲáĮįáĮ£áĪį": 4317,
      "ĠáĭŃáĪ¸áĪįáĪŁáĪį": 4318,
      "ĠáĮĢáĮį": 4319,
      "Ġáĭ¨áīłáĪīáīµ": 4320,
      "Ġáĭ¨áīłáīħáĪİ": 4321,
      "áĮłáī¥áīħ": 4322,
      "ĠáĬ¨áįĪáī°": 4323,
      "ĠáĬ¨áįĪáĪ°áĪ°": 4324,
      "ĠáĪ²áĭĪáīłáĪ«": 4325,
      "Ġáī°áĪĺáĪįáĪ³": 4326,
      "Ġáī°áĪŁáĮĪáīµ": 4327,
      "ĠáĮĪáī£áĪŃ": 4328,
      "áīģáĬķáĮ«": 4329,
      "Ġáĭ°áĮįáĬĲáī±": 4330,
      "áĭ«áĪįáī°áĮĪáĪĭ": 4331,
      "ĠáĪİáĪĮáĪħáĬķ": 4332,
      "áĪĪáī¥áĪ°áĭį": 4333,
      "ĠáĭŃáĮ£áįįáĮ£áĪį": 4334,
      "Ġáĭ«áīłáĭĽáĪį": 4335,
      "Ġáĭ«áĭ°áĪĪáĭį": 4336,
      "Ġáĭ«áĭĪáĪ«": 4337,
      "Ġáĭ«áĪ³áĭµ": 4338,
      "ĠáĬłáĭŃáĬĵáįįáīħáĪĿ": 4339,
      "ĠáĪĺáĬķáī³": 4340,
      "ĠáĪĺáĬķáĮĪáĭµ": 4341,
      "áĪĢáĭŃáĪĽáĬĸáīµ": 4342,
      "Ġáī¢áĮłáĪ©": 4343,
      "Ġáī°áīłáĭµáĪİ": 4344,
      "ĠáĬłáĬķáĭ³áīµ": 4345,
      "ĠáĬłáĬķáĭ³áī³": 4346,
      "ĠáĪĿáĪ³áĪŃ": 4347,
      "ĠáīĢáĪĽáĭį": 4348,
      "ĠáīĢáĪĽáĬĿ": 4349,
      "áĭ¨áĪļáĭ«áĮłáĮįáī¥": 4350,
      "áī£áĪĪáĮĮáĬķ": 4351,
      "áĮ§áĬķ": 4352,
      "áĬłáĪĿáĪĭáĬŃ": 4353,
      "áĪĪáĮĭáĪµ": 4354,
      "ĠáĬĳáĪŃ": 4355,
      "ĠáĬĳáĪ®": 4356,
      "áĪĺáĪ«áĪĺáĪŃ": 4357,
      "ĠáīłáĪŃáĮį": 4358,
      "ĠáīłáĪŃáĪ±": 4359,
      "Ġáĭ¨áĪĿáī³": 4360,
      "ĠáĬłáĭŃáĪ°áĪ«áĪĿ": 4361,
      "áĭ¨áĪĮáĪĪáĭį": 4362,
      "ĠáĬ¨áĪĨáĭµ": 4363,
      "ĠáĪ³áĭ«áīĢáĪµ": 4364,
      "ĠáĭŀáĪŃ": 4365,
      "ĠáĬ©áĪ«áīµ": 4366,
      "Ġáĭ«áĪ¨áĮĢ": 4367,
      "ĠáĪĺáĮłáĮ¥": 4368,
      "áĬ¨áįĭáįĪáĪį": 4369,
      "ĠáĮĪáĪįáī¦": 4370,
      "áĬ¨áĪ©áīµ": 4371,
      "áĬ¨áĪ©áī¥áĪħ": 4372,
      "ĠáīģáĪŃáĮłáīµ": 4373,
      "áĮĪáī¡áĪĿ": 4374,
      "áĭ«áĮĪáĪŃáĪħ": 4375,
      "ĠáĭŃáī°áĬ©áĪ³áĪį": 4376,
      "ĠáĭŃáĮ¨áĪŃ": 4377,
      "ĠáĭŃáĮ¨áī¥áĮ£áĪį": 4378,
      "ĠáīłáĪĽáĬķ": 4379,
      "ĠáīłáĮ¥áīłáī¡": 4380,
      "ĠáĪĺáĪ°áĪ¨áīµ": 4381,
      "ĠáĪĺáĪ°áĪĪáĬĿ": 4382,
      "Ġáī¢áĪ°áĮ¥": 4383,
      "áĬ¨áįįáīµáįį": 4384,
      "áĬŃáĪ¨áĪĿáīµáĬĵ": 4385,
      "ĠáĮįáĪŃáĮįáĪŃ": 4386,
      "ĠáĪĺáĭµáĪĢáĬĴáī±": 4387,
      "áĪĤáĭµ": 4388,
      "áĪĤáĭ³": 4389,
      "ĠáĭĻáįĭ": 4390,
      "ĠáĬłáĮĮáĪĿ": 4391,
      "Ġáī½áĪĭ": 4392,
      "Ġáī½áĮįáĪŃ": 4393,
      "ĠáĭŃáįĪáĪŃáĭ±": 4394,
      "Ġáĭ«áĬĲáĭ°áĭµ": 4395,
      "Ġáĭ¨áĪįáī¡áĬķ": 4396,
      "ĠáĪĪáī°áĪ»": 4397,
      "ĠáĪĺáĪĭáĪ½": 4398,
      "áĭ¨áĪĢáĪĿáĪĮ": 4399,
      "ĠáĬłáĬķáĭ²áĭ«áĭį": 4400,
      "ĠáĬ«áĪĭáĭ¨": 4401,
      "ĠáīµáĪĿáĪħáĪŃáīµ": 4402,
      "ĠáīµáĪĿáī£áĪĨ": 4403,
      "áĪģáĪĪáī±áĬķ": 4404,
      "áĮİáĭ³áĭį": 4405,
      "áĭ¨áĪĽáī³áĭµáĮį": 4406,
      "ĠáįįáĪªáĭ³áĭį": 4407,
      "áĬłáĭ°áī£áī£áĭŃ": 4408,
      "ĠáĬłáĪ±áĭį": 4409,
      "áĪįáĮįáĪĺáĬĽ": 4410,
      "áĮĪáĪ«áī½áĬķ": 4411,
      "ĠáĭŃáĭĺáĪ©": 4412,
      "ĠáĭŃáĬ®áĪ«áĪį": 4413,
      "ĠáīłáĮĭáĭį": 4414,
      "áī°áįĪáĮ¥áĪ®": 4415,
      "ĠáĬłáĭŃáīłáīĥ": 4416,
      "ĠáĪĺáĪŃáĬ¨áī¥": 4417,
      "ĠáĪĺáĭįáĮĭáīµ": 4418,
      "ĠáĬ¨áĪįáĮĵáĪĿ": 4419,
      "áĮħáĪ«áī·": 4420,
      "ĠáĪ²áĮłáĪ«": 4421,
      "ĠáĪ²áĬ¨áĭ³": 4422,
      "Ġáī°áĮłáĬĲáīĢ": 4423,
      "Ġáī°áĪ°áīłáĪ¨": 4424,
      "Ġáī°áĭĭáĪ°áĬĿ": 4425,
      "áĭ¨áĪģáĪĪáīµ": 4426,
      "Ġáī¥áī³áįĪáĪĭ": 4427,
      "ĠáĭĺáĬķáĮį": 4428,
      "ĠáĬłáīµáīłáĭµáĪį": 4429,
      "áĬłáĭįáĬĲáīµáĬĵ": 4430,
      "Ġáĭ«áĪĺáĬĲáĪĿáĬĵáĪį": 4431,
      "....": 4432,
      "ĠáĪĤáĭ«áĮħ": 4433,
      "áĭįáĭµáĪĽ": 4434,
      "áĪµáĮĭáĭį": 4435,
      "ĠáīłáīłáĮį": 4436,
      "ĠáīłáĪ°áĪĽáĭŃ": 4437,
      "Ġáĭ¨áĭĺáĬĲáĮĭ": 4438,
      "ĠáĪĺáĮ¥áįİ": 4439,
      "ĠáĬ¨áĭ°áĪ¨áīµ": 4440,
      "ĠáĬĲáĮĭáĪªáīµ": 4441,
      "ĠáĬłáĮĪáī£áĪģ": 4442,
      "ĠáĭĪáĭ³áīĤ": 4443,
      "ĠáĭįáĪ½áīµ": 4444,
      "ĠáĭįáĪ½áĪĽ": 4445,
      "ĠáĮłáĪįáīĥ": 4446,
      "ĠáĮłáīłáĪ°áĬĿ": 4447,
      "Ġáī³áĮ¥áī¦": 4448,
      "ĠáĮįáĬķáī£áĪŃ": 4449,
      "Ġáĭ¨áī°áĪ°áīłáĪ¨áīłáīµ": 4450,
      "áīĤáĪįáĬķ": 4451,
      "Ġáĭ«áĪµáįĪáī³áĪį": 4452,
      "áĬłáĭĺáĪĪáĪĿ": 4453,
      "áĬłáĭ¬áĭ¬": 4454,
      "Ġáĭ²áīĥáĪĭ": 4455,
      "ĠáĬłáīħáĪŁ": 4456,
      "Ġáī¸áĪŃ": 4457,
      "áĭ«áī£áĭ«": 4458,
      "áĭµáĪ®áĪĿ": 4459,
      "áĭµáīĥáĪĪáĪģ": 4460,
      "ĠáĭŃáĪĽáĪĽ": 4461,
      "Ġáĭ«áĮĪáī£áĪ½": 4462,
      "ĠáīłáĪŀáĪ¨áĭµ": 4463,
      "ĠáĬłáĭŃáĮĪáī£áĪĿ": 4464,
      "ĠáĬłáĭŃáĮĪáī£áĬĿ": 4465,
      "ĠáĬłáĭŃáĪ°áĪĽáĪĿ": 4466,
      "ĠáĬłáĭŃáĪĺáĪĪáĪµáĪĿ": 4467,
      "ĠáĪĪáĮłáĪĭáīµ": 4468,
      "ĠáĪĪáĮłáĮłáĪŃ": 4469,
      "ĠáĬ¨áĪŃáĬ¨áĪ": 4470,
      "ĠáĪ²áĬĲáĬ«": 4471,
      "Ġáī°áĬĿáī°áĪħ": 4472,
      "Ġáī°áĪ¸áĬ¨áĪĺ": 4473,
      "ĠáĬłáĬķáīºáĪĿ": 4474,
      "ĠáĪĿáĮĪáĮŃ": 4475,
      "ĠáīĢáĪŃáī¶áī¥áĬĿ": 4476,
      "ĠáĭįáĪŃáĮĪ": 4477,
      "áīģáĪįáīģáĪĪáīµ": 4478,
      "ĠáīµáĪįáĪµ": 4479,
      "ĠáīµáĪŃáįī": 4480,
      "ĠáĪ³áī³áĭŃ": 4481,
      "áĮĢáĪŃáī£áĭ¬áĬķ": 4482,
      "áĪ¨áĪĺáĬĶ": 4483,
      "ĠáĮįáĭµáįĪáīµ": 4484,
      "ĠáĭŃáĪĺáĪ°áĬŃáĪ©": 4485,
      "ĠáĪļáĪµáī´áĬķ": 4486,
      "ĠáĬłáĮįáĭľáĪŃáĬķ": 4487,
      "áĬłáĬĲáĪ°": 4488,
      "ĠáĬłáĪ½áĬ¨áĪŃ": 4489,
      "ĠáĬłáĭĿáĪĺáĪ«": 4490,
      "ĠáĬłáĪĭáĪĿáĮ¦": 4491,
      "áĭ«áįįáĪĭ": 4492,
      "ĠáĭŃáĭĭáĪīáī¥áĪħ": 4493,
      "ĠáĭŃáī°áĬĽáĪį": 4494,
      "Ġáīłáī³áī½": 4495,
      "ĠáīłáĪĢáĪĮ": 4496,
      "Ġáīłáĭĺáĭ´": 4497,
      "Ġáĭ¨áĮĮáī³áĭįáĬķ": 4498,
      "ĠáĪĺáīĭáĮłáĪŃ": 4499,
      "ĠáĪ²áĪ°áī£": 4500,
      "áĬ¨áĬ¨áĬĿ": 4501,
      "ĠáĬłáĭ«áĪįáįįáĪĿ": 4502,
      "ĠáĬłáĭ«áĭµáĪŃáĪĿ": 4503,
      "ĠáĬ¨áĪ³áĪ½": 4504,
      "ĠáĬ¨áĪ³áīģáĪĪáīµ": 4505,
      "ĠáīħáīłáĪ©áĬĿ": 4506,
      "ĠáīħáīłáĪ©áĭĭáī¸áĭį": 4507,
      "áĬ®áĬĲáĬķ": 4508,
      "áĮ«áĭĪáīµ": 4509,
      "ĠáīłáĬ¨áĮĪáįĪáĪ¬": 4510,
      "Ġáĭ¨áĬĲáīłáĪ¨áī½": 4511,
      "áĭŃáĪīáĬĿáī³": 4512,
      "áĮ³áĮīáĪľ": 4513,
      "ĠáĭľáĮĭ": 4514,
      "áĭŃáĭįáĮĭ": 4515,
      "ĠáĭŃáĪŁáĮĪáī±": 4516,
      "áĭ°áĮĭáĮĪáįį": 4517,
      "Ġáĭ«áĪŃáįĭáĪį": 4518,
      "ĠáīłáįĪáĮ£áĪª": 4519,
      "áĪħáĪĺáĪĻáĬķ": 4520,
      "áĭĪáĮīáīłáīµ": 4521,
      "ĠáĬłáĭŃáĭįáĪįáĪĿ": 4522,
      "ĠáĬłáĭŃáĪĽáĪ¨áĬĿ": 4523,
      "ĠáĬłáĭŃáįĪáĪŃáĭµ": 4524,
      "ĠáĬ¨áī¥áī±áĬķ": 4525,
      "ĠáĬ¨áĮĭáĮ¥": 4526,
      "ĠáĬ¨áįĭáĭŃ": 4527,
      "áĭ¨áĮ¨áĪ¨áīĥ": 4528,
      "Ġáī¢áĮĪáīģ": 4529,
      "Ġáī°áĪ«áĪ«": 4530,
      "Ġáī°áĭ«áĭŃáĭŀ": 4531,
      "ĠáĭĪáĭµáīĢ": 4532,
      "ĠáĪįáĪĽáĭ±": 4533,
      "áĭ¨áĪ«áĪµ": 4534,
      "ĠáĬ«áĪĪáīĢáĪ±": 4535,
      "ĠáĮŃáī¥áĮ¦áĭįáĬķ": 4536,
      "ĠáĬ¨áĭĪáĬķáĭµáĪŁ": 4537,
      "Ġáĭ¨áįĪáĮłáĪ¨áĭį": 4538,
      "Ġáī°áĪĺáĬ«áĪªáĭį": 4539,
      "áĬłáĮ¥áī¥áīĢáĪħ": 4540,
      "áĬłáī°áĭĭáĪį": 4541,
      "áĬłáĭĪáīħáĪ½": 4542,
      "ĠáĭŃáĪĿáĬ¨áĪ©áī¥áĪħ": 4543,
      "ĠáĭŃáĮĪáĪŃáįį": 4544,
      "Ġáĭ«áĮįáĭĽáĪį": 4545,
      "Ġáĭ«áĪ»áĮįáĪ«áĪį": 4546,
      "Ġáĭ«áĪĺáĪįáĮ£áĪį": 4547,
      "Ġáīłáī¥áĪŃáĪĮ": 4548,
      "Ġáĭ¨áī³áĮłáīģáīµ": 4549,
      "áįĪáĮ¥áĬĸ": 4550,
      "ĠáĬłáĭŃáĪĪáīħáĪĿ": 4551,
      "ĠáĬłáĭŃáī°áĪŃáįĪáĭį": 4552,
      "ĠáĬłáĭŃáĭĪáĪŃáĪ±": 4553,
      "ĠáĪĪáĪŀáī·": 4554,
      "ĠáĪĺáĭĺáĭĻ": 4555,
      "ĠáĬ¨áīĢáĭĺáĬĲ": 4556,
      "ĠáĬĲáĬ¨áĪ°áĬĿ": 4557,
      "ĠáĪ²áĪĺáĪĪáĮ¥": 4558,
      "Ġáī£áĭĿáĪĭáīµ": 4559,
      "áĭ±áī£áĬĵ": 4560,
      "ĠáĬ«áĪħáĬķáĬķ": 4561,
      "ĠáīµáĪŀáī³áĪĪáī½": 4562,
      "ĠáīµáĬłáĮįáĪµáīµ": 4563,
      "ĠáĪĭáĪĺáĪī": 4564,
      "Ġáĭ°áĮĥáĭĿáĪĽáī½": 4565,
      "ĠáĭĺáĮįáī¼": 4566,
      "ĠáīħáĬķáĭµáī¥": 4567,
      "Ġáī³áĪĽáĪµáĪĭáĪĪáī½": 4568,
      "ĠáĪŀáĪįáī¶": 4569,
      "áĭ¨áĪļáĭĪáĭ±áīµáĬķ": 4570,
      "áĬłáĪĪáĭĭáĭĽáĭį": 4571,
      "ĠáĪĪáĪĺáĪĭáĮ£": 4572,
      "Ġáĭ¨áįĪáĪ¨áĭ°áīłáīµ": 4573,
      "ĠáĬłáĭŃáĬ¨áįįáīµáĪĿ": 4574,
      "ĠáĪ²áĭĪáĪµáĭ°áĭį": 4575,
      "Ġáī°áĬĲáĬ¨áĪµáĬ©áĬĿ": 4576,
      "ĠáĬ¨áĭĺáįĪáĬĲ": 4577,
      "ĠáĮįáĭµáĮįáĭ³áĭį": 4578,
      "áĬ¨áĬĵáĬĲáīłáĭį": 4579,
      "ĠáĬłáįİáīµ": 4580,
      "ĠáĬłáĮīáĪŃáĪ±áĬĿ": 4581,
      "áĪĪáī°áĪ«áīł": 4582,
      "ĠáĭŃáĭĪáĮ£áĭĭáĪį": 4583,
      "ĠáĭŃáĪ¨áĮįáĮ£áĪį": 4584,
      "ĠáĭŃáĭĺáĪŃáĮ¥áĮ¥": 4585,
      "ĠáĭŃáĮ¨áĭĪáī³áĪį": 4586,
      "ĠáĭŃáĮĢáĪĺáĪ«áĪį": 4587,
      "Ġáĭ«áĭĭáĭįáĪĭáĪį": 4588,
      "Ġáĭ«áīłáĪĭáĪ»áĪį": 4589,
      "Ġáĭ«áĬ®áĪ«áĪį": 4590,
      "ĠáīłáĭµáĪŃáīħ": 4591,
      "ĠáīłáĪļáĪµáī±": 4592,
      "áī°áĮįáĭ°áĪŃáĭ³áĪª": 4593,
      "Ġáĭ¨áįĬáī±áĬķ": 4594,
      "áīħáĮ«áīĥ": 4595,
      "ĠáĬłáĭŃáī»áĪįáĪĿ": 4596,
      "ĠáĬłáĭŃáĭĺáĬĲáĮīáĪĿ": 4597,
      "ĠáĬłáĭŃáĪŃáĮĪáĪĿáĪħ": 4598,
      "ĠáĪĪáĪ¨áĮĪáĮł": 4599,
      "ĠáĪĪáĮĬáĭľáĭį": 4600,
      "ĠáĪĺáīĢáĬĲáĪµ": 4601,
      "ĠáĬ¨áĭ±áĪ©": 4602,
      "ĠáĬ¨áĭ¥áī¥": 4603,
      "áĭ¨áįĭáīĤ": 4604,
      "áĮħáĪ«áīµáĬĵ": 4605,
      "Ġáī¢áĭĽáīģáĬķ": 4606,
      "Ġáī¢áĭ°áĪįáĪīáīµ": 4607,
      "Ġáī¢áĭĪáīħáĮ¡áīµ": 4608,
      "Ġáī°áĬ®áĪ³áīµ": 4609,
      "Ġáī°áįĪáĪŃáī¶": 4610,
      "ĠáĭĪáĮªáīµ": 4611,
      "ĠáīĢáĪĭáĭįáĮłáĭį": 4612,
      "ĠáīĢáĪĭáĭĭáĮŃ": 4613,
      "ĠáīµáĮ«áĭĪáī³áĪĪáī½": 4614,
      "ĠáīµáĬłáī¢áīµ": 4615,
      "ĠáĬ¨áĪ®áĮ¡áĪĪáīµ": 4616,
      "ĠáĪĭáĪ³áĪŃáĪ½": 4617,
      "Ġáī³áĪļáĭ«áĪĪáĪ½": 4618,
      "áĬłáĭŃáĪĺáĮ£áĪĿáĬķ": 4619,
      "ĠáĭŃáĪĺáĪĪáĪĺáĪĭáĪį": 4620,
      "ĠáĬŃáĪ¨áĪĿáī±": 4621,
      "ĠáĬ¨áĪĺáĪ¨áĪĺáĪ©": 4622,
      "ĠáĬ«áĪįáĪĺáĮłáĮ¡áīµ": 4623,
      "ĠáĭŃáīĢáĪĭáĭįáĮ¡": 4624,
      "áĬłáĭ«áĭ«áĭĻáĬķ": 4625,
      "ĠáĪĿáĪŃáĬ©áĭĻáĬķ": 4626,
      "áĭ«áĪįáī°áĮĪáĪĭáīłáĮł": 4627,
      "áĬ¨áįįáīµáįįáī±": 4628,
      "Ġáī°áĮłáĬĲáīĢáīĢ": 4629,
      "¨áĪµ": 4630,
      "¨áĮĭ": 4631,
      "©áĪ³": 4632,
      "«áĪį": 4633,
      "¬áĪ»": 4634,
      "®áĪĽ": 4635,
      "®áĮł": 4636,
      "®áĪĢáĬķ": 4637,
      "¾áĪĺáĭį": 4638,
      "¾áĪĺáĬĽ": 4639,
      "Ġ!": 4640,
      "Ġ\"": 4641,
      "Ġ)": 4642,
      "Ġ=": 4643,
      "ĠáĮĪáĪŃ": 4644,
      "ĠáĬķáī¥": 4645,
      "ĠáįĸáĪĬáĪµ": 4646,
      "Ħáĭį": 4647,
      "Ħáĭ±": 4648,
      "ĺáĪ¨": 4649,
      "áĪ¼": 4650,
      "áīª": 4651,
      "áĬ¦": 4652,
      "áĮ¾áĪĽ": 4653,
      "áĬłáĪħ": 4654,
      "áĬłáįĪ": 4655,
      "áĬłáĮī": 4656,
      "áĬłáī¶": 4657,
      "áĬłáĪĪáī½": 4658,
      "áĬłáī¦": 4659,
      "áĬłáĮĥ": 4660,
      "áĬłáĪµáīµ": 4661,
      "áĬłáĭŀ": 4662,
      "áĬłáĮĪáĬķ": 4663,
      "áĬłáĮ®": 4664,
      "áĬłáĪĺáĬķ": 4665,
      "áĬłáĪ¾": 4666,
      "áĬłáī°áĪŃ": 4667,
      "áĬłáĭļ": 4668,
      "áĬłáĭ°áĮĪ": 4669,
      "áĬłáĪµáĪ«": 4670,
      "áĬłáī¡áĬķ": 4671,
      "áĬłáĭ¨áĭĪ": 4672,
      "áĬłáīłáĪį": 4673,
      "áĬłáĬĸáĪŃ": 4674,
      "áĬłáĭ°áĪĪ": 4675,
      "áĬłáī°áĪŃáįį": 4676,
      "áĬłáĪĽáĮŃ": 4677,
      "áĬłáĭ©áĬĿ": 4678,
      "áĬłáĭĪáĭŃ": 4679,
      "áĬłáĭ«áĭįáīħ": 4680,
      "áĬłáĭĭáĮħ": 4681,
      "áĬłáīĢáįĪ": 4682,
      "áĬłáĬ©áĪī": 4683,
      "áĬłáĪ®áĮĮ": 4684,
      "áĬłáĬ¨áįĭáįĪáĪį": 4685,
      "Ġáĭ®áĪĢáĬķ": 4686,
      "ĠáĬłáĪħ": 4687,
      "ĠáĬłáįĪ": 4688,
      "ĠáĬłáĬĿ": 4689,
      "ĠáĬłáĭĭ": 4690,
      "ĠáĬłáįĭ": 4691,
      "ĠáĬłáĭ¨áĪ": 4692,
      "ĠáĬłáĪİ": 4693,
      "ĠáĬłáīłáīµ": 4694,
      "ĠáĬłáĪĭáĪį": 4695,
      "ĠáĬłáĪ¸": 4696,
      "ĠáĬłáĮİ": 4697,
      "ĠáĬłáĭ°áĪŃ": 4698,
      "ĠáĬłáĪ°áĭį": 4699,
      "ĠáĬłáĪ³áĪį": 4700,
      "ĠáĬłáĪŃáĪµ": 4701,
      "ĠáĬłáī¥áĪŃ": 4702,
      "ĠáĬłáĮħáī¥": 4703,
      "ĠáĬłáĪľ": 4704,
      "ĠáĬłáī°áīµ": 4705,
      "ĠáĬłáĪĭáĭŃ": 4706,
      "ĠáĬłáī¤áī±": 4707,
      "ĠáĬłáĮłáĮ£": 4708,
      "ĠáĬłáĭĭáīĤ": 4709,
      "ĠáĬłáĪº": 4710,
      "ĠáĬłáĮ¢": 4711,
      "ĠáĬłáī¡áĬķ": 4712,
      "ĠáĬłáĪ°áĪŃ": 4713,
      "ĠáĬłáī§": 4714,
      "ĠáĬłáĪ¨áĭ°": 4715,
      "ĠáĬłáĬĸáĪŃ": 4716,
      "ĠáĬłáĪħáĬĵ": 4717,
      "ĠáĬłáĭĺáĬĲ": 4718,
      "ĠáĬłáĭ©áīµ": 4719,
      "ĠáĬłáĭ¨áĪĢ": 4720,
      "ĠáĬłáĭİáĬķ": 4721,
      "ĠáĬłáĮīáĭµ": 4722,
      "ĠáĬłáĬŃáĪį": 4723,
      "ĠáĬłáĭ±áĪŃ": 4724,
      "ĠáĬłáĪģáĬķ": 4725,
      "ĠáĬłáįĪáĬĽ": 4726,
      "ĠáĬłáĭĭáĮħ": 4727,
      "ĠáĬłáīħáĪŃáī¥": 4728,
      "ĠáĬłáīĢáįĪ": 4729,
      "ĠáĬłáĮİáĭ³áĭį": 4730,
      "Ġáī§": 4731,
      "Ġáī«": 4732,
      "áĪįáīµ": 4733,
      "áĪįáĮĭ": 4734,
      "áĪįáī¡": 4735,
      "áĪįáĪ°áĭį": 4736,
      "áĪįáīĥáĪį": 4737,
      "áĪįáĮĭáĪį": 4738,
      "áĪįáīĢáīħ": 4739,
      "áĪįáīĭáĪį": 4740,
      "áĬķáī°": 4741,
      "áĬķáĮį": 4742,
      "áĬķáīħ": 4743,
      "áĬķáĮħ": 4744,
      "áĬķáīĥáĪį": 4745,
      "áĬķáĮĪáĭµ": 4746,
      "áĬķáĮĥ": 4747,
      "áĬķáĬ³": 4748,
      "áĬķáĮ®": 4749,
      "áĬķáĮĨ": 4750,
      "áĬķáīĢáīħ": 4751,
      "áĬķáĪ³áĪĪáī½": 4752,
      "áĬķáĮŃáīµ": 4753,
      "áĬķáĭ¶áī½": 4754,
      "áīµáĪĭ": 4755,
      "áĪŃáĭ«": 4756,
      "áĪŃáĮ¥": 4757,
      "áĪŃáīĥáĪį": 4758,
      "áĪŃáįĮ": 4759,
      "áĪŃáĭ«áīµ": 4760,
      "áĪŃáĮĭáĮħ": 4761,
      "áĮĪáī°": 4762,
      "áĮĪáĬĲ": 4763,
      "áĮĪáĪĽ": 4764,
      "áĮĪáįĪ": 4765,
      "áĮĪáī½": 4766,
      "áĮĪáĬŃ": 4767,
      "áĮĪáĮĪáĪŃ": 4768,
      "áĮĪáĭ¶": 4769,
      "áĮĪáī°áĬĽ": 4770,
      "áĮĪáĮĢáĪ«": 4771,
      "áĮĪáĮĪáīµ": 4772,
      "áĮĪáĭ³áĪĿ": 4773,
      "áĮĪáī²": 4774,
      "áĮĪáĮīáĪŃ": 4775,
      "áĮĪáĭĺáī¡": 4776,
      "áĮĪáĪ°áĪĪáīµ": 4777,
      "áĭįáĪ®": 4778,
      "áĭįáīĥ": 4779,
      "áĭįáĪ¨áĭµ": 4780,
      "áĭįáĪ©áĬķ": 4781,
      "áĪĪáĪ«": 4782,
      "áĪĪáĭ¨": 4783,
      "áĪĪáĬŃ": 4784,
      "áĪĪáĭĿ": 4785,
      "áĪĪáĮ¨": 4786,
      "áĪĪáī¡": 4787,
      "áĪĪáĬłáįį": 4788,
      "áĪĪáĬłáī¥": 4789,
      "áĪĪáĬķáĮīáĪµ": 4790,
      "áĪĪáĬłáĭįáĪŃ": 4791,
      "áĪĪáĬłáĭŃáĬķ": 4792,
      "áĪĪáĪ´áīµáĬĵ": 4793,
      "áĪĪáĭ³áĪŃ": 4794,
      "áĪĪáĮīáĬķ": 4795,
      "áĪĪáĮ£áĮŃ": 4796,
      "áĪĪáĮ¡áĪĿ": 4797,
      "áĪĪáĭŃáī¶": 4798,
      "áĪĪáįĬáĭ«": 4799,
      "áĪĪáĮ¾áĪĿ": 4800,
      "áĪĪáĪ¨áĭ¥áĪĿ": 4801,
      "áįĶ": 4802,
      "áįĦáĭį": 4803,
      "áĪĿáĪ«": 4804,
      "áĪĿáĪ®": 4805,
      "áĪĿáīĥáĪį": 4806,
      "áĪĿáĭ¬": 4807,
      "áĪĿáĬĲáĮĪáĪŃ": 4808,
      "áĪĿáĮ£áĪį": 4809,
      "áĪĿáĭµáĪŃ": 4810,
      "áĪĿáĮĪáĪĿ": 4811,
      "ĠáĬ¤": 4812,
      "áĭŃáīł": 4813,
      "áĭŃáī³": 4814,
      "áĭŃáĮĪáĪŃ": 4815,
      "áĭŃáīłáĪĭ": 4816,
      "áĭŃáīĥáĪį": 4817,
      "áĭŃáīħáĪŃ": 4818,
      "áĭŃáī¥áĪĭ": 4819,
      "áĭŃáĭĪáī±": 4820,
      "áĪµáĬķ": 4821,
      "áĪµáĪµ": 4822,
      "áĪµáĭ°": 4823,
      "áĪµáįį": 4824,
      "áĪµáī¦": 4825,
      "áĪµáī°áĬĽ": 4826,
      "áĪµáī´": 4827,
      "áĪµáĮĪáī£": 4828,
      "áĪµáīłáĪ¨": 4829,
      "áĪµáĪŁáīµ": 4830,
      "áĪµáĬ¨áĪ¨áĪĿ": 4831,
      "áĭ«áī¥": 4832,
      "áĭ«áĪ«": 4833,
      "áĭ«áĪ½": 4834,
      "áĭ«áĪŀ": 4835,
      "áĭ«áĭĽ": 4836,
      "áĭ«áĬ®": 4837,
      "áĭ«áĮĵ": 4838,
      "áĭ«áīµáĬķ": 4839,
      "áĭ«áĮĪáĪ©": 4840,
      "áĭ«áĭĺáĭį": 4841,
      "áĭ«áĮĪáĭ±": 4842,
      "áĭ«áĭ°áįĪ": 4843,
      "áĭ«áĬ©áĪ«áįĬ": 4844,
      "áĭ«áĪŃáĮĭáĮħ": 4845,
      "áĪĭáĬķ": 4846,
      "áĪĭáįĭ": 4847,
      "áĪĭáĪĪáĭį": 4848,
      "áĪĭáĪĪáīµ": 4849,
      "áĪĭáī³áĪį": 4850,
      "áĪĭáįĬ": 4851,
      "áĪĭáĪľ": 4852,
      "áĪĭáī¸áĭį": 4853,
      "áĪĭáī½áĬķ": 4854,
      "áĪĭáĬķáīº": 4855,
      "áĪĭáĭĪáīĢáĭį": 4856,
      "áĭµáĪµ": 4857,
      "áĭµáī¥": 4858,
      "áĭµáĬĵ": 4859,
      "áĭµáĪī": 4860,
      "áĭµáĮĭ": 4861,
      "áĭµáĪĻ": 4862,
      "áĭµáī£áĪį": 4863,
      "áĭµáĮįáĪŃ": 4864,
      "áĭµáĮĵ": 4865,
      "áĭµáĮĦ": 4866,
      "áĭµáĪĪáĬĿ": 4867,
      "áĭµáĪħáĬĲáīµ": 4868,
      "áĭµáĬĲáĭįáĪĿ": 4869,
      "¨áĪ³": 4870,
      "áīłáĪµ": 4871,
      "áīłáĭ°": 4872,
      "áīłáĪĺ": 4873,
      "áīłáī£": 4874,
      "áīłáĪħ": 4875,
      "áīłáĮį": 4876,
      "áīłáĮĭ": 4877,
      "áīłáĪĭáĪį": 4878,
      "áīłáĮĢ": 4879,
      "áīłáĪ«áĪį": 4880,
      "áīłáĮ¡": 4881,
      "áīłáĪĮ": 4882,
      "áīłáĪ°áĭį": 4883,
      "áīłáĮħáī¥": 4884,
      "áīłáĭ°áĪ¨": 4885,
      "áīłáĬłáĭįáĪŃ": 4886,
      "áīłáĮĢáĭį": 4887,
      "áīłáĭ°áĪĪ": 4888,
      "áīłáĪªáĭ«áĭį": 4889,
      "áīłáĬłáĮİ": 4890,
      "ĠáĭŃáĪ«": 4891,
      "ĠáĭŃáĪī": 4892,
      "ĠáĭŃáįĭ": 4893,
      "ĠáĭŃáĪĪáĭį": 4894,
      "ĠáĭŃáĬŃ": 4895,
      "ĠáĭŃáĪģ": 4896,
      "ĠáĭŃáĬ«": 4897,
      "ĠáĭŃáĪĻ": 4898,
      "ĠáĭŃáĪĪáĪĿ": 4899,
      "ĠáĭŃáĮĪáĭµ": 4900,
      "ĠáĭŃáĪħáĬķ": 4901,
      "ĠáĭŃáĪı": 4902,
      "ĠáĭŃáīĢáĪŃ": 4903,
      "ĠáĭŃáĬ¨áĪŃ": 4904,
      "ĠáĭŃáĮ¥áĪĿ": 4905,
      "ĠáĭŃáĬ¨áĪ°": 4906,
      "ĠáĭŃáĮ¨áĪ": 4907,
      "ĠáĭŃáĪĻáīµ": 4908,
      "ĠáĭŃáĮİáĪŃ": 4909,
      "ĠáĭŃáĬ¸áĭį": 4910,
      "ĠáĭŃáī¥áĪ³": 4911,
      "ĠáĭŃáĬ¨áĪ³áĪį": 4912,
      "ĠáĭŃáī¥áĪ³áĪį": 4913,
      "ĠáĭŃáĪ¨áĭ³áĪį": 4914,
      "ĠáĭŃáĭļáīµ": 4915,
      "ĠáĭŃáĮ¸áĮ¸áī±": 4916,
      "ĠáĮ«": 4917,
      "ĠáĮ»": 4918,
      "ĠáĮ®áĪĽ": 4919,
      "áī¥áĪĿ": 4920,
      "áī¥áĪī": 4921,
      "áī¥áĪĭáĪį": 4922,
      "áī¥áĪħáĬķ": 4923,
      "áī¥áĪĭáĪĿ": 4924,
      "áī¥áĬĽáĪį": 4925,
      "áī¥áĪĢáĪį": 4926,
      "áī¥áĭ°áĭĭáĪį": 4927,
      "áĭ°áĭ°": 4928,
      "áĭ°áī£": 4929,
      "áĭ°áĪ©": 4930,
      "áĭ°áĪª": 4931,
      "áĭ°áī°áĬĽ": 4932,
      "áĭ°áĪ¨áĪ°": 4933,
      "áĭ°áĭĪáĪį": 4934,
      "áĭ°áĪĭáĭį": 4935,
      "áĭ°áįįáĪŃ": 4936,
      "áĭ°áīłáī±": 4937,
      "áĭ°áī£áī£áĭŃ": 4938,
      "áĭ°áĪıáĪį": 4939,
      "áĭ°áĭ°áī¥áĬĿ": 4940,
      "áĪĺáĮĪ": 4941,
      "áĪĺáĬĲ": 4942,
      "áĪĺáĪ©": 4943,
      "áĪĺáĪ±": 4944,
      "áĪĺáĪĻ": 4945,
      "áĪĺáĬĳ": 4946,
      "áĪĺáī·": 4947,
      "áĪĺáĭ´": 4948,
      "áĪĺáĬĽáĪį": 4949,
      "áĪĺáĬ¨áĪ©": 4950,
      "áĪĺáĪ½áĭį": 4951,
      "Ġáĭ«áĭ³": 4952,
      "Ġáĭ«áīħ": 4953,
      "Ġáĭ«áĬĿ": 4954,
      "Ġáĭ«áĭĺ": 4955,
      "Ġáĭ«áĪ¸": 4956,
      "Ġáĭ«áĮĵ": 4957,
      "Ġáĭ«áĪĽáĪį": 4958,
      "Ġáĭ«áīĨ": 4959,
      "Ġáĭ«áĪ¨áĪ°": 4960,
      "Ġáĭ«áĭ¥": 4961,
      "Ġáĭ«áĪ¨áĮį": 4962,
      "Ġáĭ«áĪ°áī¥": 4963,
      "Ġáĭ«áĪ»áĪį": 4964,
      "Ġáĭ«áĮłáĪ«áĪį": 4965,
      "Ġáĭ«áĪ°áĬĿ": 4966,
      "Ġáĭ«áīłáĪĭáĪ½": 4967,
      "Ġáĭ«áĭĺáī½": 4968,
      "Ġáĭ«áīĢáĪĪ": 4969,
      "Ġáĭ«áĮİáĪ¨áĪ°": 4970,
      "Ġáĭ«áī¥áĪī": 4971,
      "ĠáīłáĬĲ": 4972,
      "ĠáīłáĪħ": 4973,
      "Ġáīłáįį": 4974,
      "ĠáīłáĮ£": 4975,
      "ĠáīłáĮħ": 4976,
      "ĠáīłáĪī": 4977,
      "ĠáīłáĪ©": 4978,
      "ĠáīłáĬłáĬķ": 4979,
      "ĠáīłáĭĽ": 4980,
      "ĠáīłáĮ¡": 4981,
      "ĠáīłáįĬ": 4982,
      "ĠáīłáĬĶ": 4983,
      "ĠáīłáĪŃáĪµ": 4984,
      "Ġáīłáī£áĪį": 4985,
      "ĠáīłáĮįáĪŃ": 4986,
      "ĠáīłáĮ¸": 4987,
      "ĠáīłáĪľ": 4988,
      "ĠáīłáīħáĪŃ": 4989,
      "ĠáīłáįĬáīµ": 4990,
      "Ġáīłáī°áĪŃ": 4991,
      "ĠáīłáĮĪáīł": 4992,
      "Ġáīłáī¤áī±": 4993,
      "ĠáīłáĪģáĪĪáīµ": 4994,
      "ĠáīłáĬŃáĪŃ": 4995,
      "ĠáīłáĪĪáĬĿ": 4996,
      "ĠáīłáĪ¨áĮĪ": 4997,
      "ĠáīłáĮ¤": 4998,
      "ĠáīłáĮ£áĪĿ": 4999,
      "Ġáīłáĭĺáĭį": 5000,
      "ĠáīłáĭĿáĬĵáī¥": 5001,
      "ĠáīłáĪ«áĪ±": 5002,
      "ĠáīłáĪĨáĭ±": 5003,
      "Ġáīłáĭ¨áīµ": 5004,
      "ĠáīłáĭµáĪİ": 5005,
      "ĠáīłáĮħáĪ«": 5006,
      "ĠáīłáĮīáĭµ": 5007,
      "ĠáīłáĭĽáįį": 5008,
      "ĠáīłáĬ«áĪ³": 5009,
      "Ġáīłáĭµáįį": 5010,
      "Ġáīłáĭ³áĮĪáīµ": 5011,
      "ĠáīłáĬ®áĬĲ": 5012,
      "ĠáīłáĭĺáĪĺáĭ±": 5013,
      "Ġáīłáĭĵ": 5014,
      "ĠáīłáĪ»áĪ½": 5015,
      "Ġáīłáīĭáīµ": 5016,
      "áĬĵáī±áĬķ": 5017,
      "áĬĵáĬĶ": 5018,
      "áĬĵáīĤ": 5019,
      "áĬĵáī³áĪĿ": 5020,
      "áĬĵáĮłáĪŃ": 5021,
      "áĬĵáĭ°áĭµ": 5022,
      "áĬĵáĮįáĪ©": 5023,
      "áĬĵáĬ¨áĪ±": 5024,
      "áĬĵáĮĪáĪªáĭ«áĭį": 5025,
      "áī°áĮ¥": 5026,
      "áī°áī½": 5027,
      "áī°áī±": 5028,
      "áī°áĭįáĬķ": 5029,
      "áī°áĬ©": 5030,
      "áī°áĪ¸": 5031,
      "áī°áĮİ": 5032,
      "áī°áĪ°áĭį": 5033,
      "áī°áĪĺáĪį": 5034,
      "áī°áĬĵáĪį": 5035,
      "áī°áī·": 5036,
      "áī°áĭ³áĬĽ": 5037,
      "áī°áĪĭáĪĿ": 5038,
      "áī°áĬłáĮį": 5039,
      "áī°áĪĪáĪĽ": 5040,
      "áī°áĭ°áī¥": 5041,
      "áī°áĪ°áī¥": 5042,
      "áī°áĭĿáĬ«áĪŃ": 5043,
      "áī°áĮĪáĬĵáĬĿ": 5044,
      "áī°áĬ©áĪĭ": 5045,
      "áī°áĭµáĪ¨áĭį": 5046,
      "áī°áī°áĬĵáĮĪáĪ¨": 5047,
      "áī°áĪĪáĮ£áĮŃ": 5048,
      "áīĢáĪħ": 5049,
      "áīĢáįį": 5050,
      "áīĢáĪ°": 5051,
      "áīĢáĪ³": 5052,
      "áīĢáī½": 5053,
      "áīĢáĪī": 5054,
      "áīĢáĪİ": 5055,
      "áīĢáĮ£áĪª": 5056,
      "áīĢáīłáĪ®": 5057,
      "áīĢáĪĪáīłáīµ": 5058,
      "áīĢáīłáĪį": 5059,
      "áīĢáīłáĬĽ": 5060,
      "áīĢáī£áĪª": 5061,
      "áīĢáĪ°áĪ°": 5062,
      "áī£áī£": 5063,
      "áī£áĮŃ": 5064,
      "áī£áĭĽ": 5065,
      "áī£áĪħáĭ«": 5066,
      "áī£áĪ«áīĤ": 5067,
      "áī£áĪıáĬķ": 5068,
      "áĪ¨áī°": 5069,
      "áĪ¨áīĢ": 5070,
      "áĪ¨áįĭ": 5071,
      "áĪ¨áįī": 5072,
      "áĪ¨áĭĭáĪį": 5073,
      "áĪ¨áĮ£áĪį": 5074,
      "áĪ¨áī¢": 5075,
      "áĪ¨áī³áĭį": 5076,
      "áĪ¨áĭĪáĪŃ": 5077,
      "áĪ¨áĭĿáĪĿ": 5078,
      "áĪ¨áĮģ": 5079,
      "áĪ¨áīģáīµ": 5080,
      "áĪ¨áī¤áī·áĬķ": 5081,
      "áĪ«áĪŃ": 5082,
      "áĪ«áĬĵ": 5083,
      "Ġáĭ¨áī¸": 5084,
      "Ġáĭ¨áĬĲáĮĪáĪŃ": 5085,
      "Ġáĭ¨áĬ®": 5086,
      "Ġáĭ¨áī£áĪį": 5087,
      "Ġáĭ¨áĭ³áĬĽ": 5088,
      "Ġáĭ¨áĪĿáĪŃ": 5089,
      "Ġáĭ¨áįĬáīµ": 5090,
      "Ġáĭ¨áĭĪáĪį": 5091,
      "Ġáĭ¨áĬłáī£áī¥": 5092,
      "Ġáĭ¨áĬĭ": 5093,
      "Ġáĭ¨áĪįáĮħ": 5094,
      "Ġáĭ¨áĬĲáĮĭ": 5095,
      "Ġáĭ¨áīłáĪĭáĭį": 5096,
      "Ġáĭ¨áĬĲáįį": 5097,
      "Ġáĭ¨áĬłáĮĪ": 5098,
      "Ġáĭ¨áīģáĪĿ": 5099,
      "Ġáĭ¨áī£áĪĪáĮĮ": 5100,
      "Ġáĭ¨áĬłáĬĵáīµ": 5101,
      "Ġáĭ¨áīĢáĬĲ": 5102,
      "Ġáĭ¨áĪµáĮĭ": 5103,
      "Ġáĭ¨áĮ®áĬ¸": 5104,
      "Ġáĭ¨áĭ³áĮĪáīµ": 5105,
      "Ġáĭ¨áĭµáĬķáĮĭáĭŃ": 5106,
      "Ġáĭ¨áĮĪáīłáĭ«": 5107,
      "Ġáĭ¨áĮįáĪį": 5108,
      "Ġáĭ¨áī¤áī·áĬķ": 5109,
      "Ġáĭ¨áī¥áī¥": 5110,
      "Ġáĭ¨áĭįáĪµáĮ¥": 5111,
      "Ġáĭ¨áĪµáĭį": 5112,
      "Ġáĭ¨áĭ«áĭĺáĭį": 5113,
      "Ġáĭ¨áĬĵáī±áĬķ": 5114,
      "áī³áī¥": 5115,
      "áī³áĭĪ": 5116,
      "áī³áĪ³": 5117,
      "áī³áĭĺ": 5118,
      "áī³áĪĪáĪħ": 5119,
      "áī³áĮĪáĬĿ": 5120,
      "áī³áī¸áĭį": 5121,
      "áī³áĮīáĪį": 5122,
      "áī³áĭ¨áĭį": 5123,
      "áī³áĭĪáīĢ": 5124,
      "áī³áĭĪáīħ": 5125,
      "áī³áī£áī±": 5126,
      "áī³áĪ«áīĤ": 5127,
      "áī³áĪĭáīħ": 5128,
      "áī³áĭĿáīłáĭį": 5129,
      "áī³áĪŃáīĥáĪį": 5130,
      "áĬĲáĪµ": 5131,
      "áĬĲáī°": 5132,
      "áĬĲáĬĲ": 5133,
      "áĬĲáįĪ": 5134,
      "áĬĲáĭįáĬķ": 5135,
      "áĬĲáī¡": 5136,
      "áĬĲáĪ°áĭį": 5137,
      "áĬĲáī±áĬķ": 5138,
      "áĬĲáī¥áīµ": 5139,
      "áĬĲáīĢáĪ¨": 5140,
      "áĬĲáĮłáĪ¨": 5141,
      "áĬĲáįĪáĪĪ": 5142,
      "áĬĲáĬŃáĪµ": 5143,
      "áĬĲáĬłáī¶": 5144,
      "áĪħáĪª": 5145,
      "áĪħáīłáīµ": 5146,
      "áĪħáĬĵáīµ": 5147,
      "áĭ³áĭį": 5148,
      "áĭ³áĭµ": 5149,
      "áĭ³áī³": 5150,
      "áĭ³áĪĪáĪħ": 5151,
      "áĭ³áĪĪáĪģ": 5152,
      "áĭ³áįĪáĬķ": 5153,
      "áĭ³áīµáĪĿ": 5154,
      "áĪĽáĮĪ": 5155,
      "áĪĽáĮ£": 5156,
      "áĪĽáĪĽáĪį": 5157,
      "áĪĽáī¸áĭį": 5158,
      "áĪĽáĮłáĪį": 5159,
      "áĪĽáĭĬ": 5160,
      "áĪĽáĪĽáī½": 5161,
      "áĪĽáīĢáīħ": 5162,
      "áĪĽáĪ¨áĪŃ": 5163,
      "áĪĽáĪ«áĪĪáī½": 5164,
      "áĪĽáĪ½áĪĭ": 5165,
      "áĮįáĪĽ": 5166,
      "áĮįáĮ¥": 5167,
      "áĮįáĪª": 5168,
      "áĮįáī¤": 5169,
      "áĮįáĪ¶": 5170,
      "áĮįáĭĻ": 5171,
      "áĮįáĭ«áĭį": 5172,
      "áĮįáĭ°áĪį": 5173,
      "áĮįáĪµáī±": 5174,
      "áĮįáĬĳáīµ": 5175,
      "áĮįáĪĺáĮ¥": 5176,
      "áĮįáīłáĬĿ": 5177,
      "áĮįáĭļáīµ": 5178,
      "áĮįáĬĺáīµ": 5179,
      "áĭĪáįį": 5180,
      "áĭĪáĮł": 5181,
      "áĭĪáĭĿ": 5182,
      "áĭĪáīĥáĪį": 5183,
      "áĭĪáĮĪáĭµ": 5184,
      "áĭĪáīĦ": 5185,
      "áĭĪáĪ¨áĭµ": 5186,
      "áĭĪáīµáĪŃ": 5187,
      "áĭĪáĭ³áĪĪáī½": 5188,
      "áĭĪáĬķáĭĻ": 5189,
      "áīħáī¥": 5190,
      "áīħáįį": 5191,
      "áīħáī¦": 5192,
      "áīħáĪĭáīĤ": 5193,
      "áīħáĭĿáĪĿáĭĿáĪĿ": 5194,
      "áįĪáĬĿ": 5195,
      "áįĪáĮ£áĪª": 5196,
      "áįĪáĪ©áīµ": 5197,
      "áįĪáī³áīµ": 5198,
      "áįĪáĪ¨áĪ°áĬĽ": 5199,
      "áįĪáī°áĬĲ": 5200,
      "áįĪáĮīáīµ": 5201,
      "áįĪáĮħáī¶": 5202,
      "áĮ¥áīħ": 5203,
      "áĮ¥áĮĭ": 5204,
      "áĮ¥áĬłáĬķ": 5205,
      "áĮ¥áĭ¬": 5206,
      "áĮ¥áĮĥ": 5207,
      "áĮ¥áĬĵáĪį": 5208,
      "áĮ¥áįĭáĪį": 5209,
      "áĮ¥áī¼": 5210,
      "áĮ¥áĬĲáĭĭáĪį": 5211,
      "áĮ¥áīĤáīµ": 5212,
      "áĮ¥áĪ¨áī¢áĭ«": 5213,
      "ĠáĬłáĭŃáĮ£": 5214,
      "ĠáĬłáĭŃáĪ³": 5215,
      "ĠáĬłáĭŃáįĭ": 5216,
      "ĠáĬłáĭŃáĬŃ": 5217,
      "ĠáĬłáĭŃáī£áĪį": 5218,
      "ĠáĬłáĭŃáĮĮ": 5219,
      "ĠáĬłáĭŃáĪĨáĬķ": 5220,
      "ĠáĬłáĭŃáĪĦ": 5221,
      "ĠáĬłáĭŃáĭĪáĭ°": 5222,
      "ĠáĬłáĭŃáĭµáĬķ": 5223,
      "ĠáĬłáĭŃáĭĺáĬķ": 5224,
      "ĠáĬłáĭŃáĪĪáīħ": 5225,
      "ĠáĬłáĭŃáĪĻáīµ": 5226,
      "ĠáĬłáĭŃáĮİáĭ³": 5227,
      "ĠáĬłáĭŃáĮ¸áĭµáīħ": 5228,
      "ĠáĬłáĭŃáī°áĪŃáįį": 5229,
      "ĠáĬłáĭŃáĬĳáĬķ": 5230,
      "ĠáĬłáĭŃáĮ¸áĮ¸áī±": 5231,
      "ĠáĬłáĭŃáĪŀáīµáĪĿ": 5232,
      "áįįáĪ«áĪį": 5233,
      "áįįáĪ¨áĭµ": 5234,
      "áĮłáī±": 5235,
      "áĮłáĪ³áĪį": 5236,
      "áĮłáīħáĪĿ": 5237,
      "áĮłáĪªáĭ«": 5238,
      "áĮłáĮ¡áĬķ": 5239,
      "áĮłáīłáĮ¥": 5240,
      "áĮłáĮįáīłáĬĿ": 5241,
      "áĮ£áĪ¬": 5242,
      "áĮ£áĪħáĬķ": 5243,
      "áĮ£áĪ¹": 5244,
      "áĮ£áĭįáĪĿ": 5245,
      "ĠáĪĪáī¥": 5246,
      "ĠáĪĪáĭ¨": 5247,
      "ĠáĪĪáī½": 5248,
      "ĠáĪĪáĪĨ": 5249,
      "ĠáĪĪáīģ": 5250,
      "ĠáĪĪáĬ«": 5251,
      "ĠáĪĪáī¤áīµ": 5252,
      "ĠáĪĪáĭ³áĬĽ": 5253,
      "ĠáĪĪáī£áĪĪ": 5254,
      "ĠáĪĪáĬłáĮħ": 5255,
      "ĠáĪĪáĪĿáĬķ": 5256,
      "ĠáĪĪáĮĪáĬĵ": 5257,
      "ĠáĪĪáĭ¨áĭį": 5258,
      "ĠáĪĪáĪŀáĬĿ": 5259,
      "ĠáĪĪáĪ¹áĪĿ": 5260,
      "ĠáĪĪáĬłáī¥áĭµ": 5261,
      "ĠáĪĪáĮłáī¥": 5262,
      "ĠáĪĪáĬłáĬķáĮ¨áīµ": 5263,
      "ĠáĪĪáī£áĪĪáĮĮ": 5264,
      "ĠáĪĪáĮįáĪĿ": 5265,
      "ĠáĪĪáįįáĮ¥": 5266,
      "ĠáĪĪáĮ¥áĪŃáĪµ": 5267,
      "ĠáĪĪáĪĮáī£": 5268,
      "ĠáĪĪáī¥áĪįáĪħ": 5269,
      "ĠáĪĪáĭįáĪŃ": 5270,
      "ĠáĪĪáī¥áī»": 5271,
      "ĠáĪĪáī£áĪįáĬĵ": 5272,
      "ĠáĪĪáĭįáĮ¥": 5273,
      "ĠáĪĪáĬłáĮįáĭļáĬłáī¥áĪĦáĪŃ": 5274,
      "ĠáĪĪáī¥áĪ³": 5275,
      "ĠáĪĪáĮĪáĬķáįİ": 5276,
      "ĠáĪĪáĮ¥áĬķáīµ": 5277,
      "ĠáĪĪáĮĵáĪ®": 5278,
      "ĠáĪĪáĪ°áĪĽáĭį": 5279,
      "ĠáĪĪáĭĺáĪĭáĪĪáĪĿ": 5280,
      "ĠáĪĪáĮ»áĭµáīĥáĬķ": 5281,
      "ĠáĪĪáĭĭáĬĵ": 5282,
      "ĠáĪĪáĪ¸áĪĽáĭį": 5283,
      "ĠáĪĪáĪ°áĪŃáĭ¶": 5284,
      "ĠáĪĪáĬĲáĬłáī¶": 5285,
      "ĠáĪĺáī£": 5286,
      "ĠáĪĺáĭĪ": 5287,
      "ĠáĪĺáĪ³": 5288,
      "ĠáĪĺáĪĭáĪį": 5289,
      "ĠáĪĺáĮİ": 5290,
      "ĠáĪĺáĪ¶": 5291,
      "ĠáĪĺáī£áĪį": 5292,
      "ĠáĪĺáīĢáĪŃ": 5293,
      "ĠáĪĺáĪŀáīµ": 5294,
      "ĠáĪĺáĬĵáĮĪáĪŃ": 5295,
      "ĠáĪĺáī¼": 5296,
      "ĠáĪĺáī¥áīµ": 5297,
      "ĠáĪĺáī¥áĪį": 5298,
      "ĠáĪĺáĭ°áĮĪ": 5299,
      "ĠáĪĺáĪĦáĭµ": 5300,
      "ĠáĪĺáĪ°áī¥": 5301,
      "ĠáĪĺáĪĭáĬŃ": 5302,
      "ĠáĪĺáĮįáī£": 5303,
      "ĠáĪĺáĬĸáĪŃ": 5304,
      "ĠáĪĺáĮ¨áĭĪ": 5305,
      "ĠáĪĺáĮ¨áĪ": 5306,
      "ĠáĪĺáĪĭáĪĭ": 5307,
      "ĠáĪĺáĪ³áĪ³áīµ": 5308,
      "ĠáĪĺáī³áīµ": 5309,
      "ĠáĪĺáīĢáĪĺáĮ¥": 5310,
      "ĠáĪĺáĭ³áĬķ": 5311,
      "ĠáĪĺáĪĿáĬ¨áĪŃ": 5312,
      "ĠáĪĺáĭ³áī¥": 5313,
      "ĠáĪĺáĮ¸áĪĢáįį": 5314,
      "ĠáĪĺáĮ«áĬĽ": 5315,
      "ĠáĪĺáĭ«áĭĿ": 5316,
      "ĠáĪĺáĬĲáĬ®": 5317,
      "ĠáĪĺáĮĵáĮĵáī±áĬķ": 5318,
      "ĠáĪĺáĪ¨áī¥": 5319,
      "ĠáĪĺáĮ£áĪįáĪħ": 5320,
      "ĠáĪĺáĪĦáĮĥ": 5321,
      "áĪ°áĪĪ": 5322,
      "áĪ°áīł": 5323,
      "áĪ°áĬĵ": 5324,
      "áĪ°áī³": 5325,
      "áĪ°áĭ¶": 5326,
      "áĪ°áĭĭáĪį": 5327,
      "áĪ°áĪªáĭ«áĭį": 5328,
      "áĪ°áĬ«áĪ«áĪĿ": 5329,
      "áĪ°áĭ³áīµ": 5330,
      "áĪ³áĭį": 5331,
      "áĪ³áī±": 5332,
      "áĪ³áĪ±": 5333,
      "ĠáĬ¨áĪĭ": 5334,
      "ĠáĬ¨áĮħ": 5335,
      "ĠáĬ¨áĬĽ": 5336,
      "ĠáĬ¨áĮī": 5337,
      "ĠáĬ¨áĮŃ": 5338,
      "ĠáĬ¨áīłáĪĭ": 5339,
      "ĠáĬ¨áī¦": 5340,
      "ĠáĬ¨áįİ": 5341,
      "ĠáĬ¨áĬĵáīµ": 5342,
      "ĠáĬ¨áĭ³áĬĽ": 5343,
      "ĠáĬ¨áĪĿáĪŃ": 5344,
      "ĠáĬ¨áĪĭáĪĿ": 5345,
      "ĠáĬ¨áĬłáĬķáĭµ": 5346,
      "ĠáĬ¨áĪĿáĬķ": 5347,
      "ĠáĬ¨áįĪáĪµ": 5348,
      "ĠáĬ¨áĭ°áī¥": 5349,
      "ĠáĬ¨áīłáĪĭáĭį": 5350,
      "ĠáĬ¨áīĢáĪ¨": 5351,
      "ĠáĬ¨áĭĺáĪĺ": 5352,
      "ĠáĬ¨áĭ«áĭĺ": 5353,
      "ĠáĬ¨áīłáĪī": 5354,
      "ĠáĬ¨áĭįáĪŃ": 5355,
      "ĠáĬ¨áīłáīµáĪŃ": 5356,
      "ĠáĬ¨áĮĪáĬķáįİ": 5357,
      "ĠáĬ¨áĮĪáīłáĭ«": 5358,
      "ĠáĬ¨áĭĺáĪĺáĭ±": 5359,
      "ĠáĬ¨áĭļáĭ«": 5360,
      "ĠáĬ¨áī³áī½": 5361,
      "ĠáĬ¨áĭĺáĬķáĭ¶": 5362,
      "ĠáĬ¨áĭįáĭµáĪĽ": 5363,
      "áĬĿáī¶": 5364,
      "áĬĿáī³áĭį": 5365,
      "áĭ¨áĬķ": 5366,
      "áĭ¨áĮĪ": 5367,
      "áĭ¨áĭ¨": 5368,
      "áĭ¨áī½": 5369,
      "áĭ¨áĭĺ": 5370,
      "áĭ¨áĭĭ": 5371,
      "áĭ¨áīĥ": 5372,
      "áĭ¨áĮİ": 5373,
      "áĭ¨áĪĪáĪĿ": 5374,
      "áĭ¨áĬłáĪħáĭ«": 5375,
      "áĭ¨áĮħáī¥": 5376,
      "áĭ¨áĬłáįį": 5377,
      "áĭ¨áĪĭáĪĿ": 5378,
      "áĭ¨áĬłáĪ³": 5379,
      "áĭ¨áĭĺáĪĺáĭµ": 5380,
      "áĭ¨áĬłáĪħáĪį": 5381,
      "áĭ¨áįĮ": 5382,
      "áĭ¨áįĪáĪµ": 5383,
      "áĭ¨áī°áĪĺ": 5384,
      "áĭ¨áĪĪáīł": 5385,
      "áĭ¨áĭĿáĬķáĮĢáĪ®": 5386,
      "áĭ¨áĮīáĭµ": 5387,
      "áĭ¨áĬłáī£áĭŃáĬķ": 5388,
      "áĭ¨áĭµáįį": 5389,
      "áĭ¨áĮĪáīłáĭ«": 5390,
      "áĭ¨áĪĪáĪĽáĬĿ": 5391,
      "áĭ¨áĭ°áĬķ": 5392,
      "áĭ¨áĬĭáīµ": 5393,
      "áĭ¨áĪĭáĮŃáĬķ": 5394,
      "áĭ¨áįĸáĪĬáĪµ": 5395,
      "áĭ¨áĭ°áĪĭáĭį": 5396,
      "áĮħáĪĿáĪŃ": 5397,
      "ĠáĬĲáĬķ": 5398,
      "ĠáĬĲáĪħ": 5399,
      "ĠáĬĲáī½": 5400,
      "ĠáĬĲáĮŃ": 5401,
      "ĠáĬĲáĪĥ": 5402,
      "ĠáĬĲáĮİáĭ³": 5403,
      "ĠáĬĲáĮĪáĪ¨áĬĽ": 5404,
      "ĠáĬĲáīĢáĪĪ": 5405,
      "ĠáĬĲáĬ«áĪ½": 5406,
      "ĠáĬĲáĮłáĪĭ": 5407,
      "ĠáĬĲáĪ³áĭį": 5408,
      "áĪ½áī¥áĬĿ": 5409,
      "áĪĢáĪĿ": 5410,
      "áĪĢáī±": 5411,
      "áĪĢáĪ´": 5412,
      "áĪĢáĪĪáĪģ": 5413,
      "áĪīáĪĿ": 5414,
      "áĪīáĪ½": 5415,
      "áĪīáĪ½áĬķ": 5416,
      "ĠáĪ²áĭĺ": 5417,
      "ĠáĪ²áĪĪáĭį": 5418,
      "ĠáĪ²áĪ¸": 5419,
      "ĠáĪ²áī£áĪį": 5420,
      "ĠáĪ²áīĭ": 5421,
      "ĠáĪ²áĪ°áĪĽ": 5422,
      "ĠáĪ²áĭĪáĭ°": 5423,
      "ĠáĪ²áĪıáīµ": 5424,
      "ĠáĪ²áĭĪáĪį": 5425,
      "ĠáĪ²áĮłáĮ£": 5426,
      "ĠáĪ²áĪ¨áĮį": 5427,
      "ĠáĪ²áī³áĮł": 5428,
      "ĠáĪ²áĪĺáī³": 5429,
      "ĠáĪ²áĪŀáĪĭ": 5430,
      "ĠáĪ²áĪµáīħ": 5431,
      "ĠáĪ²áĭ³áĪĭ": 5432,
      "ĠáĪ²áĪ¸áĪ½": 5433,
      "ĠáĪ²áĬ®áĪ«": 5434,
      "ĠáĪ²áĪĺáī±áīµ": 5435,
      "ĠáĪ²áĮİáĭµáĪį": 5436,
      "ĠáĪ²áĪ¨áĭ³áĭ³": 5437,
      "ĠáĪ²áĪĪáĮįáĪĿ": 5438,
      "ĠáĪ²áĭŃáĭĻ": 5439,
      "ĠáĪ²áĭµáĮ¥": 5440,
      "ĠáĪ²áĭ³áĪ©": 5441,
      "ĠáĪ²áĮ®áĪħ": 5442,
      "ĠáĪ²áĪ³áĪ±": 5443,
      "Ġáī¢áīł": 5444,
      "Ġáī¢áĪĺ": 5445,
      "Ġáī¢áĬĵ": 5446,
      "Ġáī¢áĭĪ": 5447,
      "Ġáī¢áĭĭ": 5448,
      "Ġáī¢áīĨ": 5449,
      "Ġáī¢áĬĵáĮĪáĪŃ": 5450,
      "Ġáī¢áĪĺáĪĪ": 5451,
      "Ġáī¢áĪĺáĮ£": 5452,
      "Ġáī¢áĭĪáĪŃ": 5453,
      "Ġáī¢áĪĪáīħ": 5454,
      "Ġáī¢áĪ°áĪŃ": 5455,
      "Ġáī¢áĪ¨áĪ³": 5456,
      "Ġáī¢áĬĸáĪŃ": 5457,
      "Ġáī¢áĬ¨áįĭ": 5458,
      "Ġáī¢áĬ¨áįį": 5459,
      "Ġáī¢áĮ£áĪī": 5460,
      "Ġáī¢áĪ®áĮ¥": 5461,
      "Ġáī¢áįĪáĪ©": 5462,
      "Ġáī¢áĪ³áĪ³": 5463,
      "Ġáī¢áĪ¨áĭ³áĭ³": 5464,
      "Ġáī¢áĬĲáĮįáĪ©áīµ": 5465,
      "Ġáī¢áĭ°áĮĭáĮĪáįį": 5466,
      "Ġáī¢áĪ¨áĭĿáĪĿ": 5467,
      "Ġáī¢áĭ³áįĪáĬķ": 5468,
      "Ġáī°áĭį": 5469,
      "Ġáī°áĭĺ": 5470,
      "Ġáī°áĬŃ": 5471,
      "Ġáī°áĮĪáĬķ": 5472,
      "Ġáī°áīĨ": 5473,
      "Ġáī°áĬ¨áĪ«": 5474,
      "Ġáī°áĭĪáĪį": 5475,
      "Ġáī°áĪ¨áīµ": 5476,
      "Ġáī°áĭ°áĮį": 5477,
      "Ġáī°áĪĺáĪĪáĪµ": 5478,
      "Ġáī°áĮĪáĬĵáĬĿ": 5479,
      "Ġáī°áĬ©áĪĭ": 5480,
      "Ġáī°áĭ³áī¥": 5481,
      "Ġáī°áĮįáĪĺáĪį": 5482,
      "Ġáī°áĪ¹áĪŀ": 5483,
      "Ġáī°áĪĺáĪĪáĪº": 5484,
      "Ġáī°áĪĿáĪ«": 5485,
      "áĮĭáĬķ": 5486,
      "áĮĭáī£": 5487,
      "áĮĭáĪļ": 5488,
      "áĮĭáĮłáĮ¥": 5489,
      "Ġáĭ¨áĪ¨": 5490,
      "Ġáĭ¨áĪ»": 5491,
      "Ġáĭ¨áĪ½": 5492,
      "ĠáĬłáĮĪáĬĵ": 5493,
      "ĠáĬłáĮĪáĮ¨": 5494,
      "ĠáĬłáĮĪáī¦": 5495,
      "ĠáĬłáĮĪáĭ²": 5496,
      "ĠáĬłáĮĪáĬ³": 5497,
      "ĠáĬłáĮĪáĮ¨áīµ": 5498,
      "ĠáĬłáĮĪáĪĺáĬĿ": 5499,
      "ĠáĬłáĮĪáĭ¶áĭµ": 5500,
      "ĠáĬłáĮĪáĮĪáĬĵáĬĿ": 5501,
      "ĠáĬłáĮĪáĮ£áĮ¥": 5502,
      "ĠáĬłáĮĪáīħáĪŃáīµ": 5503,
      "ĠáĬłáĮĪáīłáĮ£": 5504,
      "ĠáĬłáĮĪáĮ¥áįĭáĪį": 5505,
      "ĠáĭĪáĮĪ": 5506,
      "ĠáĭĪáĪµ": 5507,
      "ĠáĭĪáĪĢ": 5508,
      "ĠáĭĪáĭĺ": 5509,
      "ĠáĭĪáĮĪáĭµ": 5510,
      "ĠáĭĪáĮĪáī¥": 5511,
      "ĠáĭĪáĪ¨áīħ": 5512,
      "ĠáĭĪáĪĪáī£": 5513,
      "ĠáĭĪáĮĪáĭĿ": 5514,
      "ĠáĭĪáī¥áĪ«": 5515,
      "ĠáĭĪáĬĵáįį": 5516,
      "ĠáĭĪáĬķáįĬáīµ": 5517,
      "ĠáĭĪáĪ«áĪª": 5518,
      "ĠáĭĪáĪ¨áĭ°áī½": 5519,
      "ĠáĭĪáĪ°áĭ³áīµ": 5520,
      "áĭĺáįį": 5521,
      "áĭĺáĪĻ": 5522,
      "áĭĺáĬĶ": 5523,
      "áĭĺáĬĳ": 5524,
      "áĭĺáĪĪáĭįáĪĿ": 5525,
      "áĭĺáĪĿáī¶": 5526,
      "áĭĺáīłáĭĿ": 5527,
      "áĭĺáĪĪáĪī": 5528,
      "áĭĺáī£áĪ«áīĤ": 5529,
      "áĪ®áīµ": 5530,
      "áĪ®áĪŃ": 5531,
      "áĭĭáĮ£": 5532,
      "áĭĭáĪ½": 5533,
      "áĭĭáī±": 5534,
      "áĭĭáĪª": 5535,
      "áĭĭáĮŃ": 5536,
      "áĭĭáĪ¨áĭµ": 5537,
      "áĭĭáĪŃáĭ«áīµ": 5538,
      "áĬĽáīµ": 5539,
      "áĬĽáĪĿ": 5540,
      "áĬ¨áīģ": 5541,
      "áĬ¨áī°áĬĽ": 5542,
      "áĬ¨áīłáĪŃ": 5543,
      "áĬ¨áĬłáįį": 5544,
      "áĬ¨áĬ«áĪį": 5545,
      "áĬ¨áĭĿáĬķáĮĢáĪ®": 5546,
      "áĬ¨áī°áī°": 5547,
      "áĬ¨áĬĲáĮĪáĪ©": 5548,
      "áĬ¨áĮĪáĪĻ": 5549,
      "áįĭáĬķ": 5550,
      "áįĭáĮŃ": 5551,
      "ĠáĪįáīł": 5552,
      "ĠáĪįáīĢ": 5553,
      "ĠáĪįáīĥ": 5554,
      "ĠáĪįáĭ©": 5555,
      "ĠáĪįáĪĽáīµ": 5556,
      "ĠáĪįáĪĻáīµ": 5557,
      "ĠáĪįáĮĤáĬķ": 5558,
      "ĠáĪįáĮĨáī¹": 5559,
      "áĭ¨áĪľáĭ³": 5560,
      "áĭ¨áĪİáĪĮ": 5561,
      "áĭ¨áĪ¨áĮĭ": 5562,
      "áĭ¨áĪ©áĪ³": 5563,
      "ĠáĬłáĬķáī±": 5564,
      "ĠáĬłáĬķáĭ´": 5565,
      "ĠáĬłáĬķáĭ²áĭ«": 5566,
      "ĠáĬłáĬķáĭ·": 5567,
      "ĠáĬłáĬķáĮĢáīµ": 5568,
      "ĠáĬłáĬķáīĢáĪĭáįĭ": 5569,
      "ĠáĬłáĬķáī§áĭŃ": 5570,
      "Ġáī£áįį": 5571,
      "Ġáī£áįī": 5572,
      "Ġáī£áĮĪáĭµ": 5573,
      "Ġáī£áįĪáĪŃ": 5574,
      "Ġáī£áĮ¥áĪŃ": 5575,
      "Ġáī£áĪıáĬķ": 5576,
      "Ġáī£áīħáįĭáīµ": 5577,
      "Ġáī£áĮĪáĭ°áĭ°": 5578,
      "Ġáī£áĮĪáĪ«áī½áĬķ": 5579,
      "Ġáī¥áĪµ": 5580,
      "Ġáī¥áĪ«": 5581,
      "Ġáī¥áĭ¨": 5582,
      "Ġáī¥áĬĲáĮį": 5583,
      "Ġáī¥áĪµáĪį": 5584,
      "Ġáī¥áĭĽáīµ": 5585,
      "áĬŃáĪħ": 5586,
      "áĬŃáĪĭáĪį": 5587,
      "áĬŃáĬĸ": 5588,
      "áĬŃáĪ²": 5589,
      "áĬŃáĬŃáĪŃ": 5590,
      "áĬŃáīµáĪĿ": 5591,
      "áĬŃáī¶áįĭ": 5592,
      "áĮĪáĪŃáĪĿ": 5593,
      "áĪ©áĮ¥": 5594,
      "áĪ©áĭĭáĪį": 5595,
      "ĠáĪĿáī³": 5596,
      "ĠáĪĿáī½": 5597,
      "ĠáĪĿáĪ½": 5598,
      "ĠáĪĿáĬĳ": 5599,
      "ĠáĪĿáĬŃáĪ©": 5600,
      "ĠáĪĿáĭĺáĭĿ": 5601,
      "ĠáĪĿáī³áīµ": 5602,
      "ĠáĪĿáĬŃáĮĪ": 5603,
      "ĠáĪĿáĮįáī£áĪŃ": 5604,
      "ĠáĪĿáĪĭáĪ±": 5605,
      "ĠáĪĿáīĢáĬĽ": 5606,
      "áīĥáĭĭáĪį": 5607,
      "áīĥáĮłáĪį": 5608,
      "áīĥáīĢáĪī": 5609,
      "áĭĿáĪŃ": 5610,
      "áĭĿáĪ«": 5611,
      "áĭĿáĮį": 5612,
      "áĭĿáī¶": 5613,
      "ĠáĮĪáĮį": 5614,
      "ĠáĮĪáĭĽ": 5615,
      "ĠáĮĪáĬĲáīµ": 5616,
      "ĠáĮĪáĬĺ": 5617,
      "ĠáĮĪáĪ«áĪĿ": 5618,
      "ĠáĮĪáĭ¥": 5619,
      "ĠáĮĪáĭ°áī¥": 5620,
      "ĠáĮĪáĭ°áĪĪ": 5621,
      "ĠáĮĪáįįáĮ¥": 5622,
      "ĠáĮĪáĮĭáīµ": 5623,
      "ĠáĮĪáī¦áī½": 5624,
      "ĠáĮĪáĬĲáīµáĬķ": 5625,
      "ĠáĮĪáĬĲáįĪáĪĪ": 5626,
      "ĠáĪ°áĬķ": 5627,
      "ĠáĪ°áĬĽ": 5628,
      "ĠáĪ°áĪª": 5629,
      "ĠáĪ°áī£áīµ": 5630,
      "ĠáĪ°áįĪáĪŃ": 5631,
      "ĠáĪ°áĮĪáĪ©": 5632,
      "ĠáĪ°áĬĲáįį": 5633,
      "ĠáĪ°áĭİ": 5634,
      "ĠáĪ°áī£áĪª": 5635,
      "ĠáĪ°áĬĵáįį": 5636,
      "ĠáĪ°áĮĪáįĭ": 5637,
      "ĠáĪ°áĬ«áĪ«áĪĿ": 5638,
      "áĪ»áĪħ": 5639,
      "áĪ»áĪ¹": 5640,
      "áĪ»áĪĪáĭįáĬķ": 5641,
      "ĠáīĢáĪĿ": 5642,
      "ĠáīĢáĪª": 5643,
      "ĠáīĢáī¡": 5644,
      "ĠáīĢáĬĳ": 5645,
      "ĠáīĢáīłáĪŃ": 5646,
      "ĠáīĢáĮ£áĪª": 5647,
      "ĠáīĢáī¡áĬķ": 5648,
      "ĠáīĢáĭµáĪŀ": 5649,
      "ĠáīĢáī£áĪª": 5650,
      "ĠáīĢáĪŃáĪ¶": 5651,
      "ĠáīĢáĭ°áĪĺ": 5652,
      "ĠáīĢáīłáĮ¥": 5653,
      "ĠáīĢáĬĳáĬķ": 5654,
      "ĠáīĢáīłáĭĿ": 5655,
      "ĠáīĢáĪĺáĪ½": 5656,
      "ĠáīĢáĪįáīĢ": 5657,
      "ĠáīĢáĪļáĪµ": 5658,
      "ĠáīĢáĬĵáī°áĬĽ": 5659,
      "ĠáīĢáĬĿáĬĵ": 5660,
      "ĠáīĢáīłáĪĮ": 5661,
      "ĠáĪĽáĮ£": 5662,
      "ĠáĪĽáĭ°áĪŃ": 5663,
      "ĠáĪĽáĪĺáĬķ": 5664,
      "ĠáĪĽáĪĽáīµ": 5665,
      "ĠáĪĽáĭ°áĮį": 5666,
      "ĠáĪĽáĪ°áĪŃ": 5667,
      "ĠáĪĽáĪĭáĮħ": 5668,
      "ĠáĪĽáĪ¨áĪ»": 5669,
      "ĠáĪĽáī¥áĪĭáīµ": 5670,
      "ĠáĪĽáĪ½áĪĭ": 5671,
      "ĠáĪĽáĭĭáĪµ": 5672,
      "ĠáĪĽáįĭáĬĿ": 5673,
      "ĠáĪĽáĮīáĪ¨áĪµ": 5674,
      "ĠáĪĽáĪĪáĭ³": 5675,
      "áĬłáĬķáī±": 5676,
      "áĬłáĬķáīĥ": 5677,
      "áĬłáĬķáĭ³áĪį": 5678,
      "áĬłáĬķáĮĪáīµ": 5679,
      "áĬłáĬķáī°áĪĿ": 5680,
      "áĬłáĬķáĬ«áĪ³": 5681,
      "áĬłáĬķáī¥áĭĽáĪĿ": 5682,
      "áĬłáĬķáĪµáĪ«áĭĭáĬķ": 5683,
      "ĠáĭįáĪį": 5684,
      "ĠáĭįáĪĭ": 5685,
      "Ġáĭįáĭµ": 5686,
      "ĠáĭįáĪ¸áīµ": 5687,
      "ĠáĭįáĪĥ": 5688,
      "ĠáĭįáĪ¨áĮħ": 5689,
      "ĠáĭįáĭµáĪĽ": 5690,
      "áĪŀáĮ¥": 5691,
      "áĪŀáī½": 5692,
      "áĪŀáī±": 5693,
      "áĪŀáī°áĭį": 5694,
      "áĪŀáī¹": 5695,
      "áĪİáĪµ": 5696,
      "ĠáĬłáĪĪáīĢ": 5697,
      "ĠáĬłáĪĪáīģ": 5698,
      "ĠáĬłáĪĪáī£áĪį": 5699,
      "ĠáĬłáĪĪáī¥áĪµ": 5700,
      "ĠáĬłáĪĪáĮ¥áĪŃáĪµ": 5701,
      "ĠáĬłáĪĪáĭĪáĬķáĭµ": 5702,
      "ĠáĬłáĪĪáīħáĪĭáīĤ": 5703,
      "áĪ¬áĭį": 5704,
      "áĪ¬áĭĽ": 5705,
      "áĮīáĭĻ": 5706,
      "áĪĨáĮĪ": 5707,
      "áĪĨáĭ°": 5708,
      "áĪĨáĪĨ": 5709,
      "áĪĨáĬĳ": 5710,
      "áīģáĪĭ": 5711,
      "áīģáĬĵ": 5712,
      "áīģáįį": 5713,
      "áīģáī±áĬķ": 5714,
      "áīģáĮŃáīµáĬĵ": 5715,
      "áĮ¨áīł": 5716,
      "áĮ¨áĭĭ": 5717,
      "áĮ¨áĭ¬": 5718,
      "áĮ¨áĭĭáĪį": 5719,
      "áĮ¨áĮįáĪĽ": 5720,
      "ĠáĬ«áĬķ": 5721,
      "ĠáĬ«áĪŃ": 5722,
      "ĠáĬ«áĮĪ": 5723,
      "ĠáĬ«áĭ«": 5724,
      "ĠáĬ«áī¥": 5725,
      "ĠáĬ«áĪĽ": 5726,
      "ĠáĬ«áįī": 5727,
      "ĠáĬ«áī£áīµ": 5728,
      "ĠáĬ«áĪĺáĭµ": 5729,
      "ĠáĬ«áĮ¥áĪŃ": 5730,
      "ĠáĬ«áĭ¨áĭį": 5731,
      "ĠáĬ«áĪĪáīł": 5732,
      "ĠáĬ«áī£áī±": 5733,
      "ĠáĬ«áīłáĭ°áĪŃ": 5734,
      "ĠáĬ«áĬķáĮĪáīµ": 5735,
      "ĠáĬ«áĪ»áĪ®": 5736,
      "ĠáĬ«áĪ®áīµ": 5737,
      "áīłáīµáĪĿ": 5738,
      "ĠáĬłáĭ«áĮĪ": 5739,
      "ĠáĬłáĭ«áįį": 5740,
      "ĠáĬłáĭ«áĮł": 5741,
      "ĠáĬłáĭ«áĭĿ": 5742,
      "ĠáĬłáĭ«áĪĪáī½": 5743,
      "ĠáĬłáĭ«áĭ©": 5744,
      "ĠáĬłáĭ«áĮĪáĬĿ": 5745,
      "ĠáĬłáĭ«áīħáĪĿ": 5746,
      "ĠáĬłáĭ«áĪįáīħ": 5747,
      "ĠáĬłáĭ«áįįáĪŃ": 5748,
      "ĠáĬłáĭ«áĭ°áĪĿ": 5749,
      "ĠáĬłáĭ«áī£áĪ«": 5750,
      "ĠáĬłáĭ«áĬ©áĪĿ": 5751,
      "ĠáĬłáĭ«áĭŃáĪĿ": 5752,
      "ĠáĬłáĭ«áĪĿáĪŃáĪĿ": 5753,
      "ĠáĬłáĭ«áĭ°áīħ": 5754,
      "ĠáĬłáĭ«áĮĪáī¡áĪĿ": 5755,
      "ĠáĬłáĭ«áĭµáĬĲáĭįáĪĿ": 5756,
      "Ġáīµáīł": 5757,
      "ĠáīµáĬĵ": 5758,
      "ĠáīµáīĢ": 5759,
      "ĠáīµáįĪ": 5760,
      "ĠáīµáĪĪáĭį": 5761,
      "ĠáīµáĮ¸": 5762,
      "ĠáīµáĪĦ": 5763,
      "Ġáīµáĭ°áĪ¨": 5764,
      "ĠáīµáĪĺáĪĪ": 5765,
      "Ġáīµáī¼": 5766,
      "ĠáīµáĪ°áĪ«": 5767,
      "ĠáīµáĪŃáįį": 5768,
      "ĠáīµáĬ¨áĪį": 5769,
      "ĠáīµáĪĺáĪ«": 5770,
      "Ġáīµáī³áĮł": 5771,
      "ĠáīµáĭįáĪį": 5772,
      "ĠáīµáĪĺáī³": 5773,
      "ĠáīµáĪŀáĪĭ": 5774,
      "ĠáīµáĭĪáĪįáĭµ": 5775,
      "ĠáīµáĪĭáĪĪáī½": 5776,
      "ĠáīµáĬŃáĪį": 5777,
      "ĠáīµáīĢáĪĿ": 5778,
      "ĠáīµáĪĽáĪ«áĪĪáī½": 5779,
      "ĠáīµáĭĪáĭ³áĪĪáī½": 5780,
      "áĮŃáĪĭ": 5781,
      "áĮŃáĪ°áĬĽ": 5782,
      "áī¤áĬłáĪĪ": 5783,
      "áī¤áī·": 5784,
      "ĠáĪµáĪµ": 5785,
      "ĠáĪµáĪ±": 5786,
      "ĠáĪµáī¦": 5787,
      "ĠáĪµáĮłáĬĿ": 5788,
      "ĠáĪµáĭ°áĭµ": 5789,
      "ĠáĪµáĭįáĪŃ": 5790,
      "ĠáĪµáĭ°áĭ±": 5791,
      "ĠáĪµáĮ¡áĬĿ": 5792,
      "ĠáĪµáĭ°áīłáĭį": 5793,
      "ĠáĪµáĭµáī¥": 5794,
      "áĪ±áĪĿ": 5795,
      "áĪ±áĪħ": 5796,
      "áĪ±áĪ±": 5797,
      "áĭ¶áĪĭ": 5798,
      "áĭĽáĬĿ": 5799,
      "áĭĽáįī": 5800,
      "ĠáĬ¨áĪ¨": 5801,
      "ĠáĬ¨áĪ¸": 5802,
      "ĠáĬ¨áĪģ": 5803,
      "ĠáĬ¨áĪħ": 5804,
      "áĪģáĪį": 5805,
      "áĪģáĬĳ": 5806,
      "áĪģáĪĭáī½áĪģ": 5807,
      "áĬ«áī½": 5808,
      "áĬ«áĪª": 5809,
      "áĬ«áĪĭáīµ": 5810,
      "áĬ«áĪĪáīĢ": 5811,
      "áĬ«áĬ¤áĪį": 5812,
      "áĬ«áĬķáĮĢáīµ": 5813,
      "áĬ«áĪ¨áĮģ": 5814,
      "ĠáĪ³áĪŃ": 5815,
      "ĠáĪ³áĪ©": 5816,
      "ĠáĪ³áĪĪáĪħ": 5817,
      "ĠáĪ³áī³áĭįáīħ": 5818,
      "ĠáĪ³áĭ«áĭįáīĢáĭį": 5819,
      "ĠáĪ³áĮĪáī²": 5820,
      "ĠáĪįáĮħáĬĵ": 5821,
      "ĠáĪįáĮħáĭĭ": 5822,
      "ĠáĪįáĮħáĬĲáīµ": 5823,
      "áĮĢáĮį": 5824,
      "áĮĢáī±": 5825,
      "áĮĢáĪģ": 5826,
      "áĮĢáī½áĭį": 5827,
      "áĮĢáĪĿáĪ®": 5828,
      "ĠáĮ¥áĮ¥": 5829,
      "ĠáĮ¥áĬĳ": 5830,
      "ĠáĮ¥áĪĽáīµ": 5831,
      "ĠáĮ¥áįįáĪŃ": 5832,
      "ĠáĮ¥áĪ«áĭį": 5833,
      "ĠáĮ¥áĮĨáī¹": 5834,
      "áĬ¨áĪ½": 5835,
      "áĬ¨áĪĻ": 5836,
      "áĬ©áĬķ": 5837,
      "áĬ©áĪ½áĪĿ": 5838,
      "áĬ©áĪĪáīĢáĬķ": 5839,
      "ĠáĪĭáĪį": 5840,
      "ĠáĪĭáī£": 5841,
      "ĠáĪĭáĮ£": 5842,
      "ĠáĪĭáĪĺáĭµ": 5843,
      "ĠáĪĭáĭ©": 5844,
      "ĠáĪĭáĮ£áĪª": 5845,
      "ĠáĪĭáĭ«áĪįáįį": 5846,
      "ĠáĪĭáĮĪáīłáĪ³": 5847,
      "ĠáĪĭáįĪáĬĽ": 5848,
      "ĠáĪĭáĪĬáīłáĪĭ": 5849,
      "ĠáĪĭáĭĭáĭŃ": 5850,
      "ĠáĪĭáĪĭáĭĪáīĢáĭį": 5851,
      "ĠáĪĭáīłáĭ°áĪ¨": 5852,
      "áĮ¡áĬĽáĪį": 5853,
      "áĮ¡áĪįáĬĿ": 5854,
      "áĪĪáīµáĬĭáĬķ": 5855,
      "ĠáĭµáĪĿ": 5856,
      "ĠáĭµáĮįáĪŃ": 5857,
      "ĠáĭµáĪµáīµ": 5858,
      "ĠáĭµáĪ¨áĪµ": 5859,
      "ĠáĭµáĪįáĪħ": 5860,
      "ĠáĭµáĮįáĪµ": 5861,
      "ĠáĭµáĮīáĪ±áĬķ": 5862,
      "ĠáĭµáĭįáĪ©áĬķ": 5863,
      "ĠáĮłáī¥": 5864,
      "ĠáĮłáįĭ": 5865,
      "ĠáĮłáĪĭáĭį": 5866,
      "ĠáĮłáīħáĪİ": 5867,
      "ĠáĮłáĬķáīģ": 5868,
      "ĠáĮłáĭŃáī¥": 5869,
      "ĠáĮłáĭ«áīĤ": 5870,
      "áĪ¸áĪį": 5871,
      "áĪ¸áĪ¹áĪĿ": 5872,
      "áĪ¸áĮįáĪĿ": 5873,
      "áĪ¸áįĴ": 5874,
      "áĪ¸áĪ¸áĮĪ": 5875,
      "áĮİáĪŃáĪµ": 5876,
      "áĮİáī»": 5877,
      "Ġáĭ°áĪŃ": 5878,
      "Ġáĭ°áĮĪ": 5879,
      "Ġáĭ°áĪµ": 5880,
      "Ġáĭ°áĮħ": 5881,
      "Ġáĭ°áĪ¨áīµ": 5882,
      "Ġáĭ°áįĭáĪŃ": 5883,
      "Ġáĭ°áĬĲáīĢáĪ¨": 5884,
      "áĪĮáĬķ": 5885,
      "áĪĮáĪĿ": 5886,
      "Ġáĭĺáįį": 5887,
      "ĠáĭĺáĭĪáĪŃ": 5888,
      "ĠáĭĺáĪŃáī¶": 5889,
      "ĠáĭĺáīłáĬĽ": 5890,
      "ĠáĭĺáĪĽáī½": 5891,
      "ĠáĭĺáĬ¬": 5892,
      "ĠáĭĺáĪĭáĪĪáĪĿ": 5893,
      "ĠáĭĺáīłáĬĵ": 5894,
      "Ġáĭ«áĪĪáĬķ": 5895,
      "Ġáĭ«áĪĪáĭµáĪĢ": 5896,
      "Ġáĭ«áĪĪáī¥áĪ³áĪį": 5897,
      "Ġáĭ«áĪĪáĪįáī¥áĪµ": 5898,
      "ĠáįĪáĪį": 5899,
      "ĠáįĪáĬķ": 5900,
      "ĠáįĪáĮħ": 5901,
      "ĠáįĪáįĭ": 5902,
      "ĠáįĪáĪ¨áĪ°": 5903,
      "ĠáįĪáĪµáī³": 5904,
      "ĠáįĪáĪŃáī¶": 5905,
      "ĠáįĪáĮ£áĮ£": 5906,
      "ĠáįĪáĪ¨áĪ±": 5907,
      "ĠáįĪáĮħáī¶": 5908,
      "ĠáįĪáĪ«áĬĵ": 5909,
      "ĠáįĪáĮĢáī½áĭį": 5910,
      "ĠáīħáĬķ": 5911,
      "Ġáīħáī£": 5912,
      "ĠáīħáĮ¥": 5913,
      "ĠáīħáĮ¥áĪŃ": 5914,
      "ĠáīħáĭĿáĪĿáĭĿáĪĿ": 5915,
      "áĭ«áĪįáĮ«": 5916,
      "áĭ«áĪįáī°áĪĺ": 5917,
      "áĭ«áĪįáĮłáĪ¨": 5918,
      "áĭ«áĪįáĮłáĪ©áīµ": 5919,
      "áĭ«áĪįáĬĲáīłáĪ¨": 5920,
      "áĭ«áĪįáĭĪáĪĪáĭµ": 5921,
      "áĭ«áĪįáĭĺáĪ«": 5922,
      "áĭ«áĪįáĮĪáĭ°áĪĪ": 5923,
      "áī¡áĬĵ": 5924,
      "áī¡áĭ³": 5925,
      "áĪ¨áĪ®": 5926,
      "áĪ¨áĪģ": 5927,
      "áĪ¨áĪ«áĪį": 5928,
      "áĪĻáīħ": 5929,
      "Ġáī³áīł": 5930,
      "Ġáī³áĪĺ": 5931,
      "Ġáī³áī½": 5932,
      "Ġáī³áĪŀ": 5933,
      "Ġáī³áĪ¸": 5934,
      "Ġáī³áĭ°áĪŃ": 5935,
      "Ġáī³áĭĪáĮ£": 5936,
      "Ġáī³áĪŃáīĢ": 5937,
      "Ġáī³áĭĿáīłáĭį": 5938,
      "Ġáī³áĪªáĬŃ": 5939,
      "Ġáī³áĬķáĬ³": 5940,
      "ĠáĭįáĪĢáĬķ": 5941,
      "ĠáĪŀáĪĭ": 5942,
      "ĠáĪŀáī¼": 5943,
      "ĠáĪŀáĮįáĭļáīµ": 5944,
      "áĬłáī£áĭ«": 5945,
      "áĬłáī£áī´": 5946,
      "ĠáĮİáįį": 5947,
      "ĠáĮİáĮĨ": 5948,
      "ĠáĮİáĪ¨áĪ°": 5949,
      "ĠáĮİáĬĶáĬķ": 5950,
      "ĠáĮİáĪŃáĪ¶": 5951,
      "ĠáĮİáĪ«áĭ´": 5952,
      "ĠáĮİáīłáĬĺáĭį": 5953,
      "áĬłáĭŃáī¶": 5954,
      "áĬłáĭŃáĮ¥áĪĿ": 5955,
      "áĬłáĭŃáĪĨáĬķáĪĿ": 5956,
      "áĬłáĭŃáĬĶáĬķ": 5957,
      "áĬłáĭŃáĮłáīħáĪĿ": 5958,
      "ĠáĪ°áĭįáĬĲáīµáĬķ": 5959,
      "áįīáĬŃáĬŃáĪŃ": 5960,
      "ĠáĮįáįį": 5961,
      "ĠáĮįáī¥áĪŃ": 5962,
      "ĠáĮįáī¢": 5963,
      "ĠáĮįáĭĻ": 5964,
      "ĠáĮįáĭ°áĪį": 5965,
      "ĠáĮįáĪĽáīµ": 5966,
      "ĠáĮįáĮ¥áĪĿ": 5967,
      "ĠáĮįáĪĽáī±": 5968,
      "ĠáĮįáįĭáĭį": 5969,
      "ĠáĮįáįĭáĬĿ": 5970,
      "áĪīáīµáĪĿ": 5971,
      "Ġáĭ¨áĪļáĭĪ": 5972,
      "Ġáĭ¨áĪļáįĪáĪŃ": 5973,
      "Ġáĭ¨áĪļáĭĪáĮ£": 5974,
      "Ġáĭ¨áĪļáĭ«áĪĪ": 5975,
      "Ġáĭ¨áĪļáĮĪáĬĿ": 5976,
      "Ġáĭ¨áĪļáĭĪáĪį": 5977,
      "Ġáĭ¨áĪļáĭ«áĪįáįį": 5978,
      "Ġáĭ¨áĪļáĪĺáĪĪáĪµ": 5979,
      "Ġáĭ¨áĪļáĬĸáĪŃ": 5980,
      "Ġáĭ¨áĪļáĪĪáĭįáĬķ": 5981,
      "Ġáĭ¨áĪļáĭ«áĭįáīħ": 5982,
      "Ġáĭ¨áĪļáĮĪáĮł": 5983,
      "Ġáĭ¨áĪļáĭĪáĮīáīłáīµ": 5984,
      "Ġáĭ¨áĪļáĪ»áĪĪáĭįáĬķ": 5985,
      "áī¸áĮį": 5986,
      "áī¸áĬ©": 5987,
      "áī¸áĮĪáĪ¨": 5988,
      "áįĬáĬĵ": 5989,
      "áĬĲáĮĪáĪŃáĬ©áĪ½áĪĿ": 5990,
      "ĠáĬłáīµáĭŃ": 5991,
      "ĠáĬłáīµáĮł": 5992,
      "ĠáĬłáīµáĪ°": 5993,
      "ĠáĬłáīµáĭĺáĬķ": 5994,
      "ĠáĬłáīµáīĢáĪ¨": 5995,
      "ĠáĬłáīµáĮįáī£": 5996,
      "ĠáĬłáīµáīłáĪį": 5997,
      "ĠáĬłáīµáĪ¨áĪ³": 5998,
      "ĠáĬłáīµáĮ¥áĪĭ": 5999,
      "ĠáĬłáīµáĭĺáĭĺáĭį": 6000,
      "ĠáĬłáīµáįįáī³": 6001,
      "ĠáĬłáīµáĮ«áĭĪáīµ": 6002,
      "ĠáĬłáīµáĪįáīĢáīħ": 6003,
      "ĠáĬłáīµáĮĪáĮĪáĪŃ": 6004,
      "ĠáĬłáīµáĭĺáĪĪáĭįáĪĿ": 6005,
      "áī¦áīµ": 6006,
      "Ġáĭ¨áī°áīĢ": 6007,
      "Ġáĭ¨áī°áĪĽ": 6008,
      "Ġáĭ¨áī°áĬ¨": 6009,
      "Ġáĭ¨áī°áĪ»": 6010,
      "Ġáĭ¨áī°áĮ¨": 6011,
      "Ġáĭ¨áī°áīĢáĬĵ": 6012,
      "Ġáĭ¨áī°áĭĪáĮĭ": 6013,
      "Ġáĭ¨áī°áĮĪáĬĺ": 6014,
      "Ġáĭ¨áī°áĪ¨áįĪ": 6015,
      "Ġáĭ¨áī°áĭ³áĪ¨áī½": 6016,
      "Ġáĭ¨áī°áĪµáīłáĪ¨": 6017,
      "ĠáĭŃáĪĺáĬĽáĪį": 6018,
      "ĠáĭŃáĪĺáĬŃáĬķ": 6019,
      "ĠáĭŃáĪĺáĪĪáĪµ": 6020,
      "ĠáĭŃáĪĺáĪ¨áĪŃ": 6021,
      "áĬ®áĪŃ": 6022,
      "áĬ®áĪ©": 6023,
      "áĬ®áīłáĪŃ": 6024,
      "áĬ®áĪŃáįį": 6025,
      "áĬĸáĪµ": 6026,
      "ĠáĪĿáĬķáĮĪ": 6027,
      "ĠáĪĿáĬķáī¸áīµ": 6028,
      "ĠáĬŃáĭ¶": 6029,
      "ĠáĬŃáī¡": 6030,
      "ĠáĬŃáĬķáĭµ": 6031,
      "ĠáĬŃáĪŃáĪµ": 6032,
      "ĠáĬŃáīłáĭµ": 6033,
      "ĠáĬŃáįįáĪį": 6034,
      "ĠáĬŃáįĭáī±": 6035,
      "áī¥áĪŃáĬ¤áĪį": 6036,
      "áī£áīµáĪĿ": 6037,
      "áī£áĪįáĭĺáįĪáĬķ": 6038,
      "áĮįáĪŃáĪħ": 6039,
      "ĠáįįáĪį": 6040,
      "Ġáįįáīħ": 6041,
      "ĠáįįáĪįáĮ¥": 6042,
      "ĠáĬłáĪµáĬĲáĪ³": 6043,
      "ĠáĬłáĪµáīĢáĮ£áĪª": 6044,
      "ĠáĬłáĪµáī³áĪ«áīĤ": 6045,
      "ĠáĬłáĪµáĬ©áĪĪáīĢáĬķ": 6046,
      "Ġáĭ«áĪµáĪŃ": 6047,
      "Ġáĭ«áĪµáī°": 6048,
      "Ġáĭ«áĪµáīĢ": 6049,
      "Ġáĭ«áĪµáĪĭáĪį": 6050,
      "Ġáĭ«áĪµáīĥáĪį": 6051,
      "Ġáĭ«áĪµáī°áĬĽ": 6052,
      "Ġáĭ«áĪµáĪ¨áĮį": 6053,
      "Ġáĭ«áĪµáī¸áĮįáĪŃ": 6054,
      "Ġáĭ«áĪµáĮ®áĬ¸": 6055,
      "Ġáĭ«áĪµáĪ¨áĪ³áĪį": 6056,
      "Ġáĭ«áĪµáī³áĪŃáīĥáĪį": 6057,
      "áĪĺáĪįáĬ¨": 6058,
      "áĪĺáĪįáĬŃ": 6059,
      "áĪĺáĪįáĪĽáĪį": 6060,
      "Ġáĭ«áĪįáīĥ": 6061,
      "Ġáĭ«áĪįáĮłáĮ£": 6062,
      "Ġáĭ«áĪįáī°áĭĪ": 6063,
      "Ġáĭ«áĪįáĪ¨áĭ³": 6064,
      "Ġáĭ«áĪįáī°áī°": 6065,
      "Ġáĭ«áĪįáĮłáĪ©áīµ": 6066,
      "Ġáĭ«áĪįáīłáĪĭáĭįáĬķ": 6067,
      "Ġáĭ«áĪįáĪĨáĬĲ": 6068,
      "Ġáĭ«áĪįáĮłáĮĪáīł": 6069,
      "Ġáĭ«áĪįáīĢáĪ°áĪ°": 6070,
      "Ġáī¢áĭ«áĮł": 6071,
      "Ġáī¢áĭ«áĬ¨": 6072,
      "Ġáī¢áĭ«áĮĵ": 6073,
      "Ġáī¢áĭ«áĮ¥áĪŃ": 6074,
      "Ġáī¢áĭ«áĭ©áĬĿ": 6075,
      "Ġáī¢áĭ«áĭĪáĪ©": 6076,
      "Ġáī¢áĭ«áī¥áĮ¥": 6077,
      "Ġáī¢áĭ«áĬĵáĮįáĪ©": 6078,
      "Ġáī¢áĭ«áĬ®áĪŃáįį": 6079,
      "áĮĮáĭį": 6080,
      "áī»áīµ": 6081,
      "áī»áĪĪáĪģ": 6082,
      "áī»áī½áĬķ": 6083,
      "ĠáĬłáĮĪáĭ°áĭĪáĪŃáīħ": 6084,
      "áī¢áĪĭ": 6085,
      "áī¢áĭĭ": 6086,
      "áī¢áī°áĬĽ": 6087,
      "áī¢áĭ«áĭį": 6088,
      "ĠáĮīáī¦": 6089,
      "ĠáĮīáĪŃáĪµ": 6090,
      "ĠáĮīáĭŀ": 6091,
      "ĠáĮīáĪ¨áĪµ": 6092,
      "ĠáĮīáĭ´": 6093,
      "ĠáĮīáī°áĬĵ": 6094,
      "ĠáĮīáĪ®áĪ®": 6095,
      "ĠáĮīáĪ¬áĭĽ": 6096,
      "áįĪáĪŃáĪ½": 6097,
      "ĠáĪģáĬķ": 6098,
      "ĠáĪģáĪĪáī±": 6099,
      "ĠáĪģáĪĭáī½áĬķ": 6100,
      "áĭµáĪĢáĬķ": 6101,
      "áĭ¨áĪļáĭ«áĪµ": 6102,
      "áĭ¨áĪļáīłáĪĭáĭį": 6103,
      "áĭ¨áĪļáĪ°áĪŃ": 6104,
      "áĭ¨áĪļáĭįáĪį": 6105,
      "áĭ¨áĪļáĬ¨áĪŃáĪĺáĭįáĪĿ": 6106,
      "áĭ¨áĪļáĪĺáĬŃáī°áĭį": 6107,
      "áĭ¨áĪļáĪīáĪ½áĬķ": 6108,
      "áĭ¨áĪļáĬ«áĬ¤áĪį": 6109,
      "ĠáĪĨáĬĳ": 6110,
      "áī°áĬĽáīµ": 6111,
      "ĠáĬłáĬķáĭ°áĪĿáīµ": 6112,
      "ĠáĬłáĬķáĭ°áĪ¸áĪĽ": 6113,
      "ĠáĬłáĬķáĭ°áĮ¨áĪ": 6114,
      "ĠáĬłáĬķáĭ°áĬłáī£áī±": 6115,
      "ĠáĪ³áĭŃáīłáĪĭ": 6116,
      "ĠáĪ³áĭŃáĮĪáĭµ": 6117,
      "ĠáĪ³áĭŃáĪĨáĬķ": 6118,
      "ĠáĪ³áĭŃáīĢáĮ£": 6119,
      "ĠáĪ³áĭŃáĪ³áĪĿ": 6120,
      "ĠáĪ³áĭŃáįįáīħ": 6121,
      "ĠáĪ³áĭŃáĪµáĪĽáĪĻ": 6122,
      "ĠáĪ³áĭŃáĮĪáĪī": 6123,
      "ĠáĪ³áĭŃáī³áĭĪáīħ": 6124,
      "áĮ¸áĭµáīĥáĪį": 6125,
      "ĠáĬłáĪįáīł": 6126,
      "ĠáĬłáĪįáĪĽáĮŃ": 6127,
      "ĠáĬłáĪįáĭ°áĬĲáĮįáĮ¥": 6128,
      "ĠáĬłáĪįáīħáĪµ": 6129,
      "áĬłáĪħáĭ«áĬĵ": 6130,
      "ĠáĪ²áĭ«áĭ©": 6131,
      "ĠáĪ²áĭ«áĮĪáĬĿ": 6132,
      "ĠáĪ²áĭ«áĭµáĮį": 6133,
      "ĠáĪ²áĭ«áįįáĪŃ": 6134,
      "ĠáĪ²áĭ«áĪĺáĭį": 6135,
      "ĠáĪ²áĭ«áī£áĪ«": 6136,
      "ĠáĪ²áĭ«áĭĿáĬķ": 6137,
      "ĠáĪ²áĭ«áĭįáīħ": 6138,
      "ĠáĪ²áĭ«áĪĪáīħáĪµ": 6139,
      "áĬłáĪĪáįĪ": 6140,
      "áĬłáĪĪáĬĿ": 6141,
      "áĬłáĪĪáĬķáĮĭ": 6142,
      "áĬłáĪĪáĬ©áĭ«": 6143,
      "áĭµáĪŃáĮİ": 6144,
      "áīłáĪŃáīłáĪ¬": 6145,
      "áĪŁáĬķ": 6146,
      "áĪŁáĪŁ": 6147,
      "áĪŁáĮĭáī½": 6148,
      "áĮĵáĪ¬": 6149,
      "áĮĵáĭĻ": 6150,
      "áĮĵáĪĪáĪį": 6151,
      "ĠáĭĿáĮį": 6152,
      "ĠáĭĿáĮįáĬķ": 6153,
      "ĠáĬłáĪŃáĪ±": 6154,
      "ĠáĬłáĪŃáĪ¶": 6155,
      "ĠáĬłáĪŃáĪ±áĬķ": 6156,
      "ĠáĬłáĪŃáīłáĬĽ": 6157,
      "ĠáĬłáĪŃáīĥáī½áĪģ": 6158,
      "ĠáĬłáĪŃáĪĺáĪ½áĭį": 6159,
      "áĭŀáĪŃ": 6160,
      "áĭŀáĪħ": 6161,
      "ĠáĬĲáĮĪáĪŃáĬķ": 6162,
      "ĠáĬĲáĮĪáĪŃáĮĪ": 6163,
      "áĭ«áĪĪáĬķ": 6164,
      "áĭ«áĪĪáīłáīµ": 6165,
      "áĭ«áĪĪáĪµáįį": 6166,
      "ĠáĮĭáĮĪ": 6167,
      "ĠáĮĭáĮ¥": 6168,
      "ĠáĮĭáĭĿ": 6169,
      "ĠáĮĭáī¢": 6170,
      "ĠáĮĭáĪľ": 6171,
      "ĠáĮĭáĪĪáĪŀáī³": 6172,
      "áĪ¨áĪµáĪģ": 6173,
      "áĪ¨áĪµáĬ©áĬĿ": 6174,
      "ĠáĬ¨áĪĺáĪ»": 6175,
      "ĠáĬ¨áĪĺáĬĵáĮĪáĪŃ": 6176,
      "ĠáĬ¨áĪĺáĮĢáĪĺ": 6177,
      "ĠáĬ¨áĪĺáĬĲáĬ®": 6178,
      "ĠáĬ¨áĪĺáĬķáĮĪáĭµ": 6179,
      "ĠáĬ¨áĪĺáĪĽáīĢáīħ": 6180,
      "áĭ²áĭ³": 6181,
      "áī·áīĭ": 6182,
      "áĭ«áĭįáīĥáĪį": 6183,
      "áĪļáĭ«": 6184,
      "áī´áĪį": 6185,
      "áĬłáĭįáĪ«": 6186,
      "áĬłáĭįáīĨ": 6187,
      "ĠáĬ«áĪįáĪ°": 6188,
      "ĠáĬ«áĪįáĭĺáĪ«": 6189,
      "ĠáĬ«áĪįáĪŀáī°": 6190,
      "ĠáĬ«áĪįáĪĺáĬ¨áĪ©": 6191,
      "ĠáĬ«áĪįáĭĺáĪĪáĪī": 6192,
      "áĭ¨áĪįáī¡": 6193,
      "áĭ¨áĪįáĪĺáĬĵ": 6194,
      "áĭ¨áĪįáī¥áĪħáĬķ": 6195,
      "áĭ©áĬķ": 6196,
      "ĠáĭŃáĭĪáĭµ": 6197,
      "ĠáĭŃáĭĪáĭĽáĪį": 6198,
      "ĠáĭŃáĭĪáĪ¨áĪ«áĪį": 6199,
      "ĠáīģáĪĺáīµ": 6200,
      "ĠáīģáĮ¥áīĭáĮ¦": 6201,
      "ĠáīģáĪįáīĭáĪį": 6202,
      "ĠáīģáĪĿáĬĲáĮĪáĪŃ": 6203,
      "ĠáīģáĮ£áĪħáĬķ": 6204,
      "áĮħáī¥áĪį": 6205,
      "áĮħáī¥áĬĵ": 6206,
      "Ġáĭ¨áĪ°áĪŃ": 6207,
      "Ġáĭ¨áĪ°áĬ¨áĪ¨": 6208,
      "Ġáĭ¨áĪ°áĮ¡áīµáĬķ": 6209,
      "Ġáī£áĭŃáĪĪ": 6210,
      "Ġáī£áĭŃáĭĪáĪįáĭµ": 6211,
      "Ġáī£áĭŃáĬ®áĪ«": 6212,
      "Ġáī£áĭŃáĭĪáĪĪáĭµ": 6213,
      "Ġáī£áĭŃáĬĵáĬ¨áĪ±": 6214,
      "áĬłáĪŃáĪ¶": 6215,
      "áĬłáĪŃáĪ·": 6216,
      "áĬłáĪŃáĪŁáĮĪ": 6217,
      "áĬłáĪŃáĬ©áĪĿ": 6218,
      "áĬłáĪŃáĪŁáĬķ": 6219,
      "áĭįáĪĢáĬķ": 6220,
      "áĭįáĪĢáĬĵ": 6221,
      "áĭįáĪĢáĭįáĪĿ": 6222,
      "ĠáĭŃáĮĪáĭĽáĪį": 6223,
      "ĠáĭŃáĮĪáĬĵáĬĽ": 6224,
      "áĪĦáĭ±": 6225,
      "ĠáĮŃáĪ¬": 6226,
      "ĠáĮŃáĬĸ": 6227,
      "ĠáĮŃáĬĲáīµ": 6228,
      "ĠáĮŃáĮĪáīħ": 6229,
      "ĠáĪįáī¥áĬķ": 6230,
      "ĠáĪįáī¥áĪ´": 6231,
      "áĮĪáĬķáī¥": 6232,
      "áĮĪáĬķáĪħ": 6233,
      "áĮĪáĬķáĭĺáī¡": 6234,
      "ĠáĭŃáīĢáĮ¥áĪ«áĪį": 6235,
      "ĠáĭŃáīĢáĮ¥áĬĵáĪį": 6236,
      "ĠáĭŃáīĢáĮ¨áĭĭáĪį": 6237,
      "ĠáĬłáĭįáĭµáīĥáĪĪáĪģ": 6238,
      "ĠáĬłáĭįáĮ¡áĪįáĬĿ": 6239,
      "ĠáĭŃáīłáĮłáĪ³áĪį": 6240,
      "ĠáĭŃáīłáīĥáĭĭáĪį": 6241,
      "áĮ¦áĪĿ": 6242,
      "áĮ¦áī½": 6243,
      "Ġáĭ¨áĪĽáĭŃáīłáĪĭ": 6244,
      "Ġáĭ¨áĪĽáĭŃáĪĺáĪĪáĪµ": 6245,
      "Ġáĭ¨áĪĽáĭŃáĪ¨áĪ³": 6246,
      "Ġáĭ¨áĪĽáĭŃáĪ¨áī£": 6247,
      "Ġáĭ¨áĪĽáĭŃáįĪáĪĭ": 6248,
      "Ġáĭ¨áĪĽáĭŃáī½áĪīáīµ": 6249,
      "Ġáĭ¨áĪĽáĭŃáĬ¨áĪŃáĪĺáĭįáĪĿ": 6250,
      "Ġáĭ¨áĪĽáĭŃáĭ°áĪŃáĪ±": 6251,
      "áĬ³áīµ": 6252,
      "áĬ³áĪµ": 6253,
      "áĬ³áĬĵáī¸áĭį": 6254,
      "áĭ°áĪįáĭ°áĪį": 6255,
      "ĠáīłáĬłáįį": 6256,
      "ĠáīłáĬłáĪĪáīµ": 6257,
      "ĠáīłáĬłáĮĪáĭµ": 6258,
      "ĠáīłáĬłáĮĦ": 6259,
      "ĠáīłáĬłáĪ¾áĪħ": 6260,
      "ĠáīłáĬłáĪ¨áĬĽ": 6261,
      "ĠáīłáĬłáĮĵáīµ": 6262,
      "ĠáīłáĬłáĪįáĮĭ": 6263,
      "áĪľáĪµáī±": 6264,
      "áĪ¹áĬŃ": 6265,
      "ĠáĭŃáĮłáĮ£": 6266,
      "ĠáĭŃáĮłáĪī": 6267,
      "ĠáĭŃáĮłáī¥áīĢ": 6268,
      "ĠáĭŃáĮłáīħáĪ³áĪį": 6269,
      "ĠáĭŃáĮłáīħáĪĽáĪį": 6270,
      "ĠáĭŃáĮłáĭŃáīĥáĪį": 6271,
      "ĠáĮħáĮįáĪ«": 6272,
      "ĠáĪĪáĪĺáĪµ": 6273,
      "ĠáĪĪáĪĺáĬĲ": 6274,
      "ĠáĪĪáĪĺáĬĵáĮĪáĪŃ": 6275,
      "ĠáĪĪáĪĺáī¥áĪĭáīµ": 6276,
      "ĠáĪĪáĪĺáĮ¸áĮ¸áīµ": 6277,
      "ĠáĪĪáĪĺáĪŃáĭ¶": 6278,
      "Ġáī£áĪįáĬĵ": 6279,
      "Ġáī£áĪįáĭĭ": 6280,
      "Ġáī£áĪįáĬķáĮĢáĪ®": 6281,
      "ĠáĪĢáĮĪáĪŃ": 6282,
      "ĠáĪĢáĪĮ": 6283,
      "ĠáĪĢáī¥áīµ": 6284,
      "ĠáĪĢáĪ³áī¥": 6285,
      "ĠáĪĢáĪľáīµ": 6286,
      "ĠáĪĢáĭĭáĪŃáĭ«áīµ": 6287,
      "áĭ¶áĪ®áĬĵ": 6288,
      "ĠáĮ£áĪĿ": 6289,
      "ĠáĮ£áĪ¨": 6290,
      "ĠáĮ£áĪĪáī½": 6291,
      "ĠáĮ£áĭįáĬķáīµ": 6292,
      "ĠáĮ£áįĭáĮŃ": 6293,
      "áĭ°áĪ¨áī´áĬķ": 6294,
      "áīħáĪŃáĬĵáī³áĪĿ": 6295,
      "ĠáĭĪáĭ°áĬĽ": 6296,
      "áĮĪáī£áĪ«": 6297,
      "áīĢáĬķáĬĵ": 6298,
      "ĠáĪĭáĭŃáĪĪáīħ": 6299,
      "ĠáĬłáįįáĪ¨áīµ": 6300,
      "ĠáĬłáįįáĪ«áĪ½": 6301,
      "ĠáĬłáįįáĬķáĮ«": 6302,
      "ĠáĪĺáĪįáĬ¨áĬĽ": 6303,
      "ĠáĪĺáĪįáĪ°áĪħ": 6304,
      "ĠáĪĺáĪįáĪĿáĭ¬": 6305,
      "áīĨáĪ®": 6306,
      "ĠáĬłáī³áĪĭáĭŃ": 6307,
      "ĠáĬłáī³áĭ°áįįáĪŃ": 6308,
      "áĪ°áĪĽáĭŃ": 6309,
      "ĠáĬłáĪĿáĪ³": 6310,
      "ĠáĬłáĪĿáī§áĭŃ": 6311,
      "áĭĪáĭ°áĭį": 6312,
      "áĭĪáĭ°áĪ½": 6313,
      "áĭĪáĭ°áĭ±": 6314,
      "áĭ¨áĪĽáĬķ": 6315,
      "áĭ¨áĪĽáĭ«áĪįáįį": 6316,
      "áĭ¨áĪĽáĭ«áĪµ": 6317,
      "Ġáī£áĪĪáĮĮ": 6318,
      "ĠáĪļáĭĽ": 6319,
      "ĠáĪļáĪµáī±": 6320,
      "ĠáĪļáĭ³áīĭ": 6321,
      "áīħáĪĿáĪĿ": 6322,
      "áĮĨáĭ¬": 6323,
      "Ġáĭ¶áĮ®": 6324,
      "ĠáĭĭáĬĵ": 6325,
      "ĠáĭĭáĮ¥": 6326,
      "Ġáĭĭáī°áīµ": 6327,
      "ĠáĭĭáĮĪáĮ¨": 6328,
      "ĠáĭĭáĬĵáī°áĬĽ": 6329,
      "ĠáĭĭáĭľáĪĽ": 6330,
      "ĠáĪĬáĪĪ": 6331,
      "ĠáĪĬáĪ¸": 6332,
      "ĠáĪĬáĪ°áĪĽ": 6333,
      "áĭ¨áĪĽáĭŃáĪ°áĪĽ": 6334,
      "áĭ¨áĪĽáĭŃáĪĺáĪµáĪį": 6335,
      "áĭ¨áĪĽáĭŃáĪĺáī±áīµ": 6336,
      "áĭ¨áĪĽáĭŃáī»áĪį": 6337,
      "ĠáīłáĪĺáĪĭ": 6338,
      "ĠáīłáĪĺáĮĪáĮĪáĭµ": 6339,
      "ĠáīłáĪĺáĪĪáĬ®": 6340,
      "ĠáĬłáĪ«áĪ±áĬķ": 6341,
      "ĠáĬłáĪ³áĬķ": 6342,
      "ĠáĬłáĪ³áī¢": 6343,
      "ĠáĬłáĪ³áĭįáĪĿ": 6344,
      "ĠáĬłáĪ³áĭ³áĮĬ": 6345,
      "ĠáĬłáĪ³áĮłáĪ¨áī½": 6346,
      "áĪĪáĪĺáĬ¨áĪ«": 6347,
      "áĪĪáĪĺáĪĦáĭµ": 6348,
      "áĪĪáĪĺáĪĽáĪŃ": 6349,
      "ĠáĭŃáĪ°áĪŃ": 6350,
      "ĠáĭŃáĪ°áĮ£áĪį": 6351,
      "ĠáĭŃáĪ°áī¥áĪŃ": 6352,
      "ĠáĭŃáĪ°áĪĿáĮ£áĪį": 6353,
      "ĠáīłáĭĪáĬķáĭµ": 6354,
      "ĠáīłáĭĪáī°áīµ": 6355,
      "ĠáīłáĭĪáĪĪáĭ°": 6356,
      "ĠáīłáĭĪáĬķáĭĿ": 6357,
      "ĠáīłáĭĪáĬķáĭĻ": 6358,
      "ĠáīłáĭĪáĮĪáĭĻ": 6359,
      "ĠáīłáĭĪáĪŃáīģ": 6360,
      "áĬłáĬķáĭ°áīłáī±": 6361,
      "ĠáĭŃáĪĺáĪµáĪĭáī³áĪį": 6362,
      "áĬłáī¥áĪ¨áĭį": 6363,
      "ĠáĪĻáīħ": 6364,
      "ĠáĪĻáĪĭáīµ": 6365,
      "ĠáĪĻáĬŃáīµ": 6366,
      "ĠáĬĵáĭŃáīµ": 6367,
      "áī°áĪŃáĮħáĬĵ": 6368,
      "ĠáĪĺáĪµáĬŃ": 6369,
      "ĠáĪĺáĪµáĪ«áīµ": 6370,
      "ĠáĭįáĪ»áĭįáĬķ": 6371,
      "ĠáĭįáĪ»áĪħáĬķ": 6372,
      "ĠáĬłáĬĵáī´": 6373,
      "ĠáĬłáĬĵáī´áĬķ": 6374,
      "ĠáĬłáĬĵáĮĪáĪ¨áĬĿ": 6375,
      "ĠáĬłáĭ³áĭį": 6376,
      "ĠáĬłáĭ³áĪĿ": 6377,
      "áĮĪáīłáīłáīµ": 6378,
      "áĮĪáīłáĮįáī£áĪį": 6379,
      "ĠáĮĮáīµ": 6380,
      "ĠáĮĮáĮ¥": 6381,
      "ĠáĮĮáĪ¾": 6382,
      "áĬĲáĮįáĪµ": 6383,
      "Ġáĭ¨áĪĽáĭ«áĪį": 6384,
      "Ġáĭ¨áĪĽáī³áĭį": 6385,
      "Ġáĭ¨áĪĽáĭ«áĪįáįį": 6386,
      "Ġáĭ¨áĪĽáĭ«áĪįáīħ": 6387,
      "Ġáĭ¨áĪĽáĭµáĮĭ": 6388,
      "ĠáĪŀáīµáĪģ": 6389,
      "ĠáĪ¸áī³": 6390,
      "ĠáĪ¸áĬŃ": 6391,
      "ĠáĪ¸áĪ¸": 6392,
      "ĠáĪ¸áĪĿáīµ": 6393,
      "ĠáĪ¸áĪ¨áīµ": 6394,
      "ĠáĪ¸áīĢáĮ¥": 6395,
      "ĠáĪ¸áĪħáĪĿ": 6396,
      "ĠáĮ¨áĪĪ": 6397,
      "ĠáĮ¨áĪĿáĪŃ": 6398,
      "ĠáĮ¨áĪĪáĪĽ": 6399,
      "ĠáĮ¨áĬķáĮĪ": 6400,
      "ĠáĮ¨áīħáĮ«áīĥ": 6401,
      "áĬłáĭµáĪ¨áĭį": 6402,
      "ĠáĪ«áīµ": 6403,
      "ĠáĪ«áī¥": 6404,
      "ĠáĪ«áī±": 6405,
      "ĠáĪ«áīĢáĬĿ": 6406,
      "áĪĪáĪĽáĭ«áĭįáīģ": 6407,
      "áĪĪáĪĽáĭŃáĪ°": 6408,
      "áĪĺáĪĪáĮł": 6409,
      "áĪĺáĮ£áĭį": 6410,
      "áĮ¥áĪŃáĪ´": 6411,
      "ĠáĬłáī£áī´": 6412,
      "ĠáĬłáī£áĬŃáĬĸ": 6413,
      "ĠáĬłáĮįáī¥": 6414,
      "ĠáĬłáĮįáĪ¨": 6415,
      "ĠáĬłáĮįáĬĿ": 6416,
      "ĠáĬłáĮįáĪ¬": 6417,
      "ĠáĬłáĮįáĪ¨áĬĽ": 6418,
      "ĠáĬłáĮįáĪ©áĬķ": 6419,
      "ĠáĬłáĮįáĪ¨áĪ»": 6420,
      "áĬķáĮĪáĮ¨": 6421,
      "áĮĪáī¥áĮĪáī¥": 6422,
      "áĪĪáĭ°áįĪ": 6423,
      "áĪĪáĭ°áĪħáĬĵ": 6424,
      "ĠáīłáĪįáī¥": 6425,
      "ĠáīłáĪįáī³": 6426,
      "ĠáīłáĪįáĮ¥": 6427,
      "ĠáīłáĪįáĮħ": 6428,
      "ĠáīłáĪįáī°áĪħ": 6429,
      "ĠáĪĪáĪĽáĪµ": 6430,
      "ĠáĪĪáĪĽáī³": 6431,
      "ĠáĪĪáĪĽáĭįáĪ¨áĭµ": 6432,
      "ĠáĬłáĪ³áīµáĬĵ": 6433,
      "áĪĭáĭįáĪį": 6434,
      "áĭ¨áĪĺáĪ¬áīµ": 6435,
      "áĭ¨áĪĺáĮĪáĮĪáĭµ": 6436,
      "áĭ¨áĪĺáĬ®áĬķáĬķ": 6437,
      "áĭ¨áĪĺáĬĲáĬĲ": 6438,
      "áĭ¨áĪĺáĮ¥áĪ¨áī¢áĭ«": 6439,
      "áĬłáĪ³áĬķ": 6440,
      "áĬłáĪ³áīĢáĬĿ": 6441,
      "áĬłáĪ³áĭŃáī¶": 6442,
      "áĬłáĪ³áįĭáĪª": 6443,
      "áĬłáĪ³áĭ³áĮĬ": 6444,
      "áĬķáĮĢáĪŃ": 6445,
      "áĪĪáīĢáĮĪáĭ³áĪĿ": 6446,
      "ĠáĭŃáĪµáĪ«": 6447,
      "ĠáĭŃáĪµáįĭáĪį": 6448,
      "ĠáĭŃáĪµáī°áĭį": 6449,
      "ĠáĭŃáĪµáĪĽáĪī": 6450,
      "Ġáī¥áĪĭáīłáīµ": 6451,
      "áĪ²áĬ«": 6452,
      "áĪ²áīłáĪī": 6453,
      "áĪ²áĪ®áĮ¡": 6454,
      "áĪ²áĪµáĪŁáīµ": 6455,
      "ĠáĬłáī¥áĭµ": 6456,
      "ĠáĬłáĪĽáĪ¨áĭį": 6457,
      "ĠáĬłáĪĽáī½áĬķ": 6458,
      "ĠáĬłáĪĽáĪ¨áĪ½": 6459,
      "ĠáĬłáĪĽáĭ«áīģáīµ": 6460,
      "ĠáĬłáĮħáĭĭáĬķ": 6461,
      "ĠáĭŃáĬĲáĭµ": 6462,
      "ĠáĭŃáĬĲáįį": 6463,
      "ĠáĭŃáĬĲáĭ³áĪį": 6464,
      "áĮ£áĪªáĭ«": 6465,
      "ĠáĪĺáĮĪáĮĪ": 6466,
      "ĠáĪĺáĮĪáĭ°áĪŃ": 6467,
      "ĠáĪĺáĮĪáĭĽáīµ": 6468,
      "ĠáĬłáĬķáĭµáĪĿ": 6469,
      "ĠáĬłáĬķáĭµáĬĲáīµ": 6470,
      "áĬłáī£áī¥áĬķ": 6471,
      "áĭ²áĭ«áīĨáĬķ": 6472,
      "áĪĬáĪį": 6473,
      "áĪĬáī°": 6474,
      "áĪĬáĮ¥": 6475,
      "áĪĬáīłáĪī": 6476,
      "áĬłáĪĭáĮĭáĮŃ": 6477,
      "ĠáīĤáĮ£áĪĿ": 6478,
      "ĠáīĤáĮ§áĬķ": 6479,
      "ĠáĬłáĮĪáĪŃáĪħ": 6480,
      "ĠáĬłáĮĪáĪŃáĪħáĬķ": 6481,
      "áĭĺáĪĺáĭµáĪħ": 6482,
      "ĠáĮĮáī³áĬĵ": 6483,
      "áĬłáĭ«áĮ¥áī¥": 6484,
      "áĬłáĭ«áĪµáĮĪáī£": 6485,
      "áĬłáĭ«áĭ¨áĬĭáīµ": 6486,
      "áī°áĬĵáĮĪáĪ©": 6487,
      "ĠáĪĪáĭĪáī³áĭ°áĪŃ": 6488,
      "ĠáĪĪáĭĪáĪ°áĭ°áĭį": 6489,
      "ĠáīĢáĬķáĮĨ": 6490,
      "ĠáīĢáĬķáĭ·": 6491,
      "ĠáĭµáĬķáįĭáī³": 6492,
      "áĭļáĪį": 6493,
      "áīĢáĪĺáĮ¡": 6494,
      "ĠáĬ¨áĭĪáĮĪ": 6495,
      "ĠáĬ¨áĭĪáĪ°": 6496,
      "ĠáĬ¨áĭĪáĮĪáī¥": 6497,
      "ĠáĬ¨áĭĪáĮĪáī¡": 6498,
      "ĠáĬ¨áĭĪáĮĪáĭĿ": 6499,
      "ĠáĬ¨áĭĪáĪ¨áĭĪáĪ¨": 6500,
      "áĬ¨áĪ¨áįĭ": 6501,
      "Ġáīħáī¤áĪĿ": 6502,
      "ĠáĪģáĪīáĪĿ": 6503,
      "áĬłáĪħáĪįáĬķ": 6504,
      "ĠáĭĽáī¢áĭ«": 6505,
      "ĠáĭŃáįĪáĮĪáĭ³": 6506,
      "ĠáĭŃáįĪáī°áįį": 6507,
      "ĠáĭŃáįĪáĪįáĮĭáĪį": 6508,
      "áī°áĬķáĬĿáĪĿ": 6509,
      "Ġáĭ¨áįĪáĪĪ": 6510,
      "Ġáĭ¨áįĪáĮĢ": 6511,
      "Ġáĭ¨áįĪáĪ±áīµ": 6512,
      "Ġáī°áīĢáĮ£": 6513,
      "ĠáĪĽáĬķáīĢáĪĭáįĭáīµ": 6514,
      "ĠáĪĽáĬķáĮĵáĪĪáĪį": 6515,
      "ĠáĬ®áĪ®": 6516,
      "áĭµáĪĿáī¢áĮ¥": 6517,
      "ĠáĭŃáī³áĮĪ": 6518,
      "ĠáĭŃáī³áĪĽáĪį": 6519,
      "ĠáĭŃáī³áĭĪáīĥáĪį": 6520,
      "ĠáĭŃáī³áĬ¨áĬ«áĪį": 6521,
      "ĠáĪĺáĮ£áĮŃ": 6522,
      "ĠáĪĺáĮ£áĪģ": 6523,
      "áĭ¨áĪŀáī°áĭį": 6524,
      "áĭ¨áĪŀáĪĭáĪĪáīµ": 6525,
      "áĪĨáĭµáĬĵ": 6526,
      "áĬłáīµáĬŃáĪį": 6527,
      "áĬłáīµáĮ¥áĪĭ": 6528,
      "áĬłáīµáĪ©áĮ¥": 6529,
      "ĠáĬłáīłáĭ°": 6530,
      "ĠáĬłáīłáĪ³": 6531,
      "ĠáĬłáīłáĭĽ": 6532,
      "ĠáĬłáīłáĭµáĪª": 6533,
      "ĠáĬłáīłáīĥáīĢáĪī": 6534,
      "ĠáīĨáĪĭ": 6535,
      "Ġáĭ¨áĪĺáīĢáĪĺ": 6536,
      "Ġáĭ¨áĪĺáĬ¨áĪ¨áĭį": 6537,
      "ĠáĬłáĭµáĪį": 6538,
      "áĪĺáĬĵáĭį": 6539,
      "ĠáĬ¨áī°áī°áĭį": 6540,
      "ĠáĬ¨áī°áīĢáĪĭ": 6541,
      "ĠáĬ¨áī°áĪ¨áĮĪáĪĺ": 6542,
      "ĠáĬ¨áī°áĬ¨áī°áī°": 6543,
      "ĠáĪļáĪµáīµáĪħ": 6544,
      "Ġáĭ±áī£": 6545,
      "ĠáĭŃáĬ¨áĭ³áĪį": 6546,
      "ĠáĭŃáĬ¨áī°áīµ": 6547,
      "ĠáĭŃáĬ¨áī¥áĪ«áĪį": 6548,
      "ĠáĭŃáĬ¨áī¥áĭ³áĪį": 6549,
      "ĠáĭŃáĬ¨áīłáĪ«áĪį": 6550,
      "ĠáĮ¸áĪĢáĭŃ": 6551,
      "ĠáĮ¸áĮīáĪŃ": 6552,
      "ĠáĬ¨áĬłáĭ³": 6553,
      "ĠáĬ¨áĬłáĪĿáĪĭáĬŃ": 6554,
      "ĠáĪ°áĪŃáī°áīµ": 6555,
      "ĠáĪ°áĪĽáĭ«áīµáĬķ": 6556,
      "ĠáĪ°áĪĽáĪģáĪĭáī½áĪģ": 6557,
      "ĠáĬ¨áĪĽáĬłáĭµ": 6558,
      "ĠáĬ¨áĪĽáĪ°áī¥": 6559,
      "ĠáĬ¨áĪĽáĬĵáĭ°áĭµ": 6560,
      "áĪºáĭį": 6561,
      "áĮ©áĬķ": 6562,
      "áĮ©áĪĪáīµáĪĿ": 6563,
      "áĪĪáīħáĪ¶": 6564,
      "áĪĪáīħáĭĺáĬķ": 6565,
      "áĭ°áĮĪáīĢáĪ®": 6566,
      "Ġáĭ«áĮĪáĭ±": 6567,
      "Ġáĭ«áĮĪáĬĺ": 6568,
      "Ġáĭ«áĮĪáĬĽáĪį": 6569,
      "Ġáĭ«áĮĪáĬĺáĭį": 6570,
      "Ġáĭ«áĪĭáĪ°áī¥": 6571,
      "áĬĲáĮĭáĭ´": 6572,
      "ĠáĬłáĭŃáĬĲáĪ³": 6573,
      "ĠáĬłáĭŃáĬĲáĪ³áĪĿ": 6574,
      "ĠáĬłáĭŃáĬĲáĬŃáĪ±": 6575,
      "ĠáĬłáĭŃáĬĲáĮ©áĪĪáīµáĪĿ": 6576,
      "ĠáĪ²áīłáĪīáīµ": 6577,
      "ĠáĪ²áīłáĮłáīłáĮ¥": 6578,
      "ĠáĪ²áīłáĭĺáīłáĭĿ": 6579,
      "ĠáĪ²áīĢáĮ¡áīµ": 6580,
      "ĠáĪ²áīĢáĪĽáĮłáĪį": 6581,
      "Ġáī¥áĪŃáĬł": 6582,
      "áĪ¸áĪĽáĬķ": 6583,
      "ĠáĬłáĪµáĬªáĪĺáĮ£": 6584,
      "áĬłáĪįáĪ°": 6585,
      "áĬłáĪįáĮłáĮįáī¥": 6586,
      "áĬłáĪįáĪįáī³": 6587,
      "áĬłáĪįáĬĲáĮĪáĪŃáĬ©áĪ½áĪĿ": 6588,
      "áĪµáĪ«áĭį": 6589,
      "áĪµáĪ«áī½": 6590,
      "áī°áĪįáīģ": 6591,
      "áĪ¨áĮįáĮ¥": 6592,
      "áĪ¨áĮįáĮłáĭį": 6593,
      "Ġáĭ¨áĮłáĮĪáīł": 6594,
      "Ġáĭ¨áĮłáĪīáīµáĬķ": 6595,
      "ĠáĬłáĭŃáĮ¥áĪĽáīµ": 6596,
      "ĠáĮĪáī¥áĪµ": 6597,
      "áĬ©áĪįáĬĿ": 6598,
      "áĬłáĭŃáĬķáĪħáĬĵ": 6599,
      "Ġáĭ³áī¦áĭįáĪĿ": 6600,
      "Ġáĭ³áī¦áĭ¬áĬķ": 6601,
      "ĠáĭµáĬķáĮĭáĭŃáĬĵ": 6602,
      "ĠáĪ¨áĮĭ": 6603,
      "ĠáĪ¨áĪµáī³": 6604,
      "ĠáĪ¨áĪµáī¶": 6605,
      "áīµáĪĿáĪħáĪŃáīµ": 6606,
      "áĭµáĪĺáīµáĬķ": 6607,
      "Ġáĭ«áĭµáįĭáĪį": 6608,
      "áī°áĪĺáĪ¨áīħ": 6609,
      "áī°áĪĺáĪ®áĮ¥": 6610,
      "áī°áĪĺáĪĺáĪ«áĪĺáĪŃ": 6611,
      "ĠáĪĪáĬłáĪħ": 6612,
      "áĭ¨áĭĪáĮĭ": 6613,
      "ĠáĬĲáīłáĪŃáĬ©": 6614,
      "Ġáī°áĪĺáī³": 6615,
      "Ġáī°áĪĺáĬŃáĪ®": 6616,
      "Ġáī°áĪĺáĬĲáĮłáĪ¨": 6617,
      "ĠáĬłáĮĪáĬķáĭ°": 6618,
      "ĠáĬłáĮĪáĬķáĭ³áĭŃ": 6619,
      "ĠáĬłáĮĪáĬķáī¢áī°áĬĽ": 6620,
      "ĠáĬłáĮĪáĭ³áĭŃáīłáĪĭ": 6621,
      "ĠáĬłáĮĪáĭ³áĭŃáĪŀáīµ": 6622,
      "ĠáĬłáĮĪáĭ³áĭŃáĪĦáĭµ": 6623,
      "ĠáĭĪáįįáĪ«áĪĿ": 6624,
      "áĭĺáĪŃáī¶": 6625,
      "Ġáī¥áīµáĪŃ": 6626,
      "Ġáī¥áīµáįĪáī³áīµ": 6627,
      "Ġáī¥áīµáĪ¨áĮįáĮłáĭį": 6628,
      "ĠáĬłáĪĺáī¤áīµ": 6629,
      "ĠáĬłáĪĺáĪı": 6630,
      "áĭ«áĬķáīłáĪ³": 6631,
      "áĭ«áī£áīµáĪħ": 6632,
      "áĪĭáĬŃáĬķ": 6633,
      "ĠáīłáīĢáĪį": 6634,
      "ĠáīłáīĢáĪİ": 6635,
      "ĠáīłáīĢáĮłáĪ®": 6636,
      "Ġáĭ¨áĭĪáĭ°áīĢ": 6637,
      "Ġáĭ¨áĭĪáĭ°áīĢáĬķ": 6638,
      "áĬĲáįįáĮ¥": 6639,
      "ĠáĪĪáī£áĪĭ": 6640,
      "ĠáĪĪáī£áĪ°": 6641,
      "ĠáĪĪáī£áĪ°áĭį": 6642,
      "ĠáĪĪáī£áĪı": 6643,
      "áĭ¨áĪĿáīłáĪĭáĭį": 6644,
      "áĭ¨áĪĿáĪµáĪ«áī½": 6645,
      "áĮ¤áĪĽ": 6646,
      "ĠáĬłáĮ¥áī¥áīĢ": 6647,
      "ĠáĬłáĮ¥áĪ©áĬķ": 6648,
      "ĠáīĦáĮ¤áĪĽ": 6649,
      "áĭ«áĪĿáĬĵ": 6650,
      "áĭ«áĪĿáĪĭáĬŃáĬķ": 6651,
      "ĠáĮ¤áĬĵ": 6652,
      "ĠáīłáĬ¨áīłáĪ®": 6653,
      "ĠáīłáĬ¨áī¥áī±": 6654,
      "áĮįáī£áī´": 6655,
      "ĠáĬłáĭŃáĮĪáĪħáĬķ": 6656,
      "ĠáĬłáĭŃáĮĪáĭĽáĪĿ": 6657,
      "ĠáĬłáĭŃáĮĪáĪĽáĪĿ": 6658,
      "ĠáĬłáĭŃáĮĪáī£áīµáĪĿ": 6659,
      "ĠáĬłáĭŃáĭ°áī£áĪį": 6660,
      "áĮłáĮįáī¥áĪĿ": 6661,
      "ĠáĪĺáī¥áĪ¨áĪŃ": 6662,
      "ĠáĬ¨áĮĪáī¡": 6663,
      "ĠáĬ¨áĮĪáĭ°áĪį": 6664,
      "ĠáĬ¨áĮĪáĪĺáĭ±": 6665,
      "áĭ¨áįĪáĪ¨áĪ°áĬĽ": 6666,
      "áĭ¨áįĪáī·áīµ": 6667,
      "ĠáĪĿáĪŃáīµ": 6668,
      "ĠáĪĿáĪŃáī±áĬķ": 6669,
      "ĠáĪĿáĪŃáīĥáīµ": 6670,
      "ĠáīĢáĭ³áĭį": 6671,
      "ĠáīĢáĭ³áĪ½": 6672,
      "ĠáīĢáĭ³áĭįáĬķ": 6673,
      "áĬ«áĪįáĭ°áįĪ": 6674,
      "áĬ¨áĪ°áĭį": 6675,
      "áĬ¨áĪ°áĬ¨áĪ±": 6676,
      "ĠáĮīáĭµáī£": 6677,
      "ĠáĪ°áĪĽáĭŃáĬķ": 6678,
      "áī²áī±áĬķ": 6679,
      "ĠáĬłáĬĲáĬ«": 6680,
      "ĠáĬłáĬĲáīĢáĭį": 6681,
      "ĠáĬłáĭĪáĪ«": 6682,
      "ĠáĬłáī£áīµáĪħ": 6683,
      "áĪĪáĭĪáĭ³áĮħ": 6684,
      "áĪĪáĭĪáĮ¡áĪĿ": 6685,
      "áĪĪáĭĪáī³áĭ°áĪŃ": 6686,
      "áīłáĪįáĪĭáĪį": 6687,
      "ĠáĮĵáĭ«": 6688,
      "ĠáĮĵáĭĿ": 6689,
      "ĠáĮĵáĮīáĬķ": 6690,
      "ĠáĮĵáĭ°áĬĽ": 6691,
      "áĭ°áĭµáĬ©": 6692,
      "Ġáĭ«áĭ¨áĭįáĬķ": 6693,
      "ĠáĬłáĭŃáĭĪáĪŃáĪµ": 6694,
      "ĠáĬłáĭŃáĭĪáĪ«áĪĿ": 6695,
      "ĠáĬłáĭŃáĭĪáĭµáĪĿ": 6696,
      "ĠáĬłáĭŃáĭĪáĮ¡áĪĿ": 6697,
      "ĠáĬłáĭŃáĬ¨áīłáĪŃáĪĿ": 6698,
      "áĪ³áĭŃáĮłáĪ©áīµ": 6699,
      "áĪ³áĭŃáī¸áĮįáĪŃ": 6700,
      "ĠáĬ¨áĬĲáīĥ": 6701,
      "ĠáĬ¨áĬĲáįĭáĪµ": 6702,
      "áĭ¨áĮ¨áĭį": 6703,
      "áĭ¨áĮ¨áĪĪáĪĽ": 6704,
      "áĭĺáĮĪáĬĲ": 6705,
      "áĭĺáĮĪáĭ¶": 6706,
      "áĭĺáĪĺáĭ°": 6707,
      "áĭĺáĪĺáĬĲ": 6708,
      "ĠáĭµáĮĪáįĭáī³": 6709,
      "ĠáĪŀáī°áĪ½": 6710,
      "ĠáĮīáĪįáī»": 6711,
      "ĠáĮīáĪįáīłáī±": 6712,
      "ĠáĮŃáĪ«áĪ®": 6713,
      "ĠáĪĮáī£áĬķ": 6714,
      "áĬłáĮ¥áī£áīĤ": 6715,
      "ĠáĬłáĭµáĪŃáĮİ": 6716,
      "áĪĪáĭµáĪª": 6717,
      "áĪĪáĭµáĪħáĬĲáīµ": 6718,
      "áĭ«áĪĭáī£áī±": 6719,
      "áĭ«áĪĭáĪ¨áįĪ": 6720,
      "Ġáĭ«áįĪáĭĿ": 6721,
      "Ġáĭ«áįĪáĮĢ": 6722,
      "Ġáĭ«áįĪáĪ«áĪį": 6723,
      "ĠáīłáĪĭáĬķ": 6724,
      "ĠáīłáĪĭáī½": 6725,
      "ĠáīłáĮįáĭµ": 6726,
      "Ġáĭ¨áĭĪáĪ°": 6727,
      "Ġáĭ¨áĭĪáĬķáĭµ": 6728,
      "Ġáĭ¨áĭĪáĪ¨áĭ°": 6729,
      "Ġáĭ¨áĭĪáĮ¡áīłáīµ": 6730,
      "ĠáĬłáĭŃáĪĺáĬŃáĪ©": 6731,
      "ĠáĪĪáīħáĬķ": 6732,
      "ĠáĮĭáĪŃáĭ¶": 6733,
      "áĬłáĮĪáĪ¬": 6734,
      "áĬłáĮĪáĪĮ": 6735,
      "áĬłáĪµáī¥": 6736,
      "áĬłáĪµáįįáī¶": 6737,
      "áĬłáĬĵáī±": 6738,
      "áĬłáī³áīłáĭµáĪŃ": 6739,
      "áĬłáĮĪáĪŃáĪħ": 6740,
      "áĬłáĬĶáĬķ": 6741,
      "áĬłáĬĶáĪĿ": 6742,
      "ĠáĬłáĭ¨áī°": 6743,
      "áĬķáī¥áĬķ": 6744,
      "áĬķáī¥áĪ«": 6745,
      "ĠáĭŃáĪĪáĪĺáĪįáĪĽáĪį": 6746,
      "ĠáĭŃáĭ°áĬĲáīģ": 6747,
      "ĠáĭŃáĭ°áĪĿáīĥáĪį": 6748,
      "ĠáĭŃáĪ¸áĮ£áĪį": 6749,
      "ĠáĮĢáĪĿáīłáĪŃ": 6750,
      "Ġáĭ¨áĭ°áĮħ": 6751,
      "Ġáĭ¨áĭ°áĪ¨áĪ°": 6752,
      "ĠáĬłáĭŃáīĢáĪŃáĪµ": 6753,
      "ĠáĬłáĭŃáīĢáĭµáĪĿ": 6754,
      "ĠáĬłáĭŃáįĪáĪ©": 6755,
      "ĠáĬłáĭŃáįĪáĪŃáĪµ": 6756,
      "ĠáĬłáĭŃáįĪáĪ©áĪĿ": 6757,
      "áĮłáī¥áĮłáī¥": 6758,
      "ĠáĪĺáĬ¨áĪ«áĭį": 6759,
      "ĠáĬ¨áįĪáī·áīµ": 6760,
      "ĠáĬ¨áįĪáĮ©áīµ": 6761,
      "ĠáĬ¨áī¤áīµáĪ½": 6762,
      "ĠáĪ²áĭĪáĮī": 6763,
      "ĠáĪ²áĭĪáĮ¡": 6764,
      "Ġáī°áĬĲáĪ±": 6765,
      "Ġáī°áĬĲáĮłáīĢ": 6766,
      "Ġáī°áĪĺáĪįáĬ¨áīµ": 6767,
      "áĭĿáĬķáĮĢáĪ®áĬĵ": 6768,
      "ĠáĮĪáī£áī½": 6769,
      "áīģáĬķáĮ¥áĮ¨": 6770,
      "ĠáĪµáĬķáĬ©áĪį": 6771,
      "Ġáĭ°áĮįáįį": 6772,
      "Ġáĭ°áĮįáĬĲáīµ": 6773,
      "áĭ«áĪįáī°áīĢáĮ£": 6774,
      "áĭ«áĪįáī°áĪ¾áĪĺ": 6775,
      "áĭ«áĪįáī°áĬĲáĬ«": 6776,
      "áĭ«áĪįáī°áįĪáī°áĬĲ": 6777,
      "áīĦáĪµáĬĵ": 6778,
      "áĭ¨áĪĽáĭ«áīłáĭµáĪŃ": 6779,
      "áĭ¨áĪĽáĭ«áĭĭáĮ£": 6780,
      "ĠáĮĨáĪ®áĭįáĬķ": 6781,
      "áĬłáĭ³áĪª": 6782,
      "ĠáĪİáĪĮáĬĵ": 6783,
      "ĠáĬłáĬĵáīµáĪ½": 6784,
      "áĪĪáĮĪáĭį": 6785,
      "áĪĪáĮĪáįīáĮį": 6786,
      "ĠáĭŃáĭįáĮ£áĪį": 6787,
      "ĠáĭŃáĬĸáĪ«áĪī": 6788,
      "Ġáĭ«áīłáĭ°áĪ¨": 6789,
      "Ġáĭ«áīłáĭĽáĭĭáĪį": 6790,
      "Ġáĭ«áĭ°áĪĭ": 6791,
      "Ġáĭ«áī£áī±áĬķ": 6792,
      "Ġáĭ«áī£áĬŃáĮĪ": 6793,
      "Ġáĭ«áĪ³áĪĽ": 6794,
      "ĠáīłáĮĪáĪĮ": 6795,
      "ĠáīłáĮĪáĮĪáĭĺáī¡": 6796,
      "áī°áĭĪáĮĪáī¥": 6797,
      "áī°áĭĪáĮŃáīµ": 6798,
      "áīĢáĪĽáĬĽ": 6799,
      "áįĪáīµáĪį": 6800,
      "ĠáĪĺáĬķáĮĥ": 6801,
      "ĠáĪĺáĬķáĮįáĪµ": 6802,
      "ĠáĪĺáĬķáĮłáī¥áĮłáī¥": 6803,
      "áĪĢáĭŃáĪĪáĬĽ": 6804,
      "Ġáī¢áĮłáįī": 6805,
      "Ġáī¢áĮłáĮĪáĬķ": 6806,
      "Ġáī°áĮĪáĬ®áĪĪ": 6807,
      "Ġáī°áīłáĭ³áĪª": 6808,
      "Ġáī°áīłáī°áĬĲ": 6809,
      "ĠáĭĪáĪŃáĭįáĪ®": 6810,
      "áĬ¨áĪįáī¥": 6811,
      "ĠáĬłáĬķáĭ³áĭ«áĪįáīħ": 6812,
      "ĠáīĢáĪĽáĬĽ": 6813,
      "ĠáĪĽáĮĪáĮĵáĮĵáī±áĬķ": 6814,
      "ĠáĪµáĪŃáĬłáīµ": 6815,
      "áĭ¨áĪļáĭ«áįĪáĪµ": 6816,
      "áĮ§áĪį": 6817,
      "áĬłáĪĿáĬĵ": 6818,
      "áĬłáĪĿáĬĸ": 6819,
      "áĬłáīłáĪ»": 6820,
      "áĬłáīłáĭµáĪ¨áĬĿ": 6821,
      "áĬłáĮĮáĬķ": 6822,
      "áĬłáĮĮáĭį": 6823,
      "ĠáĪħáĮį": 6824,
      "ĠáĪħáĭĿáī¥": 6825,
      "ĠáĪħáĭŃáĭĪáī±": 6826,
      "ĠáĬłáĭ°áĪ©": 6827,
      "ĠáĬłáĭ°áĮĤ": 6828,
      "ĠáĭŃáĬĵáĬĿ": 6829,
      "ĠáĭŃáĬĵáīĢáĪ±": 6830,
      "ĠáĭŃáīłáĪĭáīłáīµ": 6831,
      "áĪĺáĪ«áĭį": 6832,
      "ĠáīłáĪŃáīłáĪ¬": 6833,
      "áī°áĪĿáĪ®": 6834,
      "áī°áĪĿáĪħáĪŃ": 6835,
      "áī°áĪĿáĪħáĪŃáīµ": 6836,
      "áīĢáĮ¥áĪ©": 6837,
      "áīĢáĮ¥áĪ¼": 6838,
      "Ġáĭ¨áĪĿáĪµáĬŃáĪŃ": 6839,
      "Ġáĭ¨áĪĿáĪŀáī°áĭį": 6840,
      "ĠáĬłáĭŃáĪ°áĭ±": 6841,
      "ĠáĬłáĭŃáĪ°áīłáĪ©": 6842,
      "ĠáĪĪáĪļáĪµáīµ": 6843,
      "ĠáĪĪáĪļáĬĲáĮįáĪŃ": 6844,
      "ĠáĪĪáĪļáĪĺáĮ£áĭį": 6845,
      "áĭ¨áīĢáīłáĮłáī½": 6846,
      "ĠáīĢáĪ¨áĬĲ": 6847,
      "ĠáīĢáĪ¨áĮ£": 6848,
      "ĠáīĢáĪ¨áī½": 6849,
      "ĠáīĢáĪ¨áĪŃáī¶": 6850,
      "áīģáĪŃáīłáīµ": 6851,
      "áīģáĪŃáĮ¥áĪĽáīµ": 6852,
      "ĠáĬłáĭ«áĪµáīĢ": 6853,
      "ĠáĬłáĭ«áĪµáĭ°áĬĲáĮįáĮ¥": 6854,
      "ĠáĪĨáĬĲáĬĵ": 6855,
      "áĬłáĮįáĪŃáĪħáĬķ": 6856,
      "ĠáĭŀáĪ«": 6857,
      "ĠáĪ©áĪĿ": 6858,
      "ĠáĪŃáīĢ": 6859,
      "ĠáĬ©áĪį": 6860,
      "ĠáĬ©áīłáīµ": 6861,
      "ĠáĬ©áĪ«áī±": 6862,
      "ĠáĭŃáĪįáĪĽáĪį": 6863,
      "ĠáĭŃáĪįáĪ³áĪī": 6864,
      "ĠáĭŃáĮ¥áįĭ": 6865,
      "Ġáĭ«áĪ¨áĮĭáĮį": 6866,
      "Ġáīłáĭ°áĮĭ": 6867,
      "Ġáīłáĭ°áĮĪáĭ°áĪµ": 6868,
      "ĠáīłáĮİáĪ«áĭ´": 6869,
      "ĠáīłáĮİáĭµáĮĵ": 6870,
      "ĠáīłáĮİáĮĨáĭ¬": 6871,
      "ĠáĬłáĭŃáĮłáĪ«áĪĿ": 6872,
      "ĠáĬłáĭŃáĮłáĪĿáīħ": 6873,
      "ĠáĬłáĭŃáĮłáīħáĪĿáĪĿ": 6874,
      "ĠáĪĪáĪĿáĭ¶": 6875,
      "ĠáĪĺáĮłáĭ¨áīħ": 6876,
      "ĠáĭĪáĮ¥áĪ½": 6877,
      "ĠáĮĪáĪįáĪĽáĮŃ": 6878,
      "áĬłáĬķáīºáĬķ": 6879,
      "ĠáĬ¨áĪ°áĮł": 6880,
      "ĠáĬ¨áĪ°áĮ¡áīµ": 6881,
      "ĠáįįáĪªáĮħ": 6882,
      "áĬĹáĬķ": 6883,
      "ĠáĬłáĪĭáĮĪáĬĺ": 6884,
      "Ġáī¦áĭĺáĬĶ": 6885,
      "ĠáīĥáĮŃáĪį": 6886,
      "ĠáĭŃáī°áĭ«": 6887,
      "ĠáĭŃáĮ¨áĪŃáĪ³áĪį": 6888,
      "áĪĺáī³áīµ": 6889,
      "ĠáīłáĪ¨áĭ¨": 6890,
      "ĠáīłáĪĽáĪ°áĪ®": 6891,
      "ĠáīłáĮ¥áī£áĮŃ": 6892,
      "ĠáīłáĭĭáĭĽ": 6893,
      "áīĢáĪįáĭµáĬĵ": 6894,
      "ĠáĪĪáĪ°áĭįáĬĲáī±": 6895,
      "ĠáĪĺáĪ°áĪĭáīµ": 6896,
      "ĠáĪĺáĭĿáĪĪáĪį": 6897,
      "ĠáĪĺáĭĿáĪĻáĪŃ": 6898,
      "áĭ¨áĪĿáīµáĮłáī£": 6899,
      "áĭ¨áĪĿáīµáĪĪáī¥áĪ°áĭį": 6900,
      "Ġáī°áĬĵáĭŀ": 6901,
      "Ġáī°áĬĵáĮĪáĪ¨": 6902,
      "Ġáī°áĬĵáĮįáĪ®": 6903,
      "Ġáī°áĬĵáĮĭáĪª": 6904,
      "áĬŃáĪ©áĭĭáĪį": 6905,
      "ĠáĮĪáĮĪáĭĺáī¥": 6906,
      "áĮ¨áĭįáīµ": 6907,
      "ĠáĪµáīµáĭĪáĪįáĭµ": 6908,
      "ĠáĬ¨áĪļáĪīáīµ": 6909,
      "ĠáĬ¨áĪļáĮłáįĭ": 6910,
      "Ġáĭ«áĪĪáī½áĭįáĬķ": 6911,
      "ĠáĪĺáĪįáĬ«áĪĿáĪĿ": 6912,
      "áĪĤáĮĥáĪĪáĪ½": 6913,
      "áĬłáĪĺáĪįáĬĵ": 6914,
      "áĬłáĪĺáĪįáĪħ": 6915,
      "áĬłáĪ«áīµáĬķ": 6916,
      "ĠáĭĻáĪ¨áĪħ": 6917,
      "ĠáĬłáĮĮáĬķ": 6918,
      "Ġáī½áĬ©áĪį": 6919,
      "áĪĪáĮłáĪīáīłáīµ": 6920,
      "ĠáĭŃáįĪáĪŃáĭ³áĪį": 6921,
      "ĠáĭŃáįĪáĪŃáĮ¥áĮ¥": 6922,
      "Ġáĭ«áĬĲáĪ°áĭį": 6923,
      "Ġáĭ«áĮłáī¡áīµ": 6924,
      "Ġáĭ«áĪ°áĪįáĮ£áĪį": 6925,
      "Ġáĭ«áĪ°áĬĺáĪ½": 6926,
      "Ġáĭ¨áĪįáī¥": 6927,
      "Ġáĭ¨áĮİáĪ¨áī¤áīµ": 6928,
      "Ġáĭ¨áĮİáĪ¨áī¤áī·áĬķ": 6929,
      "áįĪáĪĪáįī": 6930,
      "ĠáĪĪáī°áīłáĭ°áĪĪ": 6931,
      "ĠáĬ¨áĭĺáĪ©": 6932,
      "ĠáĬ¨áĭĺáįĪáĬķ": 6933,
      "Ġáī°áĬ¨áįĪáĪĪ": 6934,
      "áĭ¨áĪ°áĪĽ": 6935,
      "áĭ¨áĪĢáī¥áī³áĪĿ": 6936,
      "áĬŃáĬķáĭ«áīµ": 6937,
      "ĠáĬ«áĪĭáī½áĪģ": 6938,
      "Ġáĭ¨áĪļáĭ«áĪħáĪį": 6939,
      "ĠáįįáĪĪáĮĭáĭį": 6940,
      "áĬłáĪŃáĪ»áĭį": 6941,
      "ĠáĪĺáĪµáĪİáĪ½": 6942,
      "ĠáĮīáĭµáĮĵáĭ±áĬķ": 6943,
      "ĠáįįáĪªáĭ³áī½áĬķ": 6944,
      "áĮ»áĬķ": 6945,
      "áĬłáĭ°áĬķ": 6946,
      "áĬłáĭ°áĪ«": 6947,
      "Ġáī¡áĬĵ": 6948,
      "Ġáī¡áĭ³": 6949,
      "Ġáī¡áĪĢ": 6950,
      "áĪĪáī°áĪ¾áĪĺ": 6951,
      "ĠáĭŃáĭĺáĪħ": 6952,
      "ĠáĭŃáĭĺáįįáīħ": 6953,
      "ĠáĮ©áī¤": 6954,
      "ĠáĮ©áĪħáīłáīµ": 6955,
      "áī°áįĪáĮŃ": 6956,
      "áī°áįĪáĮ£áĪª": 6957,
      "áī°áĬ¨áĪĪ": 6958,
      "Ġáĭ¨áĪĿáīµáĪį": 6959,
      "Ġáĭ¨áĪĿáīµáĬ¨áĬĵáĬĲáīłáĭį": 6960,
      "ĠáĬłáĭŃáīłáĪĪáĮ¡áĪĿ": 6961,
      "ĠáĪĺáĪŃáĪ³áī±": 6962,
      "ĠáĪĺáĭįáĮ«": 6963,
      "ĠáĪĺáīħáĪ¨áīµ": 6964,
      "ĠáĪĺáīħáĭĺáĬķ": 6965,
      "ĠáĬ¨áĪįáĬ©": 6966,
      "ĠáĬ¨áĮłáĪĭ": 6967,
      "ĠáĬ¨áĮłáī£": 6968,
      "ĠáĬ¨áĮłáĮĪáīłáīłáīµ": 6969,
      "ĠáĬ¨áĭĭáĪµ": 6970,
      "ĠáĬ¨áĭĭáĪ»": 6971,
      "ĠáĬĲáĮĪáĪ¬áĬķ": 6972,
      "ĠáĪ²áĮłáĪīáīµ": 6973,
      "ĠáĪ²áĮłáĮįáĬĳáīµ": 6974,
      "ĠáĪ²áĬ¨áī¥áĪŃ": 6975,
      "ĠáĪ²áĬ¨áįĪáīµ": 6976,
      "Ġáī°áĬķáĮłáĪ«": 6977,
      "Ġáī°áĭĭáĮįáī¶": 6978,
      "Ġáī¥áī³áĭŃ": 6979,
      "Ġáī¥áī³áĮĪáĬĿ": 6980,
      "Ġáī¥áī³áĮĪáī£áīµ": 6981,
      "ĠáĪĿáĪ°áĪħ": 6982,
      "ĠáĭĺáĬķáĭ¶": 6983,
      "ĠáĬłáīµáīłáĭŃ": 6984,
      "ĠáĬłáīµáīłáĪĪáĭį": 6985,
      "áĪ¹áĪĺáīµáĬĵ": 6986,
      "Ġáĭ¨áĪĽáĭ«áĪŃáĪµ": 6987,
      "áĬĻáĪĿ": 6988,
      "ĠáĪ´áī¶áī½": 6989,
      "ĠáĪ¹áĪĿ": 6990,
      "ĠáĪ¹áĪĺáīµ": 6991,
      "ĠáĪ¹áĪ©áī£": 6992,
      "ĠáĪĤáĭ³": 6993,
      "ĠáĪĤáĭ¶": 6994,
      "áĪĪáĬłáĬŃ": 6995,
      "ĠáĬ¥áĭ«áĭ°áĪŃ": 6996,
      "ĠáĮ¨áĪ¨áĪ": 6997,
      "ĠáĮ¨áĪĺáĪ¨": 6998,
      "áī¥áĪ«áĬĵ": 6999,
      "ĠáīłáīłáĮĪáĬĵ": 7000,
      "áī°áī°áĭ«áĭĻ": 7001,
      "Ġáĭ¨áĭĺáĬ¬": 7002,
      "Ġáĭ¨áĮĪáī£áīłáīµ": 7003,
      "áī³áĪ¨áīģ": 7004,
      "áĬĲáĮĪáĪ¬": 7005,
      "áįĪáĪįáįį": 7006,
      "ĠáĪĪáīłáĭ°áĪĪáĭį": 7007,
      "ĠáĪĪáĪ°áĪļ": 7008,
      "ĠáĪĺáīĢáĮłáī¥": 7009,
      "ĠáĪĺáīĢáīłáĪªáĭ«áĭį": 7010,
      "ĠáĪĺáĮĭáĭĿ": 7011,
      "ĠáĪĺáĮĭáĪĽáīµ": 7012,
      "ĠáĪĺáīĥáī¥áĪŃ": 7013,
      "ĠáĪĺáīĥáĮłáĪªáĭ«": 7014,
      "ĠáĬ¨áī¥áĪŃáĮĪáĭ¶": 7015,
      "ĠáĬ¨áĭ°áĪ¨áī·": 7016,
      "ĠáĬ¨áĭ°áĪ¨áīģáĪĿ": 7017,
      "ĠáĭĪáĭ³áĮĤáĬķ": 7018,
      "áĪ®áĮ¥áīłáīµ": 7019,
      "áįĭáįįáĬĸ": 7020,
      "Ġáī£áĬķáīº": 7021,
      "Ġáī£áĬķáĭ°áīłáī±": 7022,
      "ĠáĪĿáĪįáĬŃáīµ": 7023,
      "ĠáīĢáĪĪáĪĪáĭį": 7024,
      "áĬłáĬķáĭ³áīµ": 7025,
      "áĬłáĬķáĭ³áĭ©": 7026,
      "áĬłáĬķáĭ³áĭ«áĪĽ": 7027,
      "ĠáĭįáĪµáĮ¡áĬķ": 7028,
      "ĠáĪµáĪĪáĪĭ": 7029,
      "ĠáĪ³áĪįáĮĪáĭĽ": 7030,
      "áĬ¨áĪ³áĪ½": 7031,
      "ĠáĭĺáĮĪáĮį": 7032,
      "Ġáī³áĪµáī³áĭįáīħ": 7033,
      "Ġáĭ¨áī°áĪ°áīĢáĪĪ": 7034,
      "Ġáĭ¨áī°áĪ°áĪ¨áīĢ": 7035,
      "ĠáĭŃáĭĪáĪįáĭ±": 7036,
      "ĠáĬłáĭįáīĢáĪ½áĭį": 7037,
      "ĠáĬłáįįáĬķáĮ¨áĬķ": 7038,
      "ĠáĬłáī³áĭįáĮ§áīµ": 7039,
      "ĠáĪĬáĮ¥áĪį": 7040,
      "áĭ¨áĪĮáī£áĬķ": 7041,
      "Ġáĭ¨áĪŀáī°áī½áīłáīµ": 7042,
      "áĮ½áĮ¸": 7043,
      "áĬłáĭĺáĬĳ": 7044,
      "áĬłáĭĺáĭŀ": 7045,
      "Ġáĭ²áĭ«": 7046,
      "ĠáĬłáĮĭáĭµáĪŀ": 7047,
      "ĠáĬłáĬĽáĪĿ": 7048,
      "Ġáī¸áĬ®áĪĪ": 7049,
      "áĬķáĮĢáĪ«áĭĭ": 7050,
      "áĪĪáĪ°áĪĪáī£": 7051,
      "áĭŃáĪħáī½": 7052,
      "áĭ«áī£áī±áĬķ": 7053,
      "ĠáĭŃáĪĽáī³áĪį": 7054,
      "áĭ°áĭ±áĪħ": 7055,
      "ĠáīłáĪµáī°áĬĭáĪĭ": 7056,
      "ĠáīłáĮłáĮħ": 7057,
      "ĠáīłáĪŀáī±": 7058,
      "áī°áĭĭáĮĬ": 7059,
      "áī°áĬŃáįī": 7060,
      "áīĢáĪĿáĮ¡áīµ": 7061,
      "áīĢáĭ³áĭ³": 7062,
      "áīĢáĮ£áĭį": 7063,
      "Ġáĭ¨áī£áĪ°": 7064,
      "Ġáĭ¨áī£áĬłáĭµ": 7065,
      "Ġáĭ¨áĮ£áī´": 7066,
      "áĮłáĪĿáĪĿ": 7067,
      "ĠáĪĺáĬŃáĪ³áīµ": 7068,
      "ĠáĪĺáĬ«áĬ¨áĪį": 7069,
      "ĠáĬ¨áĪŃáĪ»": 7070,
      "ĠáĬ¨áĮįáī¥áĪŃ": 7071,
      "áĭ¨áī°áĬĵáĮĪáĪ©áīµ": 7072,
      "ĠáĪ²áĬĲáĭµ": 7073,
      "Ġáī°áĬĿáī¶": 7074,
      "ĠáĭĪáĪ¨áīĢáīµ": 7075,
      "ĠáĪ°áĪĭáĪ³": 7076,
      "ĠáĪ°áĪĭáĪĽáĭĬ": 7077,
      "ĠáĪĽáĭ°áĬĵáĮĪáĪªáĭ«áĭį": 7078,
      "áīģáĪįáī¢áĮ¥": 7079,
      "ĠáīµáĪŃáĬķáĮİ": 7080,
      "Ġáīµáī³áĮĪáĪĽ": 7081,
      "ĠáĮłáī£áīĤ": 7082,
      "ĠáįĪáĮ£áĪªáĭįáĬķ": 7083,
      "Ġáĭ¨áĪļáĮłáĪīáīµáĬķ": 7084,
      "Ġáĭ¨áĪļáĮłáĮĭáīłáīµ": 7085,
      "ĠáĭŃáĪĺáĪ°áĬŃáī¶áįĭ": 7086,
      "ĠáĬłáĪĿáĮ¡áĪįáĬĿ": 7087,
      "ĠáĪļáĪµáī´": 7088,
      "ĠáĪĬáĭ«áĭµáĪŃ": 7089,
      "ĠáĪĬáĭ«áĮĪáĪµ": 7090,
      "ĠáĪĦáĭ°áī½": 7091,
      "áĬłáĮĭáĪĿ": 7092,
      "ĠáĪºáĪħ": 7093,
      "ĠáĪ¨áĪ±": 7094,
      "ĠáĪ¨áĪ³": 7095,
      "ĠáĬłáĮłáīłáī½": 7096,
      "ĠáĬłáĪ°áī¥áĪŃ": 7097,
      "ĠáĬłáĭĺáĪĪ": 7098,
      "ĠáĬłáĭĺáĬĳáĪĪáīµ": 7099,
      "ĠáĬłáīĥáĮ£áĪª": 7100,
      "ĠáĬłáĪĭáĪĿáĬĲáĭįáĪĿ": 7101,
      "ĠáĭŃáĪŃáīĥáĪį": 7102,
      "ĠáĭŃáī£áĪĭáĪį": 7103,
      "ĠáĭŃáĭĭáĮĭáĪį": 7104,
      "áĪĺáĪµáĮĪáĬķ": 7105,
      "áĪĺáĬŃáĪ©áīµ": 7106,
      "Ġáĭ«áĬĵáĮįáĪ«áĪį": 7107,
      "Ġáīłáī³áĬŃáĪ²": 7108,
      "ĠáīłáĮŃáĪ«": 7109,
      "Ġáĭ¨áĮĪáĭ°áĪĪ": 7110,
      "Ġáĭ¨áĮĪáĭ°áĪĪáĭį": 7111,
      "Ġáĭ¨áĭĺáĮĪáĭ¨áĪħ": 7112,
      "áĭĪáĪµáĭ°áĭį": 7113,
      "ĠáĬłáĭŃáī°áĮ£": 7114,
      "ĠáĬłáĭŃáī°áī½": 7115,
      "ĠáĬ¨áĪµáĪ©": 7116,
      "ĠáĬ¨áĪµáĪĭáĪ´": 7117,
      "áĭ¨áī£áĪ°": 7118,
      "ĠáĪ²áī³áĮ£": 7119,
      "ĠáĪ²áī³áĪ¨áĭµ": 7120,
      "Ġáī¢áī³áĪĪáī¥": 7121,
      "Ġáĭ¨áĪ¸áī°áĭįáĬķ": 7122,
      "ĠáĬłáĮĪáĪ©áĭĭ": 7123,
      "áĮ¨áī¥áĮ¥": 7124,
      "ĠáĬłáĭ«áĪįáīħáĪĿ": 7125,
      "ĠáĬłáĭ«áĭĪáĭĽ": 7126,
      "ĠáĬłáĭ«áĭµáĬķáĪĿ": 7127,
      "áĭ¶áī½áĪħ": 7128,
      "ĠáĬ¨áĪ«áī´": 7129,
      "ĠáĮłáĪĿáīĥ": 7130,
      "ĠáĮłáĪĿáĭ¶": 7131,
      "ĠáĭĺáĪĺáĭ´": 7132,
      "ĠáĭĺáĪĺáĭ¶áī½áĪħ": 7133,
      "ĠáįĪáĪ³áī½": 7134,
      "áĭ«áĪįáĭĪáĪĪáĭ°áĬ©áīµ": 7135,
      "Ġáĭ¨áī°áĮłáĮĭ": 7136,
      "Ġáĭ¨áī°áĮłáīĥ": 7137,
      "ĠáĬ«áĪįáĬĲáĪ±áīµ": 7138,
      "ĠáĬ«áĪįáĬĲáįĪáĮīáīµ": 7139,
      "ĠáīģáĪµáĪįáĪħáĬķ": 7140,
      "ĠáĪĪáĪĺáĬ¨áĪ«áĪ½": 7141,
      "áī°áĪĽáĪªáĬĵ": 7142,
      "ĠáĬłáĮĪáĬķáĭ³áĮĪáĪ©": 7143,
      "ĠáĬłáĮĪáĬķáĭ³áī£áī±": 7144,
      "ĠáīłáĬ¨áĮĪáįĪáĪŃ": 7145,
      "ĠáįĬáī±": 7146,
      "áĬłáĮ£áī¢": 7147,
      "ĠáĭľáĪĽ": 7148,
      "ĠáĪ¾áĪĭ": 7149,
      "ĠáĪ¾áī°áĪį": 7150,
      "ĠáĬłáĬŃáī£áĪª": 7151,
      "ĠáĬłáĮ£áĪªáĭįáĬķ": 7152,
      "áĪĪáĪĭáĪĻ": 7153,
      "áĭ«áĪĺáĬĳáīµ": 7154,
      "áĭ«áī£áĭŃáĬķ": 7155,
      "ĠáĭŃáįįáĪ°áĪµ": 7156,
      "ĠáĭŃáĪŁáĮĪáī·áĪį": 7157,
      "Ġáĭ«áĪŃáĭ³": 7158,
      "Ġáĭ«áĮłáįĭáĭĭáĪį": 7159,
      "ĠáīłáĭįáĮŃ": 7160,
      "áīĢáĭĿáĬĲáĭįáĬķ": 7161,
      "áī³áī¦áīµ": 7162,
      "áĪħáĪĺáĪĻ": 7163,
      "ĠáĬłáĭŃáįĪáĪŃáĭµáĪĿ": 7164,
      "ĠáĬłáĭŃáĪĪáīĢáīħáĪĿ": 7165,
      "ĠáĪĪáĮĪáī¥áĪŃáĬ¤áĪį": 7166,
      "ĠáĪĪáĪĮáĪĭ": 7167,
      "ĠáĪĪáĪĮáĪĪáĭį": 7168,
      "ĠáĪĺáī³áĪ°áĪªáĭ«áĭį": 7169,
      "ĠáĬ¨áĮ¥áĪ©": 7170,
      "ĠáĬ¨áįĭáĪħ": 7171,
      "áĭ¨áĮ¨áĪĽ": 7172,
      "ĠáĬĲáĮįáĪ¨áĭį": 7173,
      "Ġáī¢áīĢáīĨ": 7174,
      "Ġáī¢áįĪáĬĲáĮŃ": 7175,
      "Ġáī¢áĪ¸áįįáīµ": 7176,
      "Ġáī¢áīĢáĪŃáī¡áīµ": 7177,
      "Ġáī°áĭ«áĭŃáĭĺáĭį": 7178,
      "Ġáĭ¨áĪ«áĪ±áĬķ": 7179,
      "Ġáĭ¨áĪ³áĪŃ": 7180,
      "ĠáĪįáĪĽáĭµ": 7181,
      "áĭ¨áĪ«áĪ·": 7182,
      "ĠáĪĽáĪ°áĪªáĭ«áĭį": 7183,
      "ĠáĪĽáĪ³áĭ°áĭµ": 7184,
      "áĪİáĪļáĬĵ": 7185,
      "áīģáĪĺáĪħ": 7186,
      "áīģáĪĺáī±": 7187,
      "ĠáīµáīłáĪĭáĪĪáī½": 7188,
      "áĪ¸áĬķáĬ©áĪŃáīµ": 7189,
      "ĠáĮİáĬķáĭ°áĪŃ": 7190,
      "ĠáĮİáī°áĪ«áĪħáĬķ": 7191,
      "Ġáĭ¨áĪļáĭ«áĪµáīĢáĭĿáĬĲáĭįáĬķ": 7192,
      "ĠáĪĨáĭ´áĬķ": 7193,
      "ĠáĬłáĪįáīĥáĪ½": 7194,
      "ĠáĬłáĪįáīĥáĪ¹": 7195,
      "ĠáĬłáĪŃáĮįáĪĽáĬķ": 7196,
      "ĠáĬłáĪŃáĮįáĭļáĪį": 7197,
      "ĠáĬłáĪŃáĮİáĭįáĬķ": 7198,
      "áĪļáĪµáī±áĬķ": 7199,
      "áĬłáĭįáīĢáĪ½": 7200,
      "áĪľáĪµáīµáĪħ": 7201,
      "ĠáĬłáī³áĪµáīĢáĭį": 7202,
      "ĠáīłáĪĺáĪŃáĭĺáĪĻ": 7203,
      "áĪĪáĪĺáĪµáĪ«áīµ": 7204,
      "áĪĪáĪĺáĪµáĪĽáīµ": 7205,
      "Ġáĭ¨áįĪáĮłáĮĪáĪħ": 7206,
      "áĭ¨áĭĪáĬķáĭµáĪĿ": 7207,
      "Ġáī°áĪĺáĬ«áĬ¨áĪŃ": 7208,
      "ĠáĮ©áĬ¸áī±": 7209,
      "ĠáĮ¥áĪŃáĪ´áĬķ": 7210,
      "ĠáĮ¥áĪŃáĪ´áĪµ": 7211,
      "ĠáįİáĮĪáĪ«": 7212,
      "áĬłáĪĽáī»áī½áĬķ": 7213,
      "áĬłáĭĪáīģáĬĿ": 7214,
      "áĬłáĪ½áĬ¨áĪŃ": 7215,
      "áĬłáīĥáī¢": 7216,
      "áĬłáĮİáĬķáī¥áĪ¶": 7217,
      "áĬłáĬĲáĮĭáĮĪáĪŃ": 7218,
      "ĠáĪ»áĬĽ": 7219,
      "ĠáĬłáĪ®áī£áīµ": 7220,
      "ĠáĬłáĪ®áĮĬáīµ": 7221,
      "ĠáĬłáĪ»áīħáī¦": 7222,
      "ĠáĬłáĮīáĭ³áĭŃ": 7223,
      "ĠáĬłáĮīáĪ«áĪ½": 7224,
      "ĠáĬłáĮłáįĭáī½": 7225,
      "ĠáĬłáĪ·áĭį": 7226,
      "ĠáĬłáĪ·áĪĿ": 7227,
      "ĠáĬłáĭļáĪħ": 7228,
      "ĠáĬłáĭļáĭ«áĭį": 7229,
      "áĮĪáīĢáīģ": 7230,
      "áĪĪáĪĢáĪĿáĪ³": 7231,
      "ĠáĬ¢áĭ¨áĪ©áĪ³": 7232,
      "áĭŃáīºáĬķ": 7233,
      "áĭ«áĭ³áīĢáĬĲ": 7234,
      "áĭ«áĪ³áĭ°áĮį": 7235,
      "áĭ«áĪīáĪ½áĬķ": 7236,
      "ĠáĭŃáĮİáĭ³áĪį": 7237,
      "ĠáĮ¢áĪĿ": 7238,
      "ĠáĮ¢áĪµ": 7239,
      "áĭ°áĮĥáī¸áĭįáĬķ": 7240,
      "Ġáĭ«áĭŃáĮ¥": 7241,
      "Ġáĭ«áīĥáĮ¥": 7242,
      "Ġáĭ«áĮįáī£áĬĿ": 7243,
      "Ġáĭ«áĮįáī£áĪ½": 7244,
      "Ġáĭ«áĮİáĪŃáĪ·áĪį": 7245,
      "ĠáīłáĮīáĭ«": 7246,
      "ĠáīłáīģáĪĺáĬĵáĭį": 7247,
      "ĠáīłáĪĺáĬķáĮĪáĭµ": 7248,
      "ĠáīłáĪĺáĬķáĮįáĪµáī±": 7249,
      "Ġáīłáĭ¨áĭĪáĬķáĭĻ": 7250,
      "áīĢáĮĪáīłáĪŃ": 7251,
      "áĪ¨áīģáĪ«áĪį": 7252,
      "Ġáĭ¨áĮĭáĬķ": 7253,
      "Ġáĭ¨áĬ¨áīłáĪ¨": 7254,
      "Ġáĭ¨áĪĪáĪħáĪĿ": 7255,
      "áī³áĮ¥áī¦": 7256,
      "áĬĲáī¢áĭŃ": 7257,
      "áĬĲáī¢áĭ«áīµ": 7258,
      "áīħáĭĿáīĢ": 7259,
      "ĠáĬłáĭŃáĭĺáĪī": 7260,
      "ĠáĬłáĭŃáĪ¸áĬ¨áĪĻ": 7261,
      "ĠáĬłáĭŃáĪ¸áĪ¸áĮįáĪĿ": 7262,
      "ĠáĬłáĭŃáĪ¨áī£áĪĿ": 7263,
      "ĠáĪĺáīµáĮĭáīµ": 7264,
      "ĠáĪĺáĬ¨áĬķáĮĥ": 7265,
      "ĠáĬ¨áĭĪáĭ°áĬĭáĪĭ": 7266,
      "áĭ¨áĭĪáĭ°áīĢ": 7267,
      "áĪĢáĭĺáĬķáĪ½": 7268,
      "Ġáī¢áĮ¥áĪīáĪĪáīµ": 7269,
      "ĠáĬłáĮĪáĮĪáī±": 7270,
      "Ġáī£áĭ«áĭµáĪĪáĬĿ": 7271,
      "ĠáĪĿáĮ¥áĪĽáĮ¥": 7272,
      "ĠáĪĿáĮĪáĭµáĪŃ": 7273,
      "áĮ¨áĪĿáĪª": 7274,
      "ĠáĬłáĭ«áĪµáĮ¥áĪį": 7275,
      "ĠáĬłáĭ«áĪµáĮ¥áĪįáĪĿ": 7276,
      "ĠáĪµáī°áĮ¨áĪĿáĪª": 7277,
      "ĠáĮłáĮłáĪŃáĬĵ": 7278,
      "Ġáĭ°áĪ¨áīģáĬķ": 7279,
      "ĠáīħáĪŃáī¡": 7280,
      "Ġáī³áĮłáīłáī½": 7281,
      "Ġáī³áī¦áĪŃ": 7282,
      "ĠáĮİáĪ¨áī¤áī±": 7283,
      "Ġáĭ¨áĪļáīłáĪĭáĬķ": 7284,
      "Ġáĭ¨áī°áĬĽáĬķ": 7285,
      "áĬ®áī°áĬ®áī°": 7286,
      "ĠáįįáĪŃáĭµ": 7287,
      "ĠáįįáĪŃáįĭáĪª": 7288,
      "ĠáĬłáĪµáī°áĪĽáĪ¨áĭį": 7289,
      "ĠáĬłáĪµáī°áĪĽáĪ¨áī½": 7290,
      "Ġáī¢áĭ«áĪµáīĢáĪĿáĮ¡áīµ": 7291,
      "ĠáĬłáĪįáįĪáĪħ": 7292,
      "ĠáĬłáĪįáįĪáĮĢáĭį": 7293,
      "ĠáĭŃáīłáĪ¨áī³áĪį": 7294,
      "ĠáīłáĬłáĮįáĪ©áįĭ": 7295,
      "ĠáĪ¨áĮįáĮ¦": 7296,
      "ĠáĬłáĭŃáĬ¨áī¥áĭµáĪĿ": 7297,
      "ĠáĬłáĭŃáĬ¨áī¥áĭ³áīµáĪĿ": 7298,
      "ĠáĮĢáĪŃáī£áĪħáĬķ": 7299,
      "ĠáĬ¨áĪļáĭ«áĮłáĮįáīłáĬĿ": 7300,
      "Ġáī°áĬķáĮłáĪįáĮłáĪį": 7301,
      "áĬłáĪ«áīģáī±áĬķ": 7302,
      "áĬłáĪĽáīµáĬĵ": 7303,
      "áĬłáĮ¤áĬķ": 7304,
      "áĬłáĭ¨áįĪáĪĪáĮĪáĭį": 7305,
      "áĬłáĬ«áĪįáĬĵ": 7306,
      "áĬłáĪĽáī½áĬĵ": 7307,
      "ĠáĬłáīłáĪĭáĪī": 7308,
      "áĪĪáĬłáīłáĮ¥": 7309,
      "áĪµáī°áĭįáĪĪáīµ": 7310,
      "áĭ«áĬĸáĪ©áīµ": 7311,
      "áĭ«áĭ©áīµáĬķ": 7312,
      "ĠáĭŃáī½áĪĭáĪį": 7313,
      "ĠáĭŃáĪ¾áĪŁáĪį": 7314,
      "ĠáĭŃáĪĪáīĢáĪįáīĥáĪį": 7315,
      "ĠáĭŃáī¥áĪĭáĬĿ": 7316,
      "ĠáĮ½áĭµáīħ": 7317,
      "ĠáĮĥáĬĸ": 7318,
      "áĭ°áĪµáī³áĬĵ": 7319,
      "áĪĺáĬ«áĬĿ": 7320,
      "Ġáĭ«áĭ°áĪ¨áĮĪáĭįáĬķ": 7321,
      "Ġáĭ«áįıáĮ«áĪį": 7322,
      "Ġáĭ«áĭ¨áĪģáĪħ": 7323,
      "ĠáīłáīĥáĪı": 7324,
      "ĠáīłáĪĮáĪĪáīłáīµ": 7325,
      "ĠáīłáĪĻáĪī": 7326,
      "ĠáīłáĭµáĬķáĬ³áĬĵáī¸áĭį": 7327,
      "áī°áĮĭáįĬ": 7328,
      "áī°áįĭáīłáīµ": 7329,
      "áĪ¨áĮĢáĬķ": 7330,
      "Ġáĭ¨áĬłáĬķáīħáī¡": 7331,
      "Ġáĭ¨áĬłáĮħáĭĭáĬķ": 7332,
      "ĠáĬłáĭŃáī½áĪįáĪĿ": 7333,
      "ĠáĬłáĭŃáĪŀáĪĭáĪĿ": 7334,
      "ĠáĬłáĭŃáĮİáĭ³áĪĿ": 7335,
      "áįįáĭ¬áĪį": 7336,
      "ĠáĪĪáīĢáĮłáĬĵ": 7337,
      "ĠáĪĪáĮ¸áĮīáĪŃ": 7338,
      "ĠáĪĪáī°áĭĪáĪĪáĭ°": 7339,
      "ĠáĪĺáĪ¸áĮ¥": 7340,
      "ĠáĪĺáīĢáĪĺáĮ«": 7341,
      "ĠáĪĺáĮłáĮ£áīµ": 7342,
      "ĠáĬ¨áīłáĪ¨áīłáĪ¨áĭį": 7343,
      "áĭ¨áī¸áĮĪáĪ¨áĭį": 7344,
      "áĭ¨áĪĪáĪĺáĬĲ": 7345,
      "áĪĢáĬªáĪĿ": 7346,
      "ĠáĪ²áĬĵáĭµ": 7347,
      "ĠáĪ²áĪ»áĪŃ": 7348,
      "Ġáī¢áī°áĬĻ": 7349,
      "Ġáī¢áĭĺáĪ©": 7350,
      "Ġáī¢áĮ¨áĪĿáīµ": 7351,
      "Ġáī¢áĪ¨áĮįáĮ¡áĪ½": 7352,
      "Ġáī°áįĭáĪħ": 7353,
      "Ġáī°áīłáĪĭáĪģ": 7354,
      "ĠáĬłáĮĪáĮĭáĮ¥": 7355,
      "ĠáĭĪáĪĪáĭ°áī½": 7356,
      "ĠáĪįáĮģáĬķ": 7357,
      "áĭ¨áĪ½áĪ®": 7358,
      "Ġáī£áĭ¨áĪĪáīłáīµ": 7359,
      "Ġáī£áĬķáĭµáĬĲáīµ": 7360,
      "ĠáĪĽáĭįáĪ«áīµ": 7361,
      "ĠáĪĽáĬłáĪ¨áĮīáĬķ": 7362,
      "ĠáĪĽáĪ¨áĮĥáĭĭáĬķ": 7363,
      "áĮ¨áĬķáīĢ": 7364,
      "ĠáĬłáĭ«áĪ»áĮįáĪŃ": 7365,
      "ĠáĬłáĭ«áĪŁáĮįáīµ": 7366,
      "ĠáĪµáī³áĪ¨áĮħ": 7367,
      "ĠáĪµáįĪáĬĵáĮłáĪŃ": 7368,
      "ĠáĪ³áĬķáīĥ": 7369,
      "ĠáĪĭáīµáĭĪáĪįáĭµ": 7370,
      "ĠáĪĭáĪ½áĬŃáīµ": 7371,
      "ĠáĭµáĪŃáĮİ": 7372,
      "ĠáĭµáĮįáĪ±": 7373,
      "ĠáĮłáĪĽáĭį": 7374,
      "áĪ¸áĪĿáīłáīĢ": 7375,
      "áĪ¸áĪŃáĪĻáĮ£áĬķ": 7376,
      "Ġáī³áĪ½áī³áĪĪáī½": 7377,
      "Ġáī³áĪ¨áĮįáĭĽáĪĪáī½": 7378,
      "Ġáī¤áī°áĬŃáĪŃáĪµáī²áĭ«áĬķ": 7379,
      "ĠáĮİáĪŃáĮĵáĪª": 7380,
      "ĠáĮİáĮĪáĭ°áĪŃ": 7381,
      "ĠáĮįáĪįáĮĪáĪį": 7382,
      "ĠáĮįáĮĪáī¡áĬķ": 7383,
      "ĠáĬłáīµáĬ¨áĪįáĬŃáĪĪáĭį": 7384,
      "Ġáĭ¨áī°áĬĵáĮĪáĪ¨áĭįáĬķ": 7385,
      "ĠáĭŃáĪĺáī³áī³áĪį": 7386,
      "Ġáĭ³áĭįáĪĭáĭįáĬķ": 7387,
      "ĠáĬŃáįĪáįī": 7388,
      "ĠáĬłáĪµáī¤áĪĿ": 7389,
      "Ġáĭ«áĪµáĭĪáĮ£áĪį": 7390,
      "Ġáĭ«áĪµáĮ¥áĪĭáĪį": 7391,
      "Ġáī¢áĭ«áĮİáĪŃáĪ·áīµ": 7392,
      "ĠáĪģáĪĪáī°áĬĽáĭį": 7393,
      "áĭ¨áĪļáĪ°áĮ¥áĪĿ": 7394,
      "ĠáĪ³áĭŃáīłáĮłáīłáĮ¥": 7395,
      "ĠáĬłáĪįáĬ©áĪħ": 7396,
      "áĬłáĪĪáĪĽáĭĪáīĦ": 7397,
      "ĠáĭĿáĬķáī¦áī½": 7398,
      "ĠáĭĿáĪĽáĪľ": 7399,
      "ĠáĬ¨áĪĺáĭįáĪĪáĭµ": 7400,
      "ĠáĬ¨áĪĺáįįáĪ³áīµ": 7401,
      "ĠáĭŃáīłáĮ£áĮłáĪµ": 7402,
      "ĠáĮħáĪ«áī·": 7403,
      "áĭ¨áĪĽáĭŃáī°áĪĽáĪĺáĬĳ": 7404,
      "áĪ¾áī°áĪįáĮĪ": 7405,
      "ĠáĭĪáĭŃáįĪáĬķáĬķ": 7406,
      "ĠáĪĺáĮĪáĬ©áĪ³": 7407,
      "Ġáī°áīĢáĪĿáĮłáĪ½": 7408,
      "Ġáī°áīĢáī¥áī³": 7409,
      "ĠáĮĨáĪŃáĭ¬": 7410,
      "ĠáĭŃáĪĪáīĥáĪĪáīģ": 7411,
      "ĠáĭŃáĭ°áĬķáīĢáĭį": 7412,
      "Ġáĭ«áĭĪáĪ«áĪ¨áĭ°áĭį": 7413,
      "Ġáĭ«áĪ³áĭµáĮĭáĪį": 7414,
      "ĠáĬłáĬķáĭ³áī³áĭµáĪª": 7415,
      "ĠáĭŃáĮ¨áĪŃáĪ°áĭį": 7416,
      "ĠáĮįáĪŃáĮįáĪŃáī³": 7417,
      "ĠáĭĻáįĭáĮĪ": 7418,
      "Ġáī½áĮįáĪŃáĪĿ": 7419,
      "Ġáĭ«áĬĲáĭ°áĭµáĬ©áīµ": 7420,
      "ĠáĪĪáī°áĪ»áĪ¨": 7421,
      "áī°áįĪáĮ¥áĪ®áĬķ": 7422,
      "ĠáĭŃáĪĽáĪĽáĪĭáĪī": 7423,
      "ĠáĬ¨áĪŃáĬ¨áĪ¬áĪ»": 7424,
      "ĠáĭŃáĪĺáĪ°áĬŃáĪ©áĪĪáī³áĪį": 7425,
      "áĭŃáĭįáĮĭáĪħ": 7426,
      "Ġáĭ°áĮĥáĭĿáĪĽáī½áĬĲáīµ": 7427,
      "áĬłáī¦áĬķ": 7428,
      "áĬłáĮ®áĪĭáīĤ": 7429,
      "áĬłáĪĺáĬķáĭĿáĪ«": 7430,
      "áĬłáĭļáĭ«áĭį": 7431,
      "áĬłáĭ¨áĭĪáĮĪáĬķáĪħ": 7432,
      "Ġáĭ®áĪĢáĬķáĪµ": 7433,
      "ĠáĬłáįĭáī¸áĭį": 7434,
      "ĠáĬłáĪİáĪİ": 7435,
      "ĠáĬłáĪ³áĪįáįĪáĭį": 7436,
      "ĠáĬłáĮłáĮ£áĪĪáĪģ": 7437,
      "ĠáĬłáĮ¢áĪµ": 7438,
      "ĠáĬłáī§áĪ«": 7439,
      "ĠáĬłáĭ¨áĪĢáĬĿ": 7440,
      "ĠáĬłáĮīáĭµáī£": 7441,
      "ĠáĬłáīĢáįĪáĪĿ": 7442,
      "áĪĪáĪ«áīłáĭį": 7443,
      "áĪĪáĭĿáĬĵáĪĿ": 7444,
      "áĪĪáĬłáī¥áĪĪáīµ": 7445,
      "áĪĪáĭ³áĪŃáī»áĭį": 7446,
      "áĪĪáĮīáĬķáĭ³áĬķ": 7447,
      "áĭŃáīłáĮĥáĪį": 7448,
      "áĭ«áī¥áĭ¬áĬķ": 7449,
      "áĭ«áĪ«áĪ·áĬķ": 7450,
      "áĭ«áĪŀáĪĮ": 7451,
      "áĭ«áĬ®áĪ¨áįĪ": 7452,
      "áĭ«áĮĵáĬĳáīµ": 7453,
      "áĭ«áĮĪáĪ©áĬķ": 7454,
      "áīłáĮĢáĭįáĬķ": 7455,
      "áīłáĬłáĮİáĪ¨áĪµáĬ©áĬĿ": 7456,
      "ĠáĭŃáĪ«áīłáĬĿ": 7457,
      "ĠáĭŃáĪĪáĭįáĮ£áĪį": 7458,
      "ĠáĭŃáĪĪáĪĿáĬĵáĪį": 7459,
      "ĠáĭŃáĪıáī³áĪį": 7460,
      "ĠáĭŃáĬ¨áĪŃáĪĽáĪį": 7461,
      "áĭ°áĪ¨áĪ°áīłáīµ": 7462,
      "Ġáĭ«áĬĿáĬ«áĪį": 7463,
      "Ġáĭ«áĭĺáĭĺ": 7464,
      "Ġáĭ«áĪ¨áĮįáĭ³áĪį": 7465,
      "Ġáĭ«áĪ°áĬĿáĪĥáĪį": 7466,
      "Ġáĭ«áīĢáĪĪáĪĪáĭįáĬķ": 7467,
      "Ġáīłáī£áĪįáĬķáĮĢáĪ«áĭĭ": 7468,
      "ĠáīłáĮįáĪŃáĮįáĪŃ": 7469,
      "ĠáīłáĪľáĭ³": 7470,
      "ĠáīłáīħáĪŃáī¡": 7471,
      "Ġáīłáī°áĪŃáī³": 7472,
      "ĠáīłáĮĪáīłáī³": 7473,
      "ĠáīłáĬŃáĪŃáĬķ": 7474,
      "ĠáīłáĪ¨áĮĪáĭ³": 7475,
      "ĠáīłáĮ¤áĬĵ": 7476,
      "Ġáīłáĭĺáĭįáĭ±": 7477,
      "ĠáīłáĮħáĪ«áī±": 7478,
      "ĠáīłáĬ®áĬĲáĬĲáĬĿ": 7479,
      "áī°áĮ¥áĭ¶": 7480,
      "áī°áĪ¸áįĭáįįáĬĸ": 7481,
      "áī°áĭ°áī¥áīĥ": 7482,
      "áī°áĪ°áī¥áĪ®": 7483,
      "Ġáĭ¨áĪįáĮħáĭĭáĬķ": 7484,
      "Ġáĭ¨áĬĲáĮĭáĪªáīµ": 7485,
      "Ġáĭ¨áĬĲáįįáĮłáĬĽ": 7486,
      "Ġáĭ¨áīĢáĬĲáīĢáĬĲ": 7487,
      "áī³áĪ³áĮŃ": 7488,
      "áįĪáĮ£áĪªáĬķ": 7489,
      "áĮ¥áĮĭáīłáĬĽ": 7490,
      "ĠáĬłáĭŃáĮ£áĪĭáĪĿ": 7491,
      "ĠáĬłáĭŃáĬŃáįĭáĪ½": 7492,
      "ĠáĬłáĭŃáī£áĪįáĪĿ": 7493,
      "ĠáĬłáĭŃáĪĦáĭµáĪĿ": 7494,
      "ĠáĬłáĭŃáĮ¸áĮ¸áī±áĪĿ": 7495,
      "áĮ£áĪ¹áĭĭáĬķ": 7496,
      "ĠáĪĪáĭ¨áīħáĪį": 7497,
      "ĠáĪĪáįįáĮ¥áĪ¨áī±": 7498,
      "ĠáĪĪáĭįáĪŃáĪ»": 7499,
      "ĠáĪĺáĪĭáĪįáĪ¶": 7500,
      "ĠáĪĺáĪ¶áī¥": 7501,
      "ĠáĪĺáīĢáĪŃáīĢáĪ©": 7502,
      "ĠáĪĺáĮįáī£áī±": 7503,
      "ĠáĪĺáĮ¨áĭĪáī»": 7504,
      "ĠáĪĺáĬĲáĬ®áĪ°áī½": 7505,
      "ĠáĬ¨áĮīáĭ«": 7506,
      "ĠáĬ¨áī¦áĭĿ": 7507,
      "ĠáĬ¨áįİáĬ¨áĪ¨": 7508,
      "ĠáĬ¨áĭ°áī¥áĪ¨": 7509,
      "ĠáĬ¨áĭįáĪŃáĭ´": 7510,
      "áĭ¨áįĮáĮ¦": 7511,
      "áĭ¨áĭµáįįáĭµáįį": 7512,
      "ĠáĪ²áĭĺáĪ¨áįį": 7513,
      "ĠáĪ²áĭĪáĪįáĪµ": 7514,
      "ĠáĪ²áī³áĮłáīģ": 7515,
      "Ġáī¢áĪĺáĪĪáĪ±": 7516,
      "Ġáī¢áĭĪáĪŃáĭĪáĪŃ": 7517,
      "Ġáī¢áĪ°áĪŃáīĢáĭį": 7518,
      "Ġáī¢áĬ¨áįįáī±áīµ": 7519,
      "Ġáī¢áĪ³áĪ³áī±": 7520,
      "Ġáī°áĬ¨áĪ«áĬ¨áĪŃ": 7521,
      "Ġáī°áĭ°áĮįáįİ": 7522,
      "Ġáī°áĭ³áī¥áĭ¬": 7523,
      "ĠáĬłáĮĪáĮ¨áī±": 7524,
      "ĠáĬłáĮĪáī¦áĮŃ": 7525,
      "ĠáĬłáĮĪáĮ¥áįĭáĪįáĬĿ": 7526,
      "ĠáĭĪáĭĺáīµ": 7527,
      "ĠáĭĪáĪ¨áīħáīµ": 7528,
      "ĠáĪįáīĥáīĤáīµ": 7529,
      "ĠáĬłáĬķáīĢáĪĭáįĭáī½": 7530,
      "ĠáĪĿáĬŃáĮĪáĭ«áīµ": 7531,
      "ĠáĮĪáĬĺáĭĺáī¥": 7532,
      "ĠáĪ°áĬĵáįįáĮŃ": 7533,
      "ĠáīĢáī¡áĬĿ": 7534,
      "ĠáīĢáīłáĭĿáī£áĭĽ": 7535,
      "ĠáīĢáĪįáīĢáĪİ": 7536,
      "áĮīáĭĻáĭĭ": 7537,
      "ĠáĬ«áĪĪáīłáī°": 7538,
      "ĠáĬłáĭ«áĭ°áĪĿáīħ": 7539,
      "ĠáīµáĮ¸áĬķáĪ³áĪĪáī½": 7540,
      "ĠáīµáĪĦáĭ³áĪĪáĪħ": 7541,
      "Ġáīµáĭ°áĪ¨áĮįáĪĻ": 7542,
      "ĠáīµáĪĺáĪ«áĪĪáī½": 7543,
      "Ġáīµáī³áĮłáīħ": 7544,
      "ĠáīµáīĢáĪĿáĪ½": 7545,
      "áī¤áĬłáĪĪáĪģ": 7546,
      "ĠáĪµáĭ°áĭ±áĪįáĬĿ": 7547,
      "ĠáĪĭáĮ£áĪªáĭį": 7548,
      "ĠáĮłáĬķáīģáĪĭ": 7549,
      "ĠáĭĺáīłáĬĵáĭŃ": 7550,
      "ĠáįĪáĪ¨áĪ±áĬķ": 7551,
      "áĭ«áĪįáĮłáĪ¨áĮłáĪ¨": 7552,
      "áĭ«áĪįáĭĪáĪĪáĭµáĬ©áīµ": 7553,
      "Ġáĭ¨áĪļáįĪáĪŃáĭ°áĭįáĬķ": 7554,
      "Ġáĭ¨áĪļáĭĪáĪįáĭ°áĭįáĬķ": 7555,
      "Ġáĭ¨áĪļáĮĪáĮłáĪĪáĮłáĪīáīłáīµ": 7556,
      "ĠáĬłáīµáīĢáĪ¨áĮłáĪĿáĪĿ": 7557,
      "Ġáĭ¨áī°áīĢáĬĵáīĢáĬĲ": 7558,
      "áī£áĪįáĭĺáįĪáĬķáĪ½": 7559,
      "Ġáĭ«áĪµáĪ¨áĮįáĭĽáĪį": 7560,
      "Ġáĭ«áĪµáĮ®áĬ¸áĭĭáĪį": 7561,
      "Ġáĭ«áĪįáī°áĭĪáīĢáĪ¨": 7562,
      "Ġáĭ«áĪįáī°áī°áĬ®áĪ°": 7563,
      "Ġáī¢áĭ«áĬĵáĮįáĪ©áĪħ": 7564,
      "áĭ¨áĪļáĪ°áĪŃáīĢáĭįáĬķ": 7565,
      "ĠáĬłáĬķáĭ°áĮ¨áĪĽ": 7566,
      "ĠáĪ³áĭŃáīĢáĮ£áĮłáĪ©": 7567,
      "áĭ«áĪĪáĪµáįįáĪ«áĭį": 7568,
      "ĠáĬ¨áĪĺáĮĢáĪĺáĪªáĭ«áĭį": 7569,
      "ĠáĬ¨áĪĺáĬĲáĬ®áĪ±": 7570,
      "ĠáĬ«áĪįáĪĺáĬ¨áĪ©áĪĪáīµ": 7571,
      "ĠáīģáĮ¥áīĭáĮ¦áī½": 7572,
      "ĠáĭŃáĮĪáĬĵáĬĽáĪī": 7573,
      "ĠáĮŃáĮĪáīħáĪĭáīµ": 7574,
      "ĠáĭŃáĮłáī¥áīĢáĭĭáĪį": 7575,
      "Ġáī£áĪįáĬķáĮĢáĪ®áī½": 7576,
      "ĠáĪĭáĭŃáĪĪáīħáĪħ": 7577,
      "ĠáĬłáī³áĭ°áįįáĪŃáĪ½áī¥áĬĿ": 7578,
      "áĭ¨áĪĽáĭ«áĪµáī°áĬĽ": 7579,
      "ĠáīłáĪĺáĪĪáĬ®áī±": 7580,
      "áĪĪáĪĺáĪĦáĭµáĬĵ": 7581,
      "áĪĪáĪĽáĭ«áĭįáīģáĪ½": 7582,
      "áĪĪáĪĽáĭŃáĪ°áĮ¥": 7583,
      "áĮ¥áĪŃáĪ´áĪµ": 7584,
      "ĠáĬłáĪĽáĪ¨áĪ½áĬķ": 7585,
      "áĬłáīµáĬŃáĪįáīµ": 7586,
      "áĬłáīµáĮ¥áĪĭáĬĿ": 7587,
      "ĠáĬłáīłáĭµáĪªáĬĿ": 7588,
      "ĠáĬ¨áī°áīĢáĪĭáī¢": 7589,
      "áī°áĪĺáĪ¨áīħáĪģ": 7590,
      "áĬ«áĪįáĭ°áįĪáĪ¨áĪ°": 7591,
      "ĠáĮĵáĮīáĬķáī¸áĪŃ": 7592,
      "ĠáĮĵáĭ°áĬĽáĭįáĬķ": 7593,
      "áĭ«áĪĭáĪ¨áįĪáī½": 7594,
      "ĠáĭŃáĭ°áĬĲáīģáĪ©": 7595,
      "ĠáĪĺáĬķáĮįáĪµáī°": 7596,
      "Ġáī°áĮĪáĬ®áĪĪáĬĽ": 7597,
      "ĠáĪĪáĪļáĬĲáĮįáĪŃáĪħ": 7598,
      "Ġáĭ«áĪ¨áĮĭáĮįáĮ£áĪį": 7599,
      "ĠáīłáĮİáĭµáĮĵáĭ³": 7600,
      "ĠáĪµáīµáĭĪáĪįáĭµáīłáīµ": 7601,
      "Ġáĭ¨áĪŀáī°áī½áīłáīµáĬĵ": 7602,
      "Ġáīµáī³áĮĪáĪĽáĪĪáī½": 7603,
      "ĠáĭŃáĪĺáĪ°áĬŃáī¶áįĭáīłáī³áĪį": 7604,
      "ĠáĬ¢áĭ¨áĪ©áĪ³áĪĮáĪĿ": 7605,
      "10": 7606,
      "22": 7607,
      "56": 7608,
      "£áĬķ": 7609,
      "¥áĪĿáĬķ": 7610,
      "ªáĭį": 7611,
      "ªáįĪáĪŃ": 7612,
      "®áĮłáĭį": 7613,
      "¯áĬķ": 7614,
      "°áĭį": 7615,
      "³áĭį": 7616,
      "³áĭ°": 7617,
      "³áīĢ": 7618,
      "´áĬķ": 7619,
      "´áĪĮ": 7620,
      "´áĮ¥áĪ®": 7621,
      "µáĭ«": 7622,
      "·áĬķáĮĪ": 7623,
      "¹áĪįáĬĿ": 7624,
      "»áīµ": 7625,
      "»áĪħ": 7626,
      "»áĬĿ": 7627,
      "½áĭį": 7628,
      "½áĬ¸áĭį": 7629,
      "¾áĪħ": 7630,
      "Ġ-": 7631,
      "Ġ.": 7632,
      "Ġáį": 7633,
      "ĠáįĮ": 7634,
      "Ġáį³": 7635,
      "Ġáįı": 7636,
      "Ġáįĸ": 7637,
      "Ġáįĭáī³": 7638,
      "ĠáįĭáĪ½": 7639,
      "ĠáįĮáĬķ": 7640,
      "ĠáįĴ": 7641,
      "Ġáįķ": 7642,
      "Ġ....": 7643,
      "Ġ22": 7644,
      "Ģáī¥": 7645,
      "ĤáĮįáĪ«": 7646,
      "ĥáĭĺáĬķ": 7647,
      "ĥáĪĿáĪĮ": 7648,
      "Ħáĭµ": 7649,
      "Ħáī¥": 7650,
      "Ħáĭ°": 7651,
      "ħáĭ³áĪŃ": 7652,
      "ĨáĬĲ": 7653,
      "ĨáĭµáĬķ": 7654,
      "īáĬķ": 7655,
      "īáĭŃ": 7656,
      "īáĪ»": 7657,
      "İáĪŃ": 7658,
      "ıáĬķ": 7659,
      "ĲáĭĪ": 7660,
      "ĵáĪŃ": 7661,
      "ĺáĪŃ": 7662,
      "ĺáī½": 7663,
      "ĻáĪ´": 7664,
      "ĻáĪ½áĪ«": 7665,
      "ĽáĮŃ": 7666,
      "ĽáĪªáĭ«": 7667,
      "ŀáĬĿ": 7668,
      "áĪ¯": 7669,
      "áĪ£áĬķ": 7670,
      "áĭ£": 7671,
      "áĭīáĭŃ": 7672,
      "áĭĲáĭĪ": 7673,
      "áīŃ": 7674,
      "áĬ¥áĪĿáĬķ": 7675,
      "áĬ»áĬĿ": 7676,
      "áĬ½áĬ¸áĭį": 7677,
      "áĮ¾áĪĺáĬĽ": 7678,
      "áĮµáĭ«": 7679,
      "áĮ¹áĪįáĬĿ": 7680,
      "áĬłáĬĿ": 7681,
      "áĬłáĪĪáĭį": 7682,
      "áĬłáĪ©": 7683,
      "áĬłáĪ¬": 7684,
      "áĬłáĮŃ": 7685,
      "áĬłáĬ¨áĪ": 7686,
      "áĬłáĪĮ": 7687,
      "áĬłáĪĻ": 7688,
      "áĬłáī±áĬķ": 7689,
      "áĬłáĬĸ": 7690,
      "áĬłáī»": 7691,
      "áĬłáī°áĬĽ": 7692,
      "áĬłáĭĻ": 7693,
      "áĬłáĭµáĪŃ": 7694,
      "áĬłáĭ²": 7695,
      "áĬłáī´": 7696,
      "áĬłáīµáĬķ": 7697,
      "áĬłáĮĪáĬĿ": 7698,
      "áĬłáĮĪáī£": 7699,
      "áĬłáīĭ": 7700,
      "áĬłáī¸áĭį": 7701,
      "áĬłáĮĪáĪ©": 7702,
      "áĬłáĭĪáĭ°": 7703,
      "áĬłáĮĦ": 7704,
      "áĬłáĮ¥áĪŃ": 7705,
      "áĬłáĪĭáĭį": 7706,
      "áĬłáĮ£áĪª": 7707,
      "áĬłáī³áĪĿ": 7708,
      "áĬłáĪįáīħ": 7709,
      "áĬłáĪĿáĬķ": 7710,
      "áĬłáĮłáĮ£": 7711,
      "áĬłáĬŃáĪŃ": 7712,
      "áĬłáĮ©": 7713,
      "áĬłáĪĦáĭµ": 7714,
      "áĬłáĮģ": 7715,
      "áĬłáĪ¬áīµ": 7716,
      "áĬłáĪ°áĪŃ": 7717,
      "áĬłáĪ°áĪ«": 7718,
      "áĬłáĭĺáĮĪ": 7719,
      "áĬłáĪ¸áīµ": 7720,
      "áĬłáĬŃáīµ": 7721,
      "áĬłáīĢáĪĽ": 7722,
      "áĬłáĪ¨áī£": 7723,
      "áĬłáĪĺáĪ«": 7724,
      "áĬłáĭ¨áīĢ": 7725,
      "áĬłáĮĤáĬķ": 7726,
      "áĬłáĭ¨áĪ°": 7727,
      "áĬłáĭ¨áĪģ": 7728,
      "áĬłáĪ¨áĪĿ": 7729,
      "áĬłáĪĽáĬķ": 7730,
      "áĬłáĪīáĬķ": 7731,
      "áĬłáĭĽáĪĿ": 7732,
      "áĬłáĮĦáĬķ": 7733,
      "áĬłáīĢáī¥": 7734,
      "áĬłáĮŃáĬķ": 7735,
      "áĬłáįĪáĬĽ": 7736,
      "áĬłáĭ¶áī½": 7737,
      "áĬłáĪ¨áĪ»": 7738,
      "áĬłáī°áĬ«áĬ¨áĪį": 7739,
      "áĬłáīĢáīłáīµ": 7740,
      "áĬłáĮĵáīµ": 7741,
      "áĬłáĪ¨áĪĺáĬĶ": 7742,
      "áĬłáĬ¨áĬ¨áĬĿ": 7743,
      "áĬłáįĦáĭį": 7744,
      "áĬłáĭ¶áĪĭ": 7745,
      "ĠáĭīáĪ»": 7746,
      "ĠáĭİáĪŃ": 7747,
      "ĠáĪ®áĮł": 7748,
      "ĠáĪªáįĪáĪŃ": 7749,
      "ĠáĪ®áĮłáĭį": 7750,
      "ĠáĪĥáĪĿáĪĮ": 7751,
      "ĠáĬłáīĢ": 7752,
      "ĠáĬłáĪĢ": 7753,
      "ĠáĬłáĪª": 7754,
      "ĠáĬłáĭ±": 7755,
      "ĠáĬłáī¶": 7756,
      "ĠáĬłáĬ©": 7757,
      "ĠáĬłáĪĮ": 7758,
      "ĠáĬłáī¡": 7759,
      "ĠáĬłáī³áĪį": 7760,
      "ĠáĬłáī¦": 7761,
      "ĠáĬłáĬ®": 7762,
      "ĠáĬłáī»": 7763,
      "ĠáĬłáĮ¸": 7764,
      "ĠáĬłáīłáĪŃ": 7765,
      "ĠáĬłáĭŀ": 7766,
      "ĠáĬłáĪ¨áĪµ": 7767,
      "ĠáĬłáĭ²": 7768,
      "ĠáĬłáī´": 7769,
      "ĠáĬłáĭ©": 7770,
      "ĠáĬłáĪ´áīµ": 7771,
      "ĠáĬłáĭ³áĬĽ": 7772,
      "ĠáĬłáĪĺáĬķ": 7773,
      "ĠáĬłáĮįáĭ³": 7774,
      "ĠáĬłáīħáĪĿ": 7775,
      "ĠáĬłáĪ¾": 7776,
      "ĠáĬłáĭµáĬķ": 7777,
      "ĠáĬłáĪ¨áĪ°": 7778,
      "ĠáĬłáĪĺáĪĪ": 7779,
      "ĠáĬłáĭ¨áĪĺ": 7780,
      "ĠáĬłáĪĬ": 7781,
      "ĠáĬłáĭĺáĬķ": 7782,
      "ĠáĬłáĪģáĪĪáīµ": 7783,
      "ĠáĬłáīĢáĪĺ": 7784,
      "ĠáĬłáĭµáĪĿ": 7785,
      "ĠáĬłáĬĲáĮĭ": 7786,
      "ĠáĬłáĭĺáī¥": 7787,
      "ĠáĬłáĮģ": 7788,
      "ĠáĬłáĪ¬áīµ": 7789,
      "ĠáĬłáī°áĪĺ": 7790,
      "ĠáĬłáĭ¨áĭĪ": 7791,
      "ĠáĬłáĪ°áĪ«": 7792,
      "ĠáĬłáĮ¤": 7793,
      "ĠáĬłáīĢáĪĭ": 7794,
      "ĠáĬłáĭ¨áĭį": 7795,
      "ĠáĬłáĭ¨áįĪ": 7796,
      "ĠáĬłáĬ«áĪį": 7797,
      "ĠáĬłáĪ¨áī³": 7798,
      "ĠáĬłáĬŃáīµ": 7799,
      "ĠáĬłáĮ¨áĭĪ": 7800,
      "ĠáĬłáĪĨáĭ±": 7801,
      "ĠáĬłáīħáĬķ": 7802,
      "ĠáĬłáĬŃáĬķ": 7803,
      "ĠáĬłáĭ¨áĪģ": 7804,
      "ĠáĬłáĮ¸áĭµáīħ": 7805,
      "ĠáĬłáįĪáĪį": 7806,
      "ĠáĬłáĬ®áĪ«": 7807,
      "ĠáĬłáįİáī½": 7808,
      "ĠáĬłáĭ¨áĪŀáī°": 7809,
      "ĠáĬłáĭ¨áĪħ": 7810,
      "ĠáĬłáĪ¸áĬķ": 7811,
      "ĠáĬłáĬ©áĪī": 7812,
      "ĠáĬłáĮİáĪ¨áĪ°": 7813,
      "ĠáĬłáĪŃáĪµáīµ": 7814,
      "ĠáĬłáĪ¨áĪ°áĭį": 7815,
      "ĠáĬłáĬ©áĭ«": 7816,
      "ĠáĬłáīĭáīµ": 7817,
      "ĠáĬłáĮ®áĪħ": 7818,
      "ĠáĬłáīĢáĪĺáĭį": 7819,
      "ĠáĬłáĬ¨áįĭáįĪáĪį": 7820,
      "ĠáĬłáĪ¨áĪĺáĬĶ": 7821,
      "ĠáĬłáĬ¨áĬ¨áĬĿ": 7822,
      "ĠáĬłáĭ¨áĪ«áĪµ": 7823,
      "ĠáĬłáĮ¾áĪĽ": 7824,
      "ĠáĬłáĮŃáĪĭ": 7825,
      "ĠáĬłáī·áīĭ": 7826,
      "ĠáĬłáĭ¨áĪ°áĪĽ": 7827,
      "ĠáĬłáĪ£áĬķ": 7828,
      "Ġáī´áĪĮ": 7829,
      "Ġáī»áīµ": 7830,
      "áĪįáĭµ": 7831,
      "áĪįáīłáīµ": 7832,
      "áĪįáĮŃ": 7833,
      "áĪįáĬ©": 7834,
      "áĪįáĪ¶": 7835,
      "áĪįáĪħáĬķ": 7836,
      "áĪįáĭĻ": 7837,
      "áĪįáĬĵáĪį": 7838,
      "áĪįáĮĭáĭŃ": 7839,
      "áĪįáĪľ": 7840,
      "áĪįáī°áĭį": 7841,
      "áĪįáĬ³áĬķ": 7842,
      "áĪįáĪĢáĪį": 7843,
      "áĪįáĬ«áĪĿ": 7844,
      "áĪįáįĭáīµ": 7845,
      "áĪįáĬŃáīµ": 7846,
      "áĪįáĪ±áīµ": 7847,
      "áĪįáĪĽáī±": 7848,
      "áĪįáĮ¥áĪħ": 7849,
      "áĪįáĬŃáĪĪáĭį": 7850,
      "áĪįáīĥáĪĪáī½": 7851,
      "áĪįáĮŃáĪį": 7852,
      "áĪįáīĥáī½áĪģ": 7853,
      "áĬķáĭ«": 7854,
      "áĬķáĬĵ": 7855,
      "áĬķáĪĽ": 7856,
      "áĬķáįį": 7857,
      "áĬķáĬ¨": 7858,
      "áĬķáĬŃ": 7859,
      "áĬķáĪ»": 7860,
[...]
